<unk>	0
<s>	0
</s>	0
▁i	-0
an	-1
he	-2
▁A	-3
▁t	-4
er	-5
▁the	-6
▁o	-7
▁is	-8
ed	-9
at	-10
ar	-11
as	-12
▁w	-13
on	-14
▁in	-15
▁of	-16
and	-17
ic	-18
or	-19
es	-20
it	-21
in	-22
al	-23
en	-24
▁and	-25
▁T	-26
▁S	-27
is	-28
▁b	-29
▁c	-30
▁C	-31
▁a	-32
▁p	-33
re	-34
▁l	-35
ou	-36
▁f	-37
▁s	-38
▁M	-39
▁B	-40
▁The	-41
om	-42
▁m	-43
▁1	-44
▁was	-45
▁I	-46
ad	-47
il	-48
am	-49
et	-50
▁h	-51
▁U	-52
oc	-53
▁P	-54
▁wh	-55
▁Al	-56
ion	-57
el	-58
us	-59
ay	-60
▁R	-61
▁D	-62
00	-63
▁d	-64
oun	-65
ol	-66
▁H	-67
ated	-68
▁F	-69
ir	-70
ac	-71
▁St	-72
▁Un	-73
▁G	-74
ing	-75
▁has	-76
ich	-77
▁W	-78
ia	-79
are	-80
▁N	-81
ent	-82
art	-83
▁by	-84
▁L	-85
em	-86
▁J	-87
ers	-88
ur	-89
iv	-90
gr	-91
▁which	-92
ity	-93
th	-94
ag	-95
▁E	-96
ig	-97
orn	-98
ates	-99
ited	-100
un	-101
ation	-102
ount	-103
▁2	-104
▁United	-105
▁In	-106
▁are	-107
ch	-108
ian	-109
▁le	-110
▁fr	-111
▁States	-112
▁loc	-113
ber	-114
ot	-115
▁19	-116
▁from	-117
st	-118
ap	-119
▁pl	-120
ce	-121
le	-122
▁whe	-123
▁an	-124
ub	-125
ort	-126
res	-127
▁Am	-128
▁where	-129
▁n	-130
ab	-131
id	-132
▁K	-133
▁An	-134
ican	-135
▁on	-136
ov	-137
▁for	-138
▁located	-139
▁play	-140
▁as	-141
▁gr	-142
ish	-143
ter	-144
um	-145
port	-146
▁lead	-147
▁born	-148
all	-149
▁V	-150
▁O	-151
os	-152
ak	-153
ow	-154
▁r	-155
ts	-156
ith	-157
ec	-158
hn	-159
usic	-160
ex	-161
▁with	-162
▁music	-163
▁k	-164
ounty	-165
op	-166
▁Amer	-167
▁American	-168
▁leader	-169
ul	-170
ip	-171
▁County	-172
▁to	-173
ew	-174
▁Ab	-175
ra	-176
▁or	-177
ut	-178
▁part	-179
▁Air	-180
ound	-181
▁It	-182
ain	-183
oup	-184
▁com	-185
ital	-186
▁at	-187
od	-188
▁(	-189
▁Ar	-190
▁st	-191
ry	-192
▁As	-193
▁Ad	-194
▁per	-195
▁who	-196
ud	-197
0.	-198
ate	-199
ok	-200
▁New	-201
▁re	-202
ang	-203
ational	-204
ant	-205
▁Ind	-206
ist	-207
▁group	-208
▁3	-209
▁et	-210
▁He	-211
ill	-212
ember	-213
hnic	-214
▁ethnic	-215
▁Ch	-216
ell	-217
est	-218
▁al	-219
ton	-220
▁di	-221
▁sp	-222
av	-223
qu	-224
▁Sp	-225
▁city	-226
eg	-227
ep	-228
ivers	-229
so	-230
▁its	-231
▁Americans	-232
im	-233
ive	-234
ey	-235
ard	-236
apital	-237
▁Airport	-238
▁g	-239
hed	-240
etres	-241
io	-242
▁capital	-243
▁And	-244
ong	-245
▁Mar	-246
eng	-247
age	-248
▁En	-249
▁Univers	-250
land	-251
▁count	-252
▁plays	-253
way	-254
▁Tex	-255
▁man	-256
erv	-257
▁country	-258
ine	-259
▁University	-260
▁Eng	-261
ie	-262
lub	-263
ff	-264
▁At	-265
ock	-266
▁Texas	-267
ack	-268
isc	-269
▁be	-270
ace	-271
ess	-272
▁200	-273
▁Aar	-274
ust	-275
fr	-276
tern	-277
angu	-278
igin	-279
ork	-280
own	-281
▁langu	-282
▁origin	-283
sis	-284
▁found	-285
ran	-286
ington	-287
ib	-288
▁member	-289
▁serv	-290
▁also	-291
ash	-292
ore	-293
▁Ak	-294
end	-295
oci	-296
per	-297
▁10	-298
▁run	-299
▁played	-300
▁died	-301
lo	-302
ubl	-303
uc	-304
ient	-305
▁club	-306
oken	-307
▁runway	-308
▁spoken	-309
vel	-310
ly	-311
edient	-312
▁ingr	-313
▁ingredient	-314
ame	-315
if	-316
ign	-317
olo	-318
▁language	-319
▁FC	-320
ative	-321
ont	-322
ect	-323
ished	-324
der	-325
▁one	-326
▁Rom	-327
ilom	-328
ond	-329
ico	-330
▁4	-331
rew	-332
rit	-333
63	-334
▁ch	-335
her	-336
ah	-337
igh	-338
lish	-339
▁Pr	-340
01	-341
▁Cal	-342
▁se	-343
▁5	-344
▁English	-345
ternational	-346
▁manag	-347
▁Wash	-348
ary	-349
▁International	-350
▁Ap	-351
▁air	-352
man	-353
over	-354
▁Gre	-355
▁it	-356
ice	-357
att	-358
▁Alan	-359
▁Washington	-360
pl	-361
emb	-362
ose	-363
our	-364
▁Y	-365
lu	-366
▁he	-367
▁gen	-368
ek	-369
▁dish	-370
▁11	-371
▁rock	-372
▁th	-373
lin	-374
ones	-375
onn	-376
ri	-377
ord	-378
ge	-379
umber	-380
▁Anders	-381
▁Jo	-382
iana	-383
▁leng	-384
enn	-385
sh	-386
▁Aust	-387
▁Te	-388
▁ab	-389
och	-390
lant	-391
▁length	-392
▁Tur	-393
▁genre	-394
0000	-395
ean	-396
soci	-397
resid	-398
▁v	-399
▁oper	-400
ark	-401
▁Aaron	-402
▁kilom	-403
ball	-404
ue	-405
▁fo	-406
ev	-407
▁US	-408
ade	-409
orm	-410
▁Mart	-411
ston	-412
any	-413
▁groups	-414
ams	-415
iforn	-416
▁led	-417
otball	-418
▁Mad	-419
▁City	-420
▁Californ	-421
ena	-422
ire	-423
ham	-424
6.	-425
ett	-426
acon	-427
▁ground	-428
ama	-429
po	-430
▁Ac	-431
ee	-432
form	-433
▁California	-434
▁Sc	-435
ove	-436
ite	-437
▁whose	-438
▁te	-439
ik	-440
0.0	-441
▁Alb	-442
se	-443
▁Gr	-444
▁number	-445
bert	-446
▁Ital	-447
▁his	-448
ara	-449
chn	-450
anc	-451
▁Bak	-452
▁Ro	-453
▁Afr	-454
resident	-455
▁name	-456
8.	-457
ons	-458
org	-459
ric	-460
▁disc	-461
eded	-462
zz	-463
▁AI	-464
▁201	-465
ipp	-466
▁area	-467
▁comes	-468
▁metres	-469
enc	-470
▁national	-471
son	-472
▁suc	-473
igned	-474
▁II	-475
▁Col	-476
iz	-477
▁ep	-478
▁Ge	-479
▁epoch	-480
aun	-481
-1	-482
▁perform	-483
lues	-484
▁York	-485
▁band	-486
▁De	-487
eks	-488
ional	-489
eb	-490
ater	-491
▁served	-492
ays	-493
▁John	-494
olog	-495
▁bo	-496
▁inc	-497
▁reg	-498
▁Martin	-499
▁Aleks	-500
▁publ	-501
au	-502
ome	-503
ob	-504
ass	-505
▁level	-506
▁that	-507
▁airport	-508
uil	-509
amp	-510
▁kn	-511
▁eng	-512
oug	-513
2.	-514
▁sea	-515
▁Atlant	-516
iam	-517
▁kilometres	-518
▁km	-519
▁region	-520
▁location	-521
▁6	-522
quare	-523
lud	-524
▁above	-525
▁known	-526
ner	-527
▁includ	-528
▁"	-529
ight	-530
▁Georg	-531
iated	-532
▁sing	-533
▁Spain	-534
000	-535
▁African	-536
▁Ant	-537
▁Techn	-538
▁engine	-539
yl	-540
ast	-541
▁Fran	-542
abl	-543
▁Mon	-544
▁call	-545
▁made	-546
ru	-547
▁pop	-548
▁Z	-549
▁buil	-550
4.	-551
arl	-552
fred	-553
▁team	-554
cho	-555
arac	-556
▁off	-557
ro	-558
▁called	-559
chit	-560
adem	-561
▁football	-562
▁India	-563
▁Alex	-564
▁AID	-565
▁Alfred	-566
uf	-567
outh	-568
▁Will	-569
hus	-570
▁Bu	-571
▁195	-572
▁Reg	-573
▁date	-574
▁199	-575
▁Indiana	-576
▁cre	-577
ott	-578
▁Austin	-579
ris	-580
bur	-581
eop	-582
ument	-583
ja	-584
ave	-585
▁Albert	-586
▁War	-587
ollo	-588
▁Apollo	-589
▁ingredients	-590
rin	-591
▁18	-592
▁El	-593
ick	-594
▁All	-595
ison	-596
lack	-597
eople	-598
9.	-599
urr	-600
▁main	-601
▁singer	-602
▁Aleksand	-603
▁Hou	-604
▁For	-605
▁can	-606
▁operated	-607
▁musical	-608
▁Part	-609
iod	-610
AS	-611
▁period	-612
▁Wh	-613
3.	-614
ilot	-615
▁curr	-616
vil	-617
▁associ	-618
▁Mal	-619
ma	-620
▁12	-621
dul	-622
▁pilot	-623
▁Abdul	-624
▁Technolog	-625
▁state	-626
▁Turk	-627
ica	-628
▁met	-629
arg	-630
ert	-631
ial	-632
ute	-633
▁bacon	-634
▁blues	-635
▁198	-636
ersey	-637
▁Bar	-638
▁manager	-639
plet	-640
bital	-641
▁Jersey	-642
5.	-643
▁Ph	-644
▁Aston	-645
▁people	-646
ence	-647
▁Aarhus	-648
▁published	-649
▁associated	-650
7.	-651
oll	-652
▁us	-653
ns	-654
▁Mex	-655
ceeded	-656
▁Brit	-657
▁Italy	-658
rem	-659
adu	-660
▁home	-661
▁laun	-662
▁President	-663
ten	-664
▁apo	-665
▁apoap	-666
▁Indones	-667
▁Ass	-668
000.0	-669
▁apoapsis	-670
1.	-671
▁Asian	-672
ASA	-673
▁NASA	-674
▁square	-675
▁succeeded	-676
ines	-677
ais	-678
aracter	-679
▁Native	-680
▁Mend	-681
arr	-682
ania	-683
ough	-684
▁orbital	-685
▁comp	-686
ka	-687
rid	-688
▁writ	-689
ffil	-690
▁Mexico	-691
▁16	-692
▁Mat	-693
cadem	-694
▁25	-695
act	-696
▁Man	-697
▁Andrew	-698
▁discover	-699
▁stud	-700
▁Ake	-701
ondon	-702
▁affil	-703
▁Akeem	-704
rans	-705
▁Rec	-706
ords	-707
▁written	-708
stit	-709
▁AIDA	-710
▁serves	-711
ague	-712
▁Dec	-713
▁London	-714
ron	-715
▁Ag	-716
stitute	-717
▁popul	-718
634	-719
attle	-720
▁White	-721
▁comm	-722
que	-723
▁musician	-724
▁7	-725
▁un	-726
ure	-727
ina	-728
▁crew	-729
ura	-730
ens	-731
ablished	-732
▁des	-733
resent	-734
up	-735
▁originates	-736
ft	-737
▁17	-738
▁Can	-739
▁work	-740
▁Party	-741
▁William	-742
▁affiliated	-743
aj	-744
iap	-745
auce	-746
▁Ang	-747
▁King	-748
iapsis	-749
▁periapsis	-750
▁Jul	-751
▁sauce	-752
mark	-753
embers	-754
▁Institute	-755
▁built	-756
▁members	-757
ans	-758
▁ow	-759
▁0	-760
▁She	-761
▁Mary	-762
established	-763
eed	-764
▁Den	-765
▁Malays	-766
arth	-767
argest	-768
▁sh	-769
▁193	-770
00.	-771
▁Inf	-772
han	-773
burg	-774
▁Records	-775
ach	-776
ins	-777
▁Ah	-778
▁established	-779
▁largest	-780
▁discovered	-781
▁8	-782
mer	-783
chool	-784
▁Indonesia	-785
▁Rome	-786
▁IS	-787
arya	-788
charya	-789
▁ar	-790
ives	-791
▁Georgia	-792
▁Sci	-793
▁Town	-794
iation	-795
▁Regional	-796
▁Acharya	-797
ct	-798
ile	-799
),	-800
).	-801
ai	-802
ene	-803
rev	-804
▁pr	-805
▁Com	-806
▁there	-807
shire	-808
▁Span	-809
oy	-810
▁gradu	-811
erb	-812
▁cont	-813
hy	-814
▁AC	-815
ched	-816
ired	-817
▁worked	-818
▁Denmark	-819
▁designed	-820
iet	-821
ase	-822
▁office	-823
▁Anderson	-824
las	-825
▁1634	-826
▁Space	-827
▁Ger	-828
ical	-829
ned	-830
▁Madrid	-831
ought	-832
▁Phil	-833
▁created	-834
ost	-835
ship	-836
arian	-837
ae	-838
▁Battle	-839
▁14	-840
ales	-841
▁Adams	-842
▁9	-843
ants	-844
▁fl	-845
ress	-846
ville	-847
thm	-848
▁Bat	-849
▁fought	-850
ased	-851
▁Wil	-852
hythm	-853
▁Adam	-854
▁Force	-855
▁House	-856
▁Monument	-857
▁Au	-858
▁192	-859
ander	-860
▁Rib	-861
▁leaders	-862
▁Gu	-863
eral	-864
▁March	-865
led	-866
▁art	-867
▁27	-868
dom	-869
▁Ahm	-870
ered	-871
icoff	-872
ster	-873
aw	-874
ding	-875
orth	-876
▁under	-877
▁Q	-878
ors	-879
▁July	-880
▁archit	-881
▁Ribicoff	-882
▁Alf	-883
ublic	-884
og	-885
ella	-886
onnect	-887
▁managed	-888
▁trans	-889
▁Br	-890
ufact	-891
▁graduated	-892
▁Kingdom	-893
▁student	-894
▁Ay	-895
▁Th	-896
▁Ser	-897
▁AF	-898
▁Pol	-899
▁Township	-900
▁long	-901
▁Philipp	-902
▁originated	-903
▁launched	-904
▁de	-905
▁Con	-906
▁Rep	-907
▁Hall	-908
▁book	-909
▁solo	-910
ta	-911
inc	-912
▁15	-913
ago	-914
ufactur	-915
▁School	-916
▁Atlantic	-917
-2	-918
uss	-919
▁character	-920
ita	-921
▁196	-922
▁rel	-923
olf	-924
una	-925
drin	-926
ies	-927
▁103	-928
▁Jones	-929
▁architect	-930
▁der	-931
▁AL	-932
otal	-933
areer	-934
▁career	-935
erm	-936
▁Her	-937
▁Infant	-938
hio	-939
▁Technology	-940
the	-941
ivil	-942
▁based	-943
-0	-944
▁Sum	-945
▁Er	-946
▁total	-947
uay	-948
▁Vir	-949
osa	-950
▁Civil	-951
▁manufactur	-952
▁flo	-953
▁German	-954
raz	-955
▁performs	-956
ages	-957
▁December	-958
▁bir	-959
▁ret	-960
ister	-961
▁Ohio	-962
▁Spanish	-963
ne	-964
abel	-965
▁Abra	-966
thor	-967
istan	-968
▁Abraham	-969
▁Infantry	-970
az	-971
▁Aldrin	-972
▁Mendris	-973
-3	-974
ld	-975
hab	-976
▁Ell	-977
▁DC	-978
▁Canad	-979
▁Malaysia	-980
▁National	-981
▁y	-982
ollow	-983
ubur	-984
10	-985
▁Shep	-986
▁Mendrisio	-987
onnell	-988
▁31	-989
▁birth	-990
▁Fr	-991
▁metal	-992
ria	-993
▁Sw	-994
rist	-995
▁retired	-996
▁Bo	-997
Donnell	-998
ylv	-999
▁Shepard	-1000
ency	-1001
▁Black	-1002
▁contain	-1003
old	-1004
▁1963	-1005
▁Akron	-1006
▁includes	-1007
ola	-1008
oz	-1009
aid	-1010
▁Its	-1011
▁Sing	-1012
▁have	-1013
▁their	-1014
▁Add	-1015
▁Eur	-1016
92	-1017
isco	-1018
ape	-1019
▁Mich	-1020
▁Connect	-1021
onsin	-1022
▁Akita	-1023
ars	-1024
ere	-1025
▁Min	-1026
usion	-1027
aka	-1028
▁Le	-1029
atic	-1030
isconsin	-1031
aya	-1032
icut	-1033
▁Soci	-1034
▁both	-1035
andw	-1036
26	-1037
▁Ob	-1038
ether	-1039
▁owned	-1040
▁fusion	-1041
▁Madison	-1042
▁Connecticut	-1043
gra	-1044
lands	-1045
iot	-1046
▁Ju	-1047
hens	-1048
igan	-1049
▁Bur	-1050
▁but	-1051
▁Athens	-1052
99	-1053
▁j	-1054
min	-1055
nal	-1056
▁Elliot	-1057
▁commander	-1058
▁Av	-1059
▁1634:	-1060
ames	-1061
▁See	-1062
▁Buzz	-1063
▁inhab	-1064
▁Britain	-1065
▁complet	-1066
ier	-1067
▁Nether	-1068
▁Social	-1069
▁former	-1070
▁rec	-1071
ilene	-1072
▁Sport	-1073
▁Alp	-1074
unk	-1075
▁Pal	-1076
born	-1077
ikov	-1078
▁Atlanta	-1079
ny	-1080
apore	-1081
▁Bean	-1082
▁dess	-1083
▁Public	-1084
▁related	-1085
▁Singapore	-1086
ied	-1087
▁23	-1088
▁Abilene	-1089
▁Sh	-1090
▁signed	-1091
sociation	-1092
▁Aleksandr	-1093
▁Albany	-1094
▁completed	-1095
ys	-1096
ment	-1097
ouis	-1098
▁Ana	-1099
▁Ram	-1100
ward	-1101
▁Ber	-1102
▁sandw	-1103
rd	-1104
55	-1105
▁e	-1106
▁Bus	-1107
irst	-1108
▁England	-1109
▁current	-1110
▁beg	-1111
▁bel	-1112
ering	-1113
▁Arian	-1114
▁population	-1115
▁inhabit	-1116
eron	-1117
fer	-1118
▁Wisconsin	-1119
▁ass	-1120
▁Louis	-1121
▁belong	-1122
▁Mah	-1123
▁bod	-1124
▁students	-1125
ous	-1126
atives	-1127
▁Su	-1128
more	-1129
▁dessert	-1130
▁currency	-1131
▁Netherlands	-1132
ide	-1133
▁Dr	-1134
base	-1135
▁Jan	-1136
▁comic	-1137
71	-1138
▁May	-1139
▁Turner	-1140
▁Michigan	-1141
pe	-1142
ime	-1143
enns	-1144
▁Dav	-1145
▁now	-1146
▁used	-1147
ournal	-1148
ylvania	-1149
▁assemb	-1150
.,	-1151
ece	-1152
ench	-1153
siss	-1154
ississ	-1155
▁Penns	-1156
▁France	-1157
ippi	-1158
▁Dem	-1159
▁Abel	-1160
▁while	-1161
▁Pennsylvania	-1162
ference	-1163
ississippi	-1164
▁artist	-1165
▁founded	-1166
88	-1167
▁began	-1168
▁Association	-1169
▁Mississippi	-1170
iy	-1171
▁Cent	-1172
▁Alison	-1173
▁rocket	-1174
▁Mc	-1175
▁label	-1176
▁Greece	-1177
iss	-1178
▁AFC	-1179
▁var	-1180
▁academ	-1181
▁manufactured	-1182
ato	-1183
gin	-1184
ande	-1185
ason	-1186
▁test	-1187
arn	-1188
aceae	-1189
▁Philippines	-1190
▁inhabitants	-1191
".	-1192
var	-1193
▁Cl	-1194
▁Del	-1195
▁Sri	-1196
uburn	-1197
▁back	-1198
▁dens	-1199
▁Angola	-1200
▁density	-1201
▁academic	-1202
aul	-1203
raft	-1204
▁Hel	-1205
▁Club	-1206
▁Great	-1207
▁Auburn	-1208
▁body	-1209
▁Bacon	-1210
iness	-1211
▁Obama	-1212
▁rhythm	-1213
udi	-1214
ull	-1215
▁Ta	-1216
▁Wer	-1217
▁Christ	-1218
▁Indian	-1219
▁flight	-1220
ail	-1221
gon	-1222
▁Os	-1223
quer	-1224
▁start	-1225
querque	-1226
de	-1227
ings	-1228
ried	-1229
▁Jav	-1230
uring	-1231
uquerque	-1232
ake	-1233
ador	-1234
ares	-1235
▁Alv	-1236
▁2014	-1237
▁State	-1238
▁Barack	-1239
▁Albuquerque	-1240
ict	-1241
▁Loc	-1242
▁Business	-1243
ating	-1244
▁sandwich	-1245
▁av	-1246
ountain	-1247
▁transport	-1248
▁Har	-1249
▁Pak	-1250
▁att	-1251
▁fin	-1252
▁deriv	-1253
▁Italian	-1254
▁company	-1255
heim	-1256
ions	-1257
▁Ahmet	-1258
▁Fountain	-1259
ira	-1260
▁NR	-1261
aisa	-1262
▁had	-1263
▁Long	-1264
istric	-1265
▁Serie	-1266
▁His	-1267
▁they	-1268
▁contains	-1269
ein	-1270
▁Alc	-1271
▁Anaheim	-1272
▁origins	-1273
60	-1274
ium	-1275
▁sq	-1276
▁Pakistan	-1277
▁assembled	-1278
resentatives	-1279
/2	-1280
te	-1281
iel	-1282
osc	-1283
▁One	-1284
overn	-1285
▁Is	-1286
▁cod	-1287
essor	-1288
▁were	-1289
▁started	-1290
imetres	-1291
itz	-1292
▁La	-1293
ginia	-1294
brev	-1295
▁Virginia	-1296
agn	-1297
▁Il	-1298
▁Or	-1299
▁Sy	-1300
▁Lan	-1301
dam	-1302
jas	-1303
ves	-1304
lege	-1305
▁award	-1306
aff	-1307
ois	-1308
▁variation	-1309
▁Representatives	-1310
ana	-1311
cio	-1312
ept	-1313
rug	-1314
▁Ban	-1315
▁Vis	-1316
ruguay	-1317
▁Calcio	-1318
▁within	-1319
ternative	-1320
▁Born	-1321
▁X	-1322
olis	-1323
ences	-1324
pleton	-1325
▁North	-1326
▁1.	-1327
▁13	-1328
▁el	-1329
▁con	-1330
▁Uruguay	-1331
▁Appleton	-1332
33	-1333
eak	-1334
eal	-1335
haj	-1336
▁SC	-1337
▁Arr	-1338
▁Fel	-1339
▁Rid	-1340
▁Tenn	-1341
▁Accadem	-1342
▁Minister	-1343
yle	-1344
▁speak	-1345
▁Archit	-1346
▁belongs	-1347
▁Nov	-1348
▁mill	-1349
▁Accademia	-1350
▁sec	-1351
ewell	-1352
oscow	-1353
▁food	-1354
▁Moscow	-1355
▁Alexand	-1356
77	-1357
▁20	-1358
▁rep	-1359
alore	-1360
▁record	-1361
▁Sciences	-1362
yr	-1363
ended	-1364
▁Park	-1365
▁British	-1366
▁College	-1367
▁AM	-1368
itzer	-1369
▁Baku	-1370
▁Bang	-1371
▁Juan	-1372
▁Mahm	-1373
istrict	-1374
itzerland	-1375
esc	-1376
les	-1377
▁Cam	-1378
▁Par	-1379
▁full	-1380
BN	-1381
isa	-1382
rad	-1383
▁Kh	-1384
▁Aja	-1385
▁Canada	-1386
▁Bangalore	-1387
mp	-1388
ero	-1389
▁org	-1390
▁Ajax	-1391
▁league	-1392
uit	-1393
▁Dan	-1394
▁Hun	-1395
▁been	-1396
▁mater	-1397
aba	-1398
▁197	-1399
▁Switzerland	-1400
adh	-1401
esh	-1402
mit	-1403
str	-1404
▁Cle	-1405
▁Comp	-1406
▁Clevel	-1407
▁Chie	-1408
▁ISBN	-1409
▁Rock	-1410
▁Architett	-1411
▁Cleveland	-1412
gor	-1413
▁hop	-1414
▁Europ	-1415
▁Prime	-1416
▁Turkey	-1417
▁floors	-1418
▁Maryland	-1419
▁Pl	-1420
▁esc	-1421
ocity	-1422
▁escape	-1423
▁Antares	-1424
jan	-1425
▁Ex	-1426
anco	-1427
odge	-1428
▁pre	-1429
▁vel	-1430
ingham	-1431
▁European	-1432
▁velocity	-1433
▁Christian	-1434
19	-1435
eter	-1436
▁191	-1437
lanco	-1438
▁ship	-1439
▁Adolf	-1440
▁Architettura	-1441
▁Ray	-1442
▁Fort	-1443
udding	-1444
▁Charl	-1445
▁Mahmud	-1446
nes	-1447
omb	-1448
ionico	-1449
▁Dodge	-1450
▁Romeo	-1451
▁South	-1452
▁place	-1453
▁Abarth	-1454
SN	-1455
tt	-1456
▁Road	-1457
▁Garth	-1458
icago	-1459
▁days	-1460
▁Chicago	-1461
▁ad	-1462
ceded	-1463
luna	-1464
▁Art	-1465
▁Reb	-1466
▁pudding	-1467
eny	-1468
heel	-1469
enyet	-1470
inese	-1471
▁staff	-1472
ootball	-1473
▁Rebell	-1474
▁represent	-1475
▁Taib	-1476
▁Addis	-1477
▁Rayel	-1478
▁Ababa	-1479
▁season	-1480
▁AIDAluna	-1481
▁Rebellion	-1482
ocr	-1483
lint	-1484
plos	-1485
ighter	-1486
▁Flint	-1487
plosion	-1488
gent	-1489
▁ISSN	-1490
▁Agnes	-1491
▁Democr	-1492
▁Summit	-1493
▁ty	-1494
able	-1495
apan	-1496
reet	-1497
▁Eric	-1498
linois	-1499
▁Argent	-1500
▁AMC	-1501
otter	-1502
▁Romania	-1503
▁Illinois	-1504
▁Fl	-1505
▁Alfa	-1506
▁Hamp	-1507
▁style	-1508
▁Hampshire	-1509
▁SV	-1510
alli	-1511
ally	-1512
egun	-1513
uart	-1514
▁Kov	-1515
arnat	-1516
▁Karnat	-1517
▁Street	-1518
▁1000	-1519
43	-1520
wer	-1521
▁Visves	-1522
▁Spaceport	-1523
▁Az	-1524
aska	-1525
▁1955	-1526
▁Verm	-1527
varaya	-1528
▁Karnataka	-1529
70	-1530
BQ	-1531
hem	-1532
▁co	-1533
▁Bav	-1534
▁pow	-1535
risis	-1536
▁Kong	-1537
arajas	-1538
▁James	-1539
▁Lanka	-1540
▁Ariane	-1541
▁Bavarian	-1542
▁Visvesvaraya	-1543
▁Hong	-1544
▁alma	-1545
thority	-1546
▁Technological	-1547
▁Aug	-1548
▁Ridge	-1549
▁paisa	-1550
▁Crisis	-1551
bal	-1552
ignit	-1553
▁Amar	-1554
▁NRBQ	-1555
isaire	-1556
▁Adolfo	-1557
▁Teisaire	-1558
ley	-1559
▁uses	-1560
inignit	-1561
oli	-1562
une	-1563
▁succ	-1564
▁first	-1565
▁millimetres	-1566
ear	-1567
oza	-1568
▁5.	-1569
▁Asad	-1570
ission	-1571
▁Vermont	-1572
▁Authority	-1573
▁president	-1574
pool	-1575
uary	-1576
nikov	-1577
▁Atlas	-1578
▁order	-1579
▁Bionico	-1580
▁Johnson	-1581
▁Conference	-1582
▁alternative	-1583
▁San	-1584
▁Acta	-1585
▁January	-1586
▁successor	-1587
ator	-1588
yshire	-1589
▁Blackpool	-1590
15	-1591
oga	-1592
ious	-1593
atric	-1594
ature	-1595
▁Bakewell	-1596
bor	-1597
ral	-1598
icken	-1599
▁include	-1600
erbyshire	-1601
▁preceded	-1602
job	-1603
▁Laun	-1604
▁Prov	-1605
▁mass	-1606
▁popular	-1607
00.0	-1608
▁Sam	-1609
enate	-1610
▁June	-1611
andeja	-1612
▁speed	-1613
▁Alaska	-1614
▁August	-1615
▁Launch	-1616
▁Osborn	-1617
▁Bandeja	-1618
▁Derbyshire	-1619
89	-1620
ky	-1621
eth	-1622
choy	-1623
▁Sar	-1624
▁mar	-1625
joblanco	-1626
my	-1627
▁190	-1628
▁Osborne	-1629
▁Turkish	-1630
izab	-1631
stem	-1632
▁250	-1633
▁Elizab	-1634
▁November	-1635
/3	-1636
24	-1637
▁bec	-1638
▁Grey	-1639
▁Sara	-1640
ilomar	-1641
▁Frank	-1642
▁Asilomar	-1643
▁Elizabeth	-1644
iva	-1645
▁AZ	-1646
▁Cra	-1647
erson	-1648
▁Prud	-1649
▁Roma	-1650
▁penyet	-1651
▁Football	-1652
ney	-1653
▁me	-1654
egre	-1655
hatt	-1656
▁Lib	-1657
▁USA	-1658
abama	-1659
orial	-1660
place	-1661
▁Ayam	-1662
▁Aless	-1663
▁chicken	-1664
▁Prudnikov	-1665
▁Car	-1666
▁Alberto	-1667
▁Chinese	-1668
ane	-1669
▁Tw	-1670
ivis	-1671
allas	-1672
elect	-1673
▁Java	-1674
▁Dallas	-1675
▁Alabama	-1676
▁Houston	-1677
illa	-1678
link	-1679
▁Jenn	-1680
▁West	-1681
▁Klink	-1682
▁organ	-1683
Barajas	-1684
▁meters	-1685
▁Austria	-1686
eet	-1687
wak	-1688
illo	-1689
▁Acura	-1690
▁Baked	-1691
▁Alpena	-1692
.0	-1693
▁,	-1694
amil	-1695
▁Bel	-1696
▁Sec	-1697
▁Stad	-1698
revious	-1699
▁fighter	-1700
▁birthplace	-1701
asm	-1702
▁code	-1703
▁abbrev	-1704
▁during	-1705
▁Sarawak	-1706
▁awarded	-1707
▁Jennings	-1708
16	-1709
ph	-1710
▁26	-1711
▁party	-1712
75	-1713
ood	-1714
▁cl	-1715
▁164	-1716
icial	-1717
▁mean	-1718
▁youth	-1719
▁Explosion	-1720
▁languages	-1721
▁represented	-1722
wh	-1723
▁UK	-1724
werp	-1725
▁Bor	-1726
aijan	-1727
illar	-1728
oaceae	-1729
▁2006.	-1730
emorial	-1731
▁Mathem	-1732
▁Senate	-1733
▁follow	-1734
▁Antwerp	-1735
90	-1736
istr	-1737
▁French	-1738
▁League	-1739
erbaijan	-1740
iche	-1741
ince	-1742
atraz	-1743
ersus	-1744
▁2000	-1745
▁Camp	-1746
▁Andrews	-1747
▁currently	-1748
raq	-1749
▁Zeal	-1750
▁head	-1751
▁champ	-1752
▁Zealand	-1753
▁Ly	-1754
edas	-1755
▁Iraq	-1756
agnoli	-1757
▁Ayers	-1758
▁Versus	-1759
▁Azerbaijan	-1760
▁Fin	-1761
▁Wheel	-1762
lington	-1763
▁Romagnoli	-1764
ef	-1765
ese	-1766
ini	-1767
ipe	-1768
unc	-1769
hann	-1770
▁airc	-1771
▁kilomet	-1772
▁Sportiva	-1773
ale	-1774
irm	-1775
rie	-1776
▁Cr	-1777
0.0.	-1778
▁inv	-1779
▁2006	-1780
eder	-1781
▁100	-1782
▁Big	-1783
▁Zit	-1784
▁ten	-1785
▁Coup	-1786
▁Libr	-1787
▁Mont	-1788
iament	-1789
lymp	-1790
▁Mid	-1791
▁add	-1792
regon	-1793
▁Olymp	-1794
▁pedas	-1795
▁Forres	-1796
▁Zitarr	-1797
▁Alessio	-1798
arliament	-1799
▁Alcatraz	-1800
har	-1801
▁Af	-1802
omot	-1803
▁Dag	-1804
▁Disco	-1805
ix	-1806
▁'	-1807
eum	-1808
len	-1809
uct	-1810
▁Mag	-1811
▁Mil	-1812
00.0.	-1813
▁Dagg	-1814
omotive	-1815
ji	-1816
urch	-1817
▁car	-1818
ables	-1819
▁Agra	-1820
▁Evil	-1821
▁Matador	-1822
▁Science	-1823
▁Zitarrosa	-1824
LC	-1825
▁RS	-1826
eget	-1827
▁Oct	-1828
▁Asam	-1829
▁Allen	-1830
▁Angel	-1831
▁Felipe	-1832
egetables	-1833
80	-1834
eh	-1835
▁-	-1836
abat	-1837
ance	-1838
ange	-1839
ruis	-1840
aterp	-1841
ietro	-1842
▁teow	-1843
ategor	-1844
▁Blues	-1845
▁Press	-1846
olloway	-1847
▁Caterp	-1848
▁Pietro	-1849
▁Holloway	-1850
▁Librarian	-1851
CO	-1852
▁&	-1853
itra	-1854
▁Leg	-1855
▁Ter	-1856
▁ALCO	-1857
▁Alfredo	-1858
▁Germany	-1859
▁categor	-1860
▁previous	-1861
▁Caterpillar	-1862
73	-1863
ahra	-1864
mond	-1865
▁Ash	-1866
▁Way	-1867
erona	-1868
allero	-1869
▁Franc	-1870
▁Forrest	-1871
uch	-1872
▁Fer	-1873
▁Mars	-1874
▁this	-1875
▁Oregon	-1876
▁Librarians	-1877
12	-1878
aa	-1879
▁.	-1880
con	-1881
▁52	-1882
▁Mo	-1883
otel	-1884
▁mon	-1885
▁Rams	-1886
▁Ajoblanco	-1887
▁vegetables	-1888
ibut	-1889
▁Cab	-1890
▁Gor	-1891
▁Ice	-1892
▁Inc	-1893
izard	-1894
▁Alaa	-1895
▁Audi	-1896
▁Belg	-1897
▁Alder	-1898
▁black	-1899
▁Batchoy	-1900
97	-1901
▁21	-1902
▁101	-1903
▁Row	-1904
▁Sab	-1905
▁Wat	-1906
istic	-1907
▁Mark	-1908
▁Bella	-1909
▁Alderney	-1910
▁aircraft	-1911
▁Caballero	-1912
▁VI	-1913
akes	-1914
▁Birm	-1915
▁Doug	-1916
▁Admin	-1917
▁Watson	-1918
▁Wheeler	-1919
▁champions	-1920
▁Birmingham	-1921
The	-1922
ober	-1923
onda	-1924
▁type	-1925
▁Sabin	-1926
▁fried	-1927
▁Wizard	-1928
▁county	-1929
▁launch	-1930
▁October	-1931
▁District	-1932
CLC	-1933
▁0.	-1934
▁Los	-1935
istor	-1936
▁Arab	-1937
▁live	-1938
▁once	-1939
▁Honda	-1940
▁pages	-1941
▁Colmore	-1942
iad	-1943
▁Ed	-1944
▁au	-1945
▁Ert	-1946
▁key	-1947
iadis	-1948
istoric	-1949
▁Angeles	-1950
▁Georgiadis	-1951
▁Parliament	-1952
asp	-1953
▁34	-1954
oyal	-1955
qbal	-1956
▁Deer	-1957
▁beef	-1958
▁Abner	-1959
▁means	-1960
▁white	-1961
▁attended	-1962
▁Character	-1963
▁derivative	-1964
af	-1965
cil	-1966
ret	-1967
▁ex	-1968
akar	-1969
enue	-1970
gabat	-1971
iller	-1972
ouncil	-1973
▁Iqbal	-1974
▁Allama	-1975
▁Amster	-1976
▁Ertegun	-1977
▁Ashgabat	-1978
bach	-1979
▁ALV	-1980
▁beam	-1981
▁Werft	-1982
▁later	-1983
▁Gorbach	-1984
án	-1985
aus	-1986
epart	-1987
opert	-1988
▁2009	-1989
▁Plac	-1990
▁styl	-1991
▁compet	-1992
epartment	-1993
▁Democratic	-1994
onis	-1995
▁600	-1996
▁Wal	-1997
▁cel	-1998
▁OCLC	-1999
▁post	-2000
▁Loyal	-2001
▁Adonis	-2002
▁Guiana	-2003
▁ja	-2004
▁Val	-2005
▁Abub	-2006
▁jazz	-2007
▁Alfons	-2008
▁Colomb	-2009
▁Scales	-2010
▁30	-2011
▁GT	-2012
rint	-2013
▁Lev	-2014
▁This	-2015
▁Craig	-2016
▁Japan	-2017
▁Avenue	-2018
▁Amarillo	-2019
sp	-2020
iat	-2021
ando	-2022
ancer	-2023
quart	-2024
hangra	-2025
ysburg	-2026
▁Adare	-2027
▁negre	-2028
▁Dancer	-2029
48	-2030
sal	-2031
edal	-2032
▁Bay	-2033
▁Pop	-2034
▁Kant	-2035
▁kway	-2036
▁Alvah	-2037
▁Cruis	-2038
▁Hotel	-2039
▁Moore	-2040
▁final	-2041
▁print	-2042
atriciana	-2043
▁sub	-2044
▁Gett	-2045
▁Pena	-2046
▁Sept	-2047
▁They	-2048
▁guit	-2049
▁Engine	-2050
▁Argentina	-2051
ón	-2052
ami	-2053
onso	-2054
▁Lee	-2055
▁Army	-2056
▁Serv	-2057
▁elev	-2058
▁hard	-2059
elected	-2060
▁became	-2061
▁selected	-2062
▁Gettysburg	-2063
At	-2064
ino	-2065
▁Co	-2066
▁Ef	-2067
rish	-2068
them	-2069
▁Atat	-2070
▁prod	-2071
▁Delaw	-2072
▁anthem	-2073
▁Abubakar	-2074
LX	-2075
eid	-2076
ink	-2077
agen	-2078
erly	-2079
iams	-2080
▁TLX	-2081
▁Wor	-2082
ounds	-2083
▁Sand	-2084
▁Wasp	-2085
Atlant	-2086
iction	-2087
▁Council	-2088
▁Delaware	-2089
▁Williams	-2090
▁headquart	-2091
▁stylistic	-2092
▁Locomotive	-2093
▁Engineering	-2094
CC	-2095
ban	-2096
▁Ne	-2097
useum	-2098
▁Corn	-2099
▁Green	-2100
▁World	-2101
▁disco	-2102
ibuting	-2103
ony	-2104
▁Dy	-2105
aman	-2106
▁Met	-2107
▁Main	-2108
operty	-2109
Atlantic	-2110
▁operating	-2111
enh	-2112
ennie	-2113
▁Glen	-2114
▁Milan	-2115
▁Robert	-2116
▁guitar	-2117
ributing	-2118
▁Charlie	-2119
▁Albennie	-2120
▁monument	-2121
▁Amsterdam	-2122
CCN	-2123
▁8.	-2124
ards	-2125
etta	-2126
▁Adv	-2127
▁Day	-2128
aiden	-2129
hajji	-2130
▁Lake	-2131
▁Levy	-2132
anaman	-2133
stella	-2134
▁Asser	-2135
68	-2136
umb	-2137
amed	-2138
ense	-2139
icip	-2140
▁ice	-2141
▁mil	-2142
essee	-2143
▁LCCN	-2144
▁Magd	-2145
▁2009.	-2146
▁Helena	-2147
▁Rhythm	-2148
▁Fortress	-2149
▁Bananaman	-2150
93	-2151
nd	-2152
68.	-2153
ume	-2154
▁Ol	-2155
▁am	-2156
line	-2157
▁all	-2158
▁hip	-2159
ederick	-2160
▁author	-2161
▁Frederick	-2162
▁Tennessee	-2163
els	-2164
oin	-2165
bury	-2166
kins	-2167
▁185	-2168
▁Cop	-2169
▁Tom	-2170
aeont	-2171
oviet	-2172
▁Arap	-2173
enhagen	-2174
▁Daggett	-2175
▁Service	-2176
▁Palaeont	-2177
▁AIDAstella	-2178
▁Amatriciana	-2179
mir	-2180
▁tit	-2181
onica	-2182
▁Twil	-2183
▁batt	-2184
▁Finland	-2185
▁Twilight	-2186
▁followed	-2187
▁Copenhagen	-2188
Un	-2189
olk	-2190
cover	-2191
ground	-2192
ivision	-2193
▁married	-2194
▁Province	-2195
▁Aleksandra	-2196
8,	-2197
91	-2198
vo	-2199
rez	-2200
orge	-2201
orid	-2202
▁Hip	-2203
rance	-2204
▁Luna	-2205
reland	-2206
▁Spart	-2207
▁Verona	-2208
40	-2209
air	-2210
▁Andra	-2211
▁Assemb	-2212
▁Ireland	-2213
▁organis	-2214
▁Binignit	-2215
▁September	-2216
▁performer	-2217
▁Jr	-2218
Rosa	-2219
berg	-2220
▁AIP	-2221
▁being	-2222
▁Chievo	-2223
▁Govern	-2224
▁Museum	-2225
29	-2226
LA	-2227
hs	-2228
ado	-2229
eef	-2230
ield	-2231
xein	-2232
▁ELA	-2233
▁Jack	-2234
xeinoup	-2235
▁Efxeinoup	-2236
▁organisation	-2237
ilm	-2238
ped	-2239
tor	-2240
ebut	-2241
para	-2242
razil	-2243
▁Beef	-2244
▁debut	-2245
▁invol	-2246
mission	-2247
▁kilometre	-2248
▁transmission	-2249
jo	-2250
oln	-2251
rot	-2252
ubb	-2253
osta	-2254
▁Anti	-2255
▁Hess	-2256
▁Costa	-2257
▁Marri	-2258
▁named	-2259
▁Assembly	-2260
▁building	-2261
▁formerly	-2262
83	-2263
Ar	-2264
Qu	-2265
▁Des	-2266
▁Pre	-2267
▁Sky	-2268
▁van	-2269
iraqu	-2270
radit	-2271
ubbio	-2272
▁Rich	-2273
▁Gubbio	-2274
▁Secret	-2275
▁Antioch	-2276
raditional	-2277
▁Arapiraqu	-2278
▁performing	-2279
AI	-2280
Am	-2281
gs	-2282
cup	-2283
▁22	-2284
akov	-2285
aten	-2286
wayd	-2287
▁Apr	-2288
▁Hal	-2289
▁Sch	-2290
▁Serg	-2291
ipline	-2292
▁leads	-2293
▁Miller	-2294
▁involv	-2295
▁powered	-2296
▁traditional	-2297
▁Arapiraquense	-2298
nan	-2299
▁UT	-2300
árez	-2301
▁Ard	-2302
ement	-2303
▁Hern	-2304
▁April	-2305
▁Jwayd	-2306
▁Suárez	-2307
▁Ardmore	-2308
▁background	-2309
30	-2310
49	-2311
bo	-2312
-17	-2313
ozny	-2314
▁Dim	-2315
▁Carl	-2316
apolis	-2317
▁Burns	-2318
▁Brazil	-2319
▁Grozny	-2320
▁Central	-2321
▁Department	-2322
acy	-2323
ano	-2324
▁AW	-2325
▁Ba	-2326
alls	-2327
▁300	-2328
▁Dia	-2329
▁Eth	-2330
▁Rod	-2331
arent	-2332
field	-2333
▁Carr	-2334
▁Hunt	-2335
▁Wolf	-2336
▁Wilder	-2337
▁tenant	-2338
▁Jwaydan	-2339
▁Poaceae	-2340
▁involved	-2341
med	-2342
und	-2343
▁Monoc	-2344
▁Ampara	-2345
▁Marriott	-2346
▁Greenville	-2347
ien	-2348
olit	-2349
▁Ace	-2350
▁Ben	-2351
▁Ham	-2352
▁oil	-2353
▁Cont	-2354
▁Hera	-2355
▁Baade	-2356
▁Baths	-2357
▁Union	-2358
▁class	-2359
▁Polish	-2360
▁Cruises	-2361
▁official	-2362
▁previously	-2363
42	-2364
IT	-2365
ids	-2366
men	-2367
uel	-2368
▁AIDS	-2369
embrie	-2370
▁Orange	-2371
▁celest	-2372
▁second	-2373
▁Romance	-2374
▁Administr	-2375
▁Decembrie	-2376
▁Indianapolis	-2377
▁Ja	-2378
alle	-2379
itas	-2380
▁1918	-2381
▁With	-2382
▁Dales	-2383
haretta	-2384
▁Walter	-2385
▁celestial	-2386
BC	-2387
cr	-2388
ath	-2389
dor	-2390
dent	-2391
itiy	-2392
olun	-2393
▁107	-2394
▁Daw	-2395
▁LaS	-2396
▁sur	-2397
erala	-2398
dentif	-2399
itiyat	-2400
▁Khara	-2401
▁Volun	-2402
▁title	-2403
ailable	-2404
▁Dawson	-2405
▁govern	-2406
▁Arlington	-2407
▁Alpharetta	-2408
▁Kharaitiyat	-2409
13	-2410
BS	-2411
▁Se	-2412
teer	-2413
ylde	-2414
▁DBS	-2415
▁Sev	-2416
▁war	-2417
▁1036	-2418
▁Gany	-2419
▁Glas	-2420
▁Miche	-2421
▁Daniel	-2422
▁Kerala	-2423
▁Camilla	-2424
▁Company	-2425
▁Glaston	-2426
▁Severed	-2427
▁Volunteer	-2428
orno	-2429
urul	-2430
zmir	-2431
emper	-2432
▁same	-2433
ivorno	-2434
struct	-2435
▁Bakso	-2436
▁Gurul	-2437
▁Manor	-2438
▁Phill	-2439
▁Ganymed	-2440
▁Historic	-2441
ize	-2442
road	-2443
▁min	-2444
▁surf	-2445
▁Delta	-2446
▁Medal	-2447
▁Neave	-2448
▁Samar	-2449
▁Academ	-2450
▁Guruli	-2451
▁parent	-2452
▁LaSalle	-2453
▁Turkmen	-2454
▁discipline	-2455
LT	-2456
ics	-2457
aker	-2458
fect	-2459
mann	-2460
▁AWH	-2461
▁Old	-2462
eider	-2463
gress	-2464
isham	-2465
▁Frew	-2466
▁rice	-2467
salami	-2468
▁Bhajji	-2469
▁Johann	-2470
▁player	-2471
chneider	-2472
▁Spartak	-2473
▁property	-2474
▁available	-2475
▁Aleksandre	-2476
▁Abdulsalami	-2477
▁Glastonbury	-2478
ery	-2479
hol	-2480
▁0-	-2481
irey	-2482
weed	-2483
▁Ann	-2484
▁Bob	-2485
▁Cla	-2486
▁Tor	-2487
▁pot	-2488
▁bass	-2489
▁meas	-2490
▁1963.	-2491
▁Airey	-2492
▁Fylde	-2493
▁Quart	-2494
▁Afonso	-2495
▁Centre	-2496
▁Journal	-2497
▁Quarterly	-2498
▁Schneider	-2499
▁Efxeinoupolis	-2500
hes	-2501
▁AS	-2502
ilar	-2503
ique	-2504
Quaid	-2505
▁Dent	-2506
▁Sold	-2507
▁Anton	-2508
▁Airbase	-2509
▁Livorno	-2510
▁McQuaid	-2511
▁manages	-2512
▁abbreviated	-2513
▁Administrative	-2514
46	-2515
ão	-2516
atu	-2517
ideo	-2518
▁0.0	-2519
▁BLT	-2520
ached	-2521
ances	-2522
umezz	-2523
evideo	-2524
▁Grant	-2525
▁Lumezz	-2526
▁Dimitra	-2527
▁Grounds	-2528
▁Memorial	-2529
AL	-2530
As	-2531
hen	-2532
ike	-2533
ault	-2534
▁Pet	-2535
ellor	-2536
▁Martyr	-2537
▁Assault	-2538
▁Richard	-2539
dentifier	-2540
▁Lumezzane	-2541
▁hardcover	-2542
bre	-2543
elv	-2544
pop	-2545
▁Sa	-2546
▁Pri	-2547
▁lit	-2548
▁sim	-2549
▁1910	-2550
▁Barb	-2551
▁Cast	-2552
▁diam	-2553
▁Allan	-2554
▁Indie	-2555
▁Trans	-2556
▁Werder	-2557
▁Advances	-2558
▁sy	-2559
▁BBC	-2560
▁Don	-2561
▁Hop	-2562
▁Koc	-2563
▁Roy	-2564
unity	-2565
▁Agrem	-2566
▁Asunc	-2567
▁Kovac	-2568
▁Alexandria	-2569
▁Montevideo	-2570
▁footballer	-2571
ms	-2572
oto	-2573
akis	-2574
enad	-2575
▁Att	-2576
▁Gaz	-2577
▁Tit	-2578
Arena	-2579
remen	-2580
▁Chir	-2581
▁Comm	-2582
▁Bremen	-2583
▁Gazett	-2584
▁temper	-2585
▁Aleksey	-2586
▁Canadian	-2587
▁Congress	-2588
▁temperature	-2589
600	-2590
Mar	-2591
eon	-2592
hel	-2593
▁NW	-2594
enos	-2595
▁170	-2596
▁Sol	-2597
estley	-2598
▁Agust	-2599
▁Titans	-2600
▁potato	-2601
▁Adisham	-2602
▁Samaras	-2603
▁Priestley	-2604
64	-2605
isher	-2606
which	-2607
▁Arem	-2608
▁many	-2609
icipal	-2610
▁DeMar	-2611
breaker	-2612
▁Attica	-2613
▁Grenad	-2614
unicipal	-2615
▁Stadium	-2616
▁similar	-2617
▁Socialist	-2618
▁Grantville	-2619
uis	-2620
acob	-2621
ists	-2622
ouse	-2623
▁Glo	-2624
▁NWC	-2625
octor	-2626
Ammann	-2627
▁Square	-2628
▁DeMarce	-2629
▁Phillip	-2630
▁Chirikov	-2631
▁diameter	-2632
▁division	-2633
ač	-2634
bra	-2635
heed	-2636
iden	-2637
uter	-2638
▁Lar	-2639
▁Nav	-2640
▁Rut	-2641
adhak	-2642
hatta	-2643
ulton	-2644
▁5600	-2645
▁Lock	-2646
hambra	-2647
▁north	-2648
▁space	-2649
▁Radhak	-2650
▁doctor	-2651
▁maiden	-2652
arghatta	-2653
▁Barboza	-2654
▁artists	-2655
▁surface	-2656
▁Alhambra	-2657
▁Hessarghatta	-2658
anah	-2659
avad	-2660
▁Amd	-2661
▁lat	-2662
other	-2663
▁Base	-2664
▁Mass	-2665
▁folk	-2666
apalli	-2667
evanah	-2668
▁Arena	-2669
▁among	-2670
▁cream	-2671
▁famil	-2672
rishnan	-2673
▁Potter	-2674
▁Rotter	-2675
▁Lockheed	-2676
evanahalli	-2677
▁Rotterdam	-2678
▁Radhakrishnan	-2679
▁Soldevanahalli	-2680
ty	-2681
elf	-2682
iop	-2683
ufa	-2684
▁ni	-2685
uner	-2686
aguay	-2687
kilom	-2688
outhe	-2689
▁Gras	-2690
▁Gufa	-2691
▁Math	-2692
elvins	-2693
▁Abrad	-2694
▁Alvis	-2695
▁Barny	-2696
▁floor	-2697
▁resid	-2698
vapalli	-2699
▁Fulton	-2700
▁family	-2701
▁Amdavad	-2702
▁studied	-2703
CA	-2704
St	-2705
90.	-2706
alt	-2707
kma	-2708
▁(6	-2709
fore	-2710
icia	-2711
rich	-2712
▁ban	-2713
asmus	-2714
▁Bund	-2715
▁join	-2716
▁Chanc	-2717
▁gover	-2718
▁starr	-2719
▁Ethiop	-2720
▁Grasso	-2721
▁Parker	-2722
▁battles	-2723
▁journal	-2724
▁speaking	-2725
kilometres	-2726
▁eg	-2727
Soto	-2728
onia	-2729
kmaar	-2730
▁2005	-2731
▁Cape	-2732
▁Hung	-2733
▁Port	-2734
▁Stev	-2735
▁along	-2736
▁DeSoto	-2737
▁Texans	-2738
▁produc	-2739
▁Abradab	-2740
▁Belgium	-2741
▁Erasmus	-2742
▁Register	-2743
▁Sarvapalli	-2744
-15	-2745
▁73	-2746
▁Im	-2747
iger	-2748
▁110	-2749
▁Bol	-2750
▁Cat	-2751
▁Fal	-2752
▁Pad	-2753
atics	-2754
▁2015	-2755
▁Matt	-2756
▁Fried	-2757
▁Madin	-2758
▁Places	-2759
▁Alkmaar	-2760
▁performed	-2761
abb	-2762
oor	-2763
alus	-2764
ific	-2765
▁sit	-2766
mouth	-2767
▁Chum	-2768
▁Jazz	-2769
▁Paul	-2770
▁gran	-2771
hester	-2772
▁Bobina	-2773
▁airbase	-2774
▁Chumakov	-2775
▁Governor	-2776
▁Paraguay	-2777
▁construct	-2778
▁Mathematics	-2779
fl	-2780
isl	-2781
uez	-2782
edic	-2783
ingen	-2784
pital	-2785
ridge	-2786
▁Bill	-2787
▁funk	-2788
ondack	-2789
▁Aires	-2790
▁Coupe	-2791
▁Kovač	-2792
▁draft	-2793
▁Trance	-2794
▁backup	-2795
▁Martyrs	-2796
▁Francisco	-2797
▁icebreaker	-2798
4,	-2799
52	-2800
kry	-2801
agor	-2802
ttar	-2803
▁red	-2804
adesh	-2805
uated	-2806
▁Adir	-2807
▁Alba	-2808
▁Rodr	-2809
▁Work	-2810
▁well	-2811
ederal	-2812
raight	-2813
▁Zahra	-2814
ospital	-2815
▁Andalus	-2816
▁Pradesh	-2817
▁Aviation	-2818
▁Adirondack	-2819
▁headquarters	-2820
47	-2821
6,	-2822
eff	-2823
esp	-2824
ilo	-2825
ula	-2826
▁Bl	-2827
▁Si	-2828
emin	-2829
tone	-2830
▁Pow	-2831
igner	-2832
roadc	-2833
ussia	-2834
▁Linc	-2835
▁Marc	-2836
▁Navy	-2837
▁Wild	-2838
▁Uttar	-2839
▁Buenos	-2840
▁Harbor	-2841
▁system	-2842
▁Bertone	-2843
▁Federal	-2844
▁Lincoln	-2845
▁situated	-2846
utt	-2847
▁Ces	-2848
▁Feb	-2849
▁Tab	-2850
▁1923	-2851
▁Jeff	-2852
000.0.	-2853
ussels	-2854
▁Booga	-2855
▁Davis	-2856
▁dedic	-2857
▁Carlos	-2858
roadcast	-2859
▁Brussels	-2860
max	-2861
▁Pu	-2862
▁Ste	-2863
abour	-2864
▁Funk	-2865
▁milk	-2866
espace	-2867
▁Chief	-2868
▁David	-2869
▁added	-2870
▁Baymax	-2871
▁Bhangra	-2872
▁Boogaard	-2873
▁Hospital	-2874
▁Addiction	-2875
▁Andalusia	-2876
▁dedicated	-2877
788	-2878
eil	-2879
nth	-2880
urs	-2881
▁Mr	-2882
abad	-2883
inki	-2884
gonal	-2885
▁1998	-2886
▁wave	-2887
0000.0	-2888
astern	-2889
isting	-2890
▁Stuart	-2891
outheast	-2892
▁Mendoza	-2893
▁Diagonal	-2894
▁Philippine	-2895
▁Turkmenistan	-2896
New	-2897
ilv	-2898
jab	-2899
oid	-2900
rys	-2901
▁28	-2902
uren	-2903
utes	-2904
▁Jar	-2905
▁Joe	-2906
▁Lah	-2907
sinki	-2908
unjab	-2909
▁Educ	-2910
▁Vice	-2911
▁seat	-2912
nthpop	-2913
▁Malay	-2914
▁Buuren	-2915
▁person	-2916
▁Helsinki	-2917
▁Education	-2918
aug	-2919
iaç	-2920
68.8	-2921
ehic	-2922
umip	-2923
▁Pen	-2924
▁Rah	-2925
▁top	-2926
iação	-2927
utera	-2928
▁1089	-2929
▁Stan	-2930
▁Tama	-2931
▁Vand	-2932
▁site	-2933
uished	-2934
▁Asher	-2935
▁Bumip	-2936
▁Davut	-2937
▁Niger	-2938
▁Parti	-2939
▁Labour	-2940
▁Lahore	-2941
▁Antonis	-2942
▁Cornell	-2943
▁Douglas	-2944
▁doctoral	-2945
▁Malaysian	-2946
▁Bumiputera	-2947
▁Indonesian	-2948
istinguished	-2949
oke	-2950
cone	-2951
ibal	-2952
omac	-2953
▁Est	-2954
▁Gal	-2955
▁Jal	-2956
▁Jon	-2957
▁Sal	-2958
weeds	-2959
▁AZAL	-2960
▁Fall	-2961
▁Silv	-2962
▁cuis	-2963
enberg	-2964
▁2014.	-2965
▁Armin	-2966
▁Sibal	-2967
▁vehic	-2968
udiomac	-2969
▁17068.8	-2970
▁cuisine	-2971
▁Ethiopia	-2972
udiomaccone	-2973
▁Vandenberg	-2974
▁Claudiomaccone	-2975
ung	-2976
▁ed	-2977
▁Cas	-2978
▁Guj	-2979
▁1950	-2980
▁Gott	-2981
bridge	-2982
▁Mayor	-2983
▁Nation	-2984
▁Punjab	-2985
▁almond	-2986
▁kelvins	-2987
▁Colombian	-2988
▁Gottingen	-2989
▁elevation	-2990
gg	-2991
hu	-2992
ze	-2993
410	-2994
its	-2995
ión	-2996
pat	-2997
,000	-2998
arez	-2999
▁Egg	-3000
▁Moy	-3001
▁dem	-3002
▁her	-3003
iphol	-3004
▁1099	-3005
▁Veil	-3006
▁flow	-3007
▁Arbor	-3008
▁Catal	-3009
▁Semin	-3010
▁polit	-3011
▁Moyine	-3012
▁Suarez	-3013
▁Virage	-3014
▁derived	-3015
▁starred	-3016
000000.0.	-3017
▁Universit	-3018
▁Wildweeds	-3019
264	-3020
▁35	-3021
▁Ot	-3022
anac	-3023
arat	-3024
arlic	-3025
erage	-3026
▁took	-3027
▁11264	-3028
▁Biden	-3029
fecture	-3030
▁Cumber	-3031
▁average	-3032
▁minutes	-3033
▁Schiphol	-3034
▁straight	-3035
▁Cumberland	-3036
▁Prefecture	-3037
be	-3038
to	-3039
ayl	-3040
iaz	-3041
eigh	-3042
ione	-3043
otta	-3044
west	-3045
athan	-3046
ociaz	-3047
sburg	-3048
ublin	-3049
▁1932	-3050
▁Hero	-3051
▁went	-3052
▁Peron	-3053
▁Terek	-3054
▁cakes	-3055
▁Dublin	-3056
▁Saranac	-3057
ociazione	-3058
elso	-3059
▁Vinc	-3060
elsohn	-3061
▁1932.	-3062
▁2005.	-3063
▁south	-3064
▁System	-3065
▁Carroll	-3066
▁Gujarat	-3067
▁Vincent	-3068
▁Jonathan	-3069
▁Catalonia	-3070
▁flowering	-3071
▁Arianespace	-3072
yg	-3073
iea	-3074
▁AE	-3075
▁So	-3076
hand	-3077
ioqu	-3078
▁Hyg	-3079
▁Pes	-3080
augur	-3081
aylor	-3082
overs	-3083
▁1927	-3084
▁Bras	-3085
▁Casey	-3086
▁Arabic	-3087
▁Boston	-3088
▁Hygiea	-3089
▁before	-3090
▁Mendelsohn	-3091
▁contributing	-3092
▁Distinguished	-3093
11	-3094
edd	-3095
iro	-3096
urk	-3097
▁3.	-3098
▁Ty	-3099
enir	-3100
iata	-3101
name	-3102
▁Der	-3103
▁Hor	-3104
obend	-3105
ruary	-3106
▁High	-3107
▁cook	-3108
▁pork	-3109
United	-3110
aduate	-3111
▁Arros	-3112
▁Fench	-3113
▁Cesena	-3114
▁Agustin	-3115
▁Antioqu	-3116
▁Fenchurch	-3117
▁Battlefield	-3118
20	-3119
ke	-3120
dia	-3121
iba	-3122
ram	-3123
▁33	-3124
alla	-3125
▁18.	-3126
▁Gen	-3127
▁los	-3128
▁nov	-3129
▁Bert	-3130
▁Euro	-3131
▁Above	-3132
▁Aenir	-3133
▁Boris	-3134
▁Plant	-3135
abbiata	-3136
▁Africa	-3137
▁banana	-3138
▁Bertram	-3139
▁Eastern	-3140
▁inaugur	-3141
▁Alcobend	-3142
▁February	-3143
▁Olympique	-3144
▁Technical	-3145
▁transportation	-3146
sy	-3147
är	-3148
lex	-3149
ised	-3150
itiba	-3151
▁Tyus	-3152
onnais	-3153
▁plant	-3154
▁Sergio	-3155
▁Batagor	-3156
▁Lyonnais	-3157
▁Synthpop	-3158
▁produced	-3159
18	-3160
192	-3161
▁Ma	-3162
▁bak	-3163
800.0	-3164
▁four	-3165
▁Deram	-3166
▁owner	-3167
▁latter	-3168
▁Republic	-3169
▁Antioquia	-3170
▁including	-3171
53	-3172
ras	-3173
rup	-3174
bour	-3175
▁Sid	-3176
emish	-3177
▁1989	-3178
▁Bers	-3179
▁Cust	-3180
▁Lars	-3181
▁punk	-3182
ausage	-3183
hattan	-3184
teroid	-3185
▁1969.	-3186
▁Sumat	-3187
▁Tirst	-3188
▁lives	-3189
▁wheel	-3190
ersburg	-3191
▁Pesaka	-3192
▁Bersatu	-3193
▁Complex	-3194
▁Flemish	-3195
▁Hamburg	-3196
▁Monocacy	-3197
▁asteroid	-3198
▁governed	-3199
▁operates	-3200
▁Alexander	-3201
▁Alcobendas	-3202
▁categorised	-3203
,.	-3204
72	-3205
AM	-3206
777	-3207
enz	-3208
osi	-3209
▁1,	-3210
▁FD	-3211
▁sw	-3212
▁109	-3213
▁ACM	-3214
▁Akh	-3215
▁Vik	-3216
andez	-3217
nando	-3218
ussen	-3219
▁nood	-3220
▁ended	-3221
▁sweet	-3222
▁Borman	-3223
▁Custom	-3224
▁Island	-3225
▁Sidcup	-3226
▁garlic	-3227
▁Ataturk	-3228
▁Tirstrup	-3229
▁originally	-3230
74	-3231
ij	-3232
ank	-3233
iri	-3234
ler	-3235
odi	-3236
urg	-3237
▁EN	-3238
▁MB	-3239
igbe	-3240
▁12.	-3241
▁Off	-3242
stock	-3243
▁Mike	-3244
▁Miri	-3245
▁Rasm	-3246
▁Assad	-3247
▁Peter	-3248
▁Rostock	-3249
▁Fernando	-3250
▁Mathemat	-3251
▁Hernandez	-3252
▁Manhattan	-3253
▁Rasmussen	-3254
23	-3255
7,	-3256
RE	-3257
alb	-3258
mas	-3259
AIRE	-3260
agle	-3261
imer	-3262
ures	-3263
▁AEK	-3264
▁Mey	-3265
▁act	-3266
adhim	-3267
eburg	-3268
eptun	-3269
olini	-3270
▁cent	-3271
igator	-3272
▁2000.	-3273
▁Lydia	-3274
▁Mario	-3275
▁Scott	-3276
igneria	-3277
▁ENAIRE	-3278
▁Kadhim	-3279
▁Neptun	-3280
▁Akhigbe	-3281
▁Sumatra	-3282
▁Figneria	-3283
▁Palaeontolog	-3284
1,	-3285
96	-3286
RA	-3287
da	-3288
iga	-3289
odo	-3290
tiy	-3291
yan	-3292
▁399	-3293
▁700	-3294
▁Que	-3295
▁shr	-3296
arden	-3297
▁1962	-3298
▁Khor	-3299
▁year	-3300
uching	-3301
▁Botta	-3302
▁Meyer	-3303
islature	-3304
▁Located	-3305
▁Polonica	-3306
▁Magdeburg	-3307
aca	-3308
bus	-3309
▁Do	-3310
▁Pe	-3311
arem	-3312
size	-3313
tiye	-3314
uell	-3315
▁III	-3316
▁Lok	-3317
▁Mot	-3318
▁won	-3319
ilogr	-3320
▁1101	-3321
▁Clem	-3322
▁Jens	-3323
▁dean	-3324
▁tart	-3325
airman	-3326
ateurs	-3327
uellos	-3328
▁2015.	-3329
▁Halim	-3330
▁Otkry	-3331
▁Spani	-3332
▁novel	-3333
▁Jarama	-3334
▁Office	-3335
▁Poland	-3336
▁Kuching	-3337
▁vehicle	-3338
▁Phillips	-3339
▁district	-3340
aracuellos	-3341
▁Otkrytiye	-3342
▁broadcast	-3343
▁Agremiação	-3344
▁Palaeontologica	-3345
inn	-3346
▁88	-3347
apit	-3348
ctor	-3349
ends	-3350
iver	-3351
ocon	-3352
ther	-3353
▁Cor	-3354
lines	-3355
ocado	-3356
orida	-3357
oconut	-3358
▁clubs	-3359
▁kilogr	-3360
▁Florida	-3361
▁identifier	-3362
▁Paracuellos	-3363
ho	-3364
rk	-3365
inh	-3366
lue	-3367
▁SB	-3368
arol	-3369
atis	-3370
uppo	-3371
▁Cit	-3372
▁Nik	-3373
organ	-3374
▁East	-3375
▁Gang	-3376
▁Lipp	-3377
▁Manc	-3378
▁Mumb	-3379
▁Pinh	-3380
▁Soho	-3381
incott	-3382
▁Jorge	-3383
▁Rutte	-3384
▁Speed	-3385
▁Subur	-3386
▁Church	-3387
▁Gruppo	-3388
▁Morgan	-3389
graduate	-3390
▁Shivers	-3391
▁Wilkins	-3392
▁Clematis	-3393
▁Suburban	-3394
▁chairman	-3395
▁Alexandra	-3396
▁Spaniards	-3397
▁municipal	-3398
▁publisher	-3399
▁Lippincott	-3400
▁Manchester	-3401
ger	-3402
ibb	-3403
oma	-3404
arch	-3405
part	-3406
▁1993	-3407
▁1996	-3408
▁1986.	-3409
▁Ahmad	-3410
▁Solan	-3411
▁There	-3412
▁house	-3413
▁other	-3414
▁Mattar	-3415
▁Mumbai	-3416
▁Soviet	-3417
▁Jackson	-3418
▁Pinhais	-3419
▁Jefferson	-3420
▁Secretary	-3421
▁kilograms	-3422
▁southeast	-3423
▁Chancellor	-3424
▁inaugurated	-3425
-4	-3426
5-	-3427
CAO	-3428
aro	-3429
kes	-3430
nam	-3431
ürk	-3432
akur	-3433
emon	-3434
ture	-3435
▁Cand	-3436
▁Falc	-3437
▁ICAO	-3438
▁Kutt	-3439
arrant	-3440
▁Coupé	-3441
▁Dynam	-3442
▁Julia	-3443
▁nation	-3444
▁Arrabbiata	-3445
▁Mattarella	-3446
439	-3447
▁Mi	-3448
▁To	-3449
cher	-3450
idro	-3451
omay	-3452
opis	-3453
▁Aur	-3454
▁Dol	-3455
▁dos	-3456
▁1928	-3457
▁AFIT	-3458
▁meat	-3459
attoor	-3460
eonato	-3461
icitas	-3462
ileiro	-3463
remier	-3464
▁Mihaj	-3465
▁Plack	-3466
▁Powys	-3467
▁Isidro	-3468
▁plants	-3469
▁Falcons	-3470
▁sausage	-3471
▁Alligator	-3472
▁Felicitas	-3473
▁wheelbase	-3474
▁Brasileiro	-3475
▁Campeonato	-3476
▁constructed	-3477
/36	-3478
die	-3479
lov	-3480
eyin	-3481
ilmi	-3482
iven	-3483
kara	-3484
umai	-3485
▁Cow	-3486
▁Fav	-3487
▁Sus	-3488
speed	-3489
▁town	-3490
▁Greek	-3491
▁Hilmi	-3492
▁Ankara	-3493
▁Cowper	-3494
▁Hungar	-3495
▁Kuttik	-3496
▁Thakur	-3497
▁Tarrant	-3498
▁resides	-3499
▁Nigerian	-3500
▁Associazione	-3501
..	-3502
67	-3503
II	-3504
▁–	-3505
bul	-3506
een	-3507
imo	-3508
▁03	-3509
▁43	-3510
▁45	-3511
▁60	-3512
▁ol	-3513
ermo	-3514
esel	-3515
quel	-3516
uben	-3517
▁Jus	-3518
▁cit	-3519
▁new	-3520
▁Alma	-3521
▁Dead	-3522
▁Ward	-3523
▁cond	-3524
▁lies	-3525
sville	-3526
▁olive	-3527
▁Manuel	-3528
▁Susana	-3529
000000.0	-3530
▁Kuttikk	-3531
▁Palermo	-3532
▁Premier	-3533
▁Station	-3534
▁coconut	-3535
▁mission	-3536
▁Mihajlov	-3537
57	-3538
5-2	-3539
▁KW	-3540
▁RO	-3541
eyes	-3542
oglu	-3543
pedo	-3544
▁Hum	-3545
▁Pan	-3546
▁Seb	-3547
▁Lira	-3548
▁cour	-3549
▁feet	-3550
▁last	-3551
▁Dykes	-3552
▁Jusuf	-3553
▁Reyes	-3554
▁Valls	-3555
▁Works	-3556
▁confl	-3557
▁active	-3558
▁school	-3559
▁Academy	-3560
▁command	-3561
▁binignit	-3562
▁Kuttikkattoor	-3563
ux	-3564
rip	-3565
▁TC	-3566
▁dr	-3567
ails	-3568
alth	-3569
engo	-3570
omas	-3571
stan	-3572
uxur	-3573
▁Hap	-3574
▁Mer	-3575
▁exp	-3576
aster	-3577
▁1994	-3578
▁Humph	-3579
▁Ferenc	-3580
▁Health	-3581
▁Sebast	-3582
▁Thomas	-3583
▁course	-3584
▁Steuben	-3585
▁Torpedo	-3586
▁service	-3587
▁Asuncion	-3588
▁Davutoglu	-3589
▁Grenadier	-3590
ind	-3591
oul	-3592
▁Ga	-3593
anil	-3594
colo	-3595
iers	-3596
▁Hus	-3597
▁Nar	-3598
▁inf	-3599
asion	-3600
inghe	-3601
uxury	-3602
▁Wick	-3603
▁come	-3604
6000.0	-3605
averal	-3606
▁Kalla	-3607
▁Ranil	-3608
▁Stell	-3609
▁spent	-3610
stanbul	-3611
▁Contra	-3612
▁Wickrem	-3613
▁Franklin	-3614
▁competed	-3615
▁conflict	-3616
▁Canaveral	-3617
▁Friedrich	-3618
▁abbreviation	-3619
ug	-3620
-416	-3621
6391	-3622
afen	-3623
ived	-3624
riet	-3625
▁151	-3626
▁Six	-3627
▁den	-3628
▁rup	-3629
Zahra	-3630
▁1097	-3631
▁1999	-3632
▁Just	-3633
▁Modi	-3634
▁find	-3635
▁Ahmed	-3636
▁Bengo	-3637
▁Vicia	-3638
▁codes	-3639
▁hails	-3640
esinghe	-3641
▁Narend	-3642
▁Sports	-3643
▁Staten	-3644
iversity	-3645
▁560090.	-3646
▁Larcher	-3647
▁Michele	-3648
▁Airlines	-3649
▁Humphrys	-3650
▁municipality	-3651
▁Wickremesinghe	-3652
wo	-3653
òs	-3654
2.2	-3655
che	-3656
imp	-3657
6063	-3658
▁737	-3659
▁Per	-3660
▁Wid	-3661
▁dep	-3662
▁kms	-3663
endam	-3664
ronze	-3665
▁Brom	-3666
▁Drum	-3667
▁form	-3668
abbrev	-3669
shafen	-3670
▁Sixma	-3671
▁influ	-3672
▁Rahman	-3673
▁Stadio	-3674
▁Widodo	-3675
▁Atatürk	-3676
▁Austral	-3677
▁Narendra	-3678
▁Marcolini	-3679
▁Stellendam	-3680
▁university	-3681
He	-3682
/19	-3683
/28	-3684
1.6	-3685
ask	-3686
ius	-3687
rop	-3688
-130	-3689
ford	-3690
▁5.3	-3691
▁Cur	-3692
▁Rou	-3693
▁two	-3694
▁MBAs	-3695
▁Tony	-3696
▁cake	-3697
▁cons	-3698
▁sour	-3699
Soviet	-3700
apitol	-3701
ersham	-3702
▁0-439	-3703
▁131.6	-3704
▁Javan	-3705
journal	-3706
▁Harriet	-3707
▁Tennant	-3708
▁connect	-3709
▁memorial	-3710
▁Faversham	-3711
IV	-3712
ila	-3713
oko	-3714
▁3,	-3715
▁Kl	-3716
atch	-3717
inos	-3718
oman	-3719
ural	-3720
wide	-3721
yrol	-3722
▁HIV	-3723
▁Ott	-3724
▁Tan	-3725
▁bet	-3726
berts	-3727
▁Fiat	-3728
▁Joko	-3729
▁Ryan	-3730
▁rais	-3731
▁sold	-3732
▁such	-3733
varosi	-3734
▁Croma	-3735
▁Johns	-3736
▁Klaus	-3737
▁litre	-3738
92000.0	-3739
▁Siomay	-3740
▁Germans	-3741
▁Hopkins	-3742
▁Legends	-3743
▁Metapan	-3744
▁Ottoman	-3745
▁Systems	-3746
▁derives	-3747
▁Community	-3748
▁governing	-3749
▁Friedrichshafen	-3750
84	-3751
3.9	-3752
ple	-3753
ulf	-3754
▁47	-3755
▁VK	-3756
Kalb	-3757
▁Pac	-3758
alene	-3759
onent	-3760
stown	-3761
▁1930	-3762
▁pass	-3763
entina	-3764
▁Arròs	-3765
▁Grove	-3766
▁Tyrol	-3767
▁eaten	-3768
▁measu	-3769
▁Castle	-3770
▁Guards	-3771
▁Member	-3772
▁Oldend	-3773
▁covers	-3774
▁General	-3775
▁Pacific	-3776
▁Javanese	-3777
▁Cambridge	-3778
▁McDonnell	-3779
▁nationwide	-3780
▁Ferencvarosi	-3781
",	-3782
DE	-3783
DEN	-3784
ald	-3785
elk	-3786
huk	-3787
▁CO	-3788
▁Du	-3789
bank	-3790
rian	-3791
umar	-3792
utch	-3793
ween	-3794
▁120	-3795
▁186	-3796
▁Nix	-3797
▁rot	-3798
abhuk	-3799
ician	-3800
▁Gulf	-3801
▁Jose	-3802
▁camp	-3803
▁tall	-3804
idered	-3805
ociere	-3806
rement	-3807
▁CODEN	-3808
▁Carol	-3809
▁instr	-3810
▁water	-3811
▁DeKalb	-3812
▁luxury	-3813
▁between	-3814
abhukumar	-3815
▁Istanbul	-3816
▁Magdalene	-3817
▁instrument	-3818
▁measurement	-3819
▁Harrietstown	-3820
▁Congressional	-3821
AG	-3822
FK	-3823
ata	-3824
tic	-3825
asan	-3826
char	-3827
inco	-3828
isch	-3829
oris	-3830
read	-3831
real	-3832
▁PFK	-3833
▁mod	-3834
▁Vein	-3835
▁away	-3836
▁Doris	-3837
▁Super	-3838
ticinco	-3839
▁Berlin	-3840
▁campus	-3841
▁passed	-3842
▁sequel	-3843
▁Burbank	-3844
▁grounds	-3845
▁Crociere	-3846
▁Dynamics	-3847
▁Montreal	-3848
▁Oldendor	-3849
▁attached	-3850
▁Parkersburg	-3851
▁Prabhukumar	-3852
▁Veinticinco	-3853
▁manufacturer	-3854
▁architectural	-3855
03	-3856
uz	-3857
326	-3858
426	-3859
ipz	-3860
win	-3861
osen	-3862
uzhn	-3863
▁252	-3864
▁Bro	-3865
▁Rol	-3866
▁col	-3867
enton	-3868
ipzig	-3869
urple	-3870
utale	-3871
▁1001	-3872
▁Bolt	-3873
▁Russ	-3874
▁Saab	-3875
oridis	-3876
▁2006,	-3877
▁Death	-3878
▁Makis	-3879
▁Stars	-3880
▁Steve	-3881
▁Buchar	-3882
▁George	-3883
▁Gaussia	-3884
▁Leipzig	-3885
▁Monarch	-3886
▁Newport	-3887
▁Voridis	-3888
▁Canonica	-3889
▁Carolina	-3890
▁Colombia	-3891
▁Ahmedabad	-3892
▁Palaeontol	-3893
339	-3894
add	-3895
eat	-3896
ern	-3897
▁4.	-3898
otus	-3899
▁475	-3900
▁ARA	-3901
▁Cul	-3902
▁Def	-3903
▁Luf	-3904
addum	-3905
igher	-3906
iment	-3907
▁Real	-3908
▁west	-3909
insula	-3910
▁1996.	-3911
▁25326	-3912
▁Bures	-3913
▁Count	-3914
▁Lotus	-3915
▁stars	-3916
▁Petrot	-3917
▁Taylor	-3918
▁bronze	-3919
▁chosen	-3920
▁native	-3921
▁Gazette	-3922
▁Halimah	-3923
▁Haputale	-3924
▁Bucharest	-3925
▁Oldendorf	-3926
▁considered	-3927
94	-3928
aum	-3929
fts	-3930
izo	-3931
ver	-3932
▁Vi	-3933
vent	-3934
▁8.3	-3935
▁Tel	-3936
enced	-3937
ohann	-3938
umbus	-3939
▁Kent	-3940
▁Lanc	-3941
▁Pall	-3942
▁Welf	-3943
▁film	-3944
qaddum	-3945
ventus	-3946
▁Hamil	-3947
▁Mason	-3948
▁Paris	-3949
▁Yacob	-3950
▁given	-3951
▁power	-3952
ohannis	-3953
▁475426	-3954
▁higher	-3955
▁2014-15	-3956
▁Belgaum	-3957
▁Welfare	-3958
▁creator	-3959
▁Austrian	-3960
▁Hamilton	-3961
▁Juventus	-3962
▁exponent	-3963
▁included	-3964
▁Uruguayan	-3965
▁Wolfsburg	-3966
51	-3967
Al	-3968
etts	-3969
uban	-3970
▁Cyr	-3971
▁Gra	-3972
▁kgs	-3973
▁you	-3974
doria	-3975
herty	-3976
illed	-3977
▁Accr	-3978
▁Samp	-3979
▁came	-3980
▁Scrip	-3981
▁beans	-3982
▁Motors	-3983
▁Region	-3984
▁Viking	-3985
▁height	-3986
▁noodles	-3987
▁253260.0	-3988
▁Iohannis	-3989
▁Sampdoria	-3990
abbreviated	-3991
▁Accrington	-3992
▁politician	-3993
.)	-3994
TU	-3995
zh	-3996
-0.	-3997
2.8	-3998
7.0	-3999
705	-4000
ech	-4001
kar	-4002
tel	-4003
▁63	-4004
▁AT	-4005
eing	-4006
elos	-4007
tain	-4008
well	-4009
▁320	-4010
▁Eat	-4011
▁Esp	-4012
▁mid	-4013
achus	-4014
▁edit	-4015
▁than	-4016
▁China	-4017
▁Popov	-4018
lymouth	-4019
▁Eaters	-4020
▁joined	-4021
▁killed	-4022
achusetts	-4023
formation	-4024
▁Columbus	-4025
▁category	-4026
▁elevated	-4027
▁soldiers	-4028
▁Dougherty	-4029
▁reference	-4030
▁discoverer	-4031
▁Contributing	-4032
▁postgraduate	-4033
▁Massachusetts	-4034
HAM	-4035
akh	-4036
bem	-4037
ble	-4038
ghe	-4039
ife	-4040
kin	-4041
out	-4042
▁6.	-4043
0002	-4044
four	-4045
▁162	-4046
▁Här	-4047
▁Lam	-4048
▁Mac	-4049
▁Pav	-4050
▁Sat	-4051
▁jam	-4052
▁tom	-4053
▁typ	-4054
6063)	-4055
ition	-4056
ogson	-4057
onnes	-4058
opoul	-4059
▁2013	-4060
▁Jano	-4061
▁Prok	-4062
▁RHAM	-4063
▁pred	-4064
abelle	-4065
▁Their	-4066
opoulos	-4067
▁Härtel	-4068
▁cooked	-4069
▁marble	-4070
▁tomato	-4071
bemaster	-4072
icialist	-4073
▁(66063)	-4074
▁Capitol	-4075
▁granite	-4076
▁Isabelle	-4077
▁Plymouth	-4078
▁Prokopis	-4079
▁Solanales	-4080
▁Burlington	-4081
▁Marysville	-4082
▁Justicialist	-4083
ael	-4084
eph	-4085
loc	-4086
ots	-4087
▁da	-4088
▁oc	-4089
adoi	-4090
atar	-4091
iazz	-4092
onym	-4093
osun	-4094
▁11.	-4095
▁18,	-4096
▁210	-4097
▁Kar	-4098
▁MTU	-4099
▁Ras	-4100
▁Ros	-4101
▁Yin	-4102
▁non	-4103
aving	-4104
gheau	-4105
ylvia	-4106
▁Kore	-4107
▁Perm	-4108
▁Rose	-4109
▁Star	-4110
▁eggs	-4111
arable	-4112
▁1962.	-4113
▁2004.	-4114
▁Badoi	-4115
▁Gloom	-4116
▁Nikos	-4117
▁Piazz	-4118
▁Tosun	-4119
▁Campus	-4120
▁Plante	-4121
▁butter	-4122
00000000	-4123
amateurs	-4124
▁Bergheau	-4125
▁rotation	-4126
▁Richardson	-4127
▁comparable	-4128
▁Globemaster	-4129
14	-4130
oit	-4131
ajan	-4132
eddy	-4133
onny	-4134
▁But	-4135
▁Sao	-4136
▁aut	-4137
▁leg	-4138
uncan	-4139
▁1933	-4140
▁Graz	-4141
▁Hein	-4142
▁Mayo	-4143
▁Osim	-4144
▁Rand	-4145
▁Wien	-4146
▁nick	-4147
▁will	-4148
achine	-4149
▁17000	-4150
▁Izmir	-4151
▁Jonny	-4152
▁Paisa	-4153
▁Qatar	-4154
▁Roule	-4155
▁elect	-4156
actions	-4157
▁Benoit	-4158
▁Duncan	-4159
▁Pogson	-4160
▁Shumai	-4161
▁Sylvia	-4162
▁Valenc	-4163
▁Mahajan	-4164
▁Piazzia	-4165
▁demonym	-4166
▁Alexandre	-4167
▁Scripture	-4168
▁Universities	-4169
78	-4170
-01	-4171
esl	-4172
ets	-4173
loy	-4174
sip	-4175
vis	-4176
wan	-4177
▁kg	-4178
777)	-4179
788)	-4180
here	-4181
outs	-4182
rote	-4183
ulia	-4184
▁(15	-4185
▁bat	-4186
▁voy	-4187
agine	-4188
ierce	-4189
izade	-4190
▁9000	-4191
▁Ober	-4192
▁Salv	-4193
▁Tsip	-4194
▁arem	-4195
▁leaf	-4196
esliga	-4197
helman	-4198
outsis	-4199
▁Artur	-4200
▁Fallu	-4201
▁Guner	-4202
▁Lokke	-4203
▁Reddy	-4204
▁Wiley	-4205
▁bands	-4206
▁front	-4207
▁wrote	-4208
▁Alexis	-4209
▁Boeing	-4210
▁Placid	-4211
▁Purple	-4212
▁editor	-4213
▁voyage	-4214
▁(15788)	-4215
▁America	-4216
▁Butuner	-4217
▁Huseyin	-4218
▁Olympic	-4219
▁Sumitra	-4220
▁Voutsis	-4221
▁address	-4222
▁bhangra	-4223
▁organiz	-4224
▁Curitiba	-4225
▁Gazettes	-4226
▁Rasizade	-4227
▁Petrotrin	-4228
▁Oberhelman	-4229
▁Transactions	-4230
196	-4231
ior	-4232
jah	-4233
oye	-4234
uma	-4235
▁Sé	-4236
anda	-4237
▁Amb	-4238
▁Bal	-4239
▁MIT	-4240
▁Ska	-4241
▁Zam	-4242
▁rap	-4243
arage	-4244
ensed	-4245
iguez	-4246
itsot	-4247
stant	-4248
▁(410	-4249
▁Imst	-4250
▁Kids	-4251
▁when	-4252
▁wife	-4253
angled	-4254
buster	-4255
▁Greym	-4256
▁Série	-4257
▁Yuzhn	-4258
▁model	-4259
▁Banner	-4260
▁Design	-4261
▁Mitsot	-4262
▁Pierce	-4263
▁Imagine	-4264
▁Rouleau	-4265
▁Tsipras	-4266
▁almonds	-4267
▁poaceae	-4268
ockbuster	-4269
▁Fallujah	-4270
▁Salvador	-4271
▁Spangled	-4272
▁Yuzhnoye	-4273
▁Bundesliga	-4274
▁Mitsotakis	-4275
▁Greymachine	-4276
▁Information	-4277
It	-4278
-04	-4279
364	-4280
6.0	-4281
670	-4282
adi	-4283
ual	-4284
uro	-4285
viv	-4286
▁Ev	-4287
ayaw	-4288
onge	-4289
paty	-4290
▁Kon	-4291
6391)	-4292
eanut	-4293
epura	-4294
merce	-4295
phalt	-4296
▁164,	-4297
▁Blue	-4298
▁Lviv	-4299
▁euro	-4300
stroke	-4301
▁Chute	-4302
▁Jacob	-4303
▁Jayaw	-4304
▁Stock	-4305
▁Halton	-4306
▁predec	-4307
▁Karpaty	-4308
▁Massimo	-4309
▁Roberts	-4310
▁Rolando	-4311
▁Sandesh	-4312
ottingham	-4313
▁(410777)	-4314
▁Commerce	-4315
▁Konstant	-4316
▁Rodriguez	-4317
▁nationality	-4318
íg	-4319
-03	-4320
5.0	-4321
55)	-4322
8.0	-4323
one	-4324
sid	-4325
uty	-4326
acew	-4327
▁Jos	-4328
▁bar	-4329
▁pro	-4330
ibbet	-4331
uanda	-4332
íguez	-4333
▁(192	-4334
atrick	-4335
league	-4336
▁Amkar	-4337
▁Drago	-4338
▁Stern	-4339
▁flour	-4340
▁lemon	-4341
▁weigh	-4342
elkhand	-4343
▁Record	-4344
▁Spacew	-4345
▁subsid	-4346
▁(19255)	-4347
▁(66391)	-4348
▁Patrick	-4349
▁coached	-4350
ardenepura	-4351
▁Rodríguez	-4352
▁Spacewatch	-4353
▁government	-4354
▁influenced	-4355
▁Blockbuster	-4356
▁Bundelkhand	-4357
▁Jayawardenepura	-4358
09	-4359
eo	-4360
dez	-4361
ejo	-4362
uth	-4363
▁2.	-4364
▁4,	-4365
▁7.	-4366
▁FK	-4367
▁MA	-4368
▁Tu	-4369
▁Ya	-4370
ilst	-4371
iton	-4372
oles	-4373
than	-4374
▁277	-4375
▁Cre	-4376
▁Two	-4377
▁out	-4378
▁tur	-4379
heast	-4380
ignif	-4381
ology	-4382
ández	-4383
▁1957	-4384
▁Aure	-4385
▁Flib	-4386
▁Palo	-4387
▁Seco	-4388
▁nort	-4389
bertig	-4390
▁Maran	-4391
▁rupee	-4392
oughlin	-4393
ublican	-4394
▁Conejo	-4395
▁Dothan	-4396
▁battle	-4397
▁signif	-4398
▁periton	-4399
▁raisins	-4400
▁records	-4401
▁Aureoles	-4402
▁Hernández	-4403
▁Peninsula	-4404
▁Valencian	-4405
▁community	-4406
▁northeast	-4407
bertigibbet	-4408
▁significan	-4409
▁Superleague	-4410
04	-4411
sk	-4412
-11	-4413
-2)	-4414
-3,	-4415
-3.	-4416
▁Od	-4417
adzh	-4418
imov	-4419
itis	-4420
ival	-4421
lein	-4422
otte	-4423
ular	-4424
yard	-4425
▁McL	-4426
▁mms	-4427
▁sam	-4428
▁sev	-4429
arnie	-4430
ashid	-4431
ellow	-4432
raero	-4433
▁1974	-4434
▁Cons	-4435
▁Pavl	-4436
▁Rakh	-4437
▁1957.	-4438
▁Gadzh	-4439
▁Iulia	-4440
▁Kotte	-4441
▁Satem	-4442
▁Swiss	-4443
▁coach	-4444
▁falls	-4445
▁fruit	-4446
▁Almond	-4447
▁Korean	-4448
▁Luanda	-4449
▁Rashid	-4450
▁organs	-4451
▁sambal	-4452
▁Jalisco	-4453
▁Silvano	-4454
▁avocado	-4455
▁tenants	-4456
▁Heinlein	-4457
▁Infraero	-4458
▁Italians	-4459
▁Rakhimov	-4460
▁connected	-4461
▁Academical	-4462
▁McLoughlin	-4463
▁Pavlopoulos	-4464
▁peritonitis	-4465
▁predecessor	-4466
▁significant	-4467
▁Flibbertigibbet	-4468
ić	-4469
-07	-4470
4.0	-4471
60.	-4472
oss	-4473
ude	-4474
▁cy	-4475
edon	-4476
iano	-4477
otyl	-4478
▁Fut	-4479
▁che	-4480
anger	-4481
arkov	-4482
ctech	-4483
endic	-4484
igion	-4485
itary	-4486
▁0.04	-4487
▁1995.	-4488
▁Heart	-4489
▁death	-4490
capital	-4491
▁Sendic	-4492
▁cheese	-4493
▁sarnie	-4494
▁shrimp	-4495
▁weighs	-4496
▁whilst	-4497
otyledon	-4498
▁63800.0	-4499
▁Arctech	-4500
▁granola	-4501
▁subsidi	-4502
▁religion	-4503
▁Argentine	-4504
▁southwest	-4505
▁Konstantinos	-4506
▁organization	-4507
56	-4508
ci	-4509
ss	-4510
735	-4511
kub	-4512
nyk	-4513
ode	-4514
uff	-4515
▁53	-4516
▁Kn	-4517
avan	-4518
chup	-4519
enan	-4520
iece	-4521
lyde	-4522
oria	-4523
ssex	-4524
▁Mor	-4525
-1768	-4526
ender	-4527
imera	-4528
uffin	-4529
▁1907	-4530
▁Fior	-4531
▁Pagn	-4532
▁Ship	-4533
▁That	-4534
▁USAF	-4535
▁barm	-4536
▁time	-4537
▁turn	-4538
chedel	-4539
etchup	-4540
▁10030	-4541
▁1966.	-4542
▁Sands	-4543
▁bread	-4544
▁butty	-4545
▁cylin	-4546
▁reign	-4547
eymouth	-4548
▁Adenan	-4549
▁Barkov	-4550
▁muffin	-4551
sychedel	-4552
▁Pagnell	-4553
▁Penarol	-4554
▁Primera	-4555
▁Shipyard	-4556
▁Hamburger	-4557
▁Republican	-4558
▁legislature	-4559
Kh	-4560
uy	-4561
1.2	-4562
ely	-4563
roe	-4564
▁Aw	-4565
▁op	-4566
Khor	-4567
ders	-4568
jano	-4569
leas	-4570
loom	-4571
mill	-4572
ries	-4573
▁159	-4574
▁ACF	-4575
▁Fil	-4576
▁Hol	-4577
▁soy	-4578
ators	-4579
▁1500	-4580
▁Bako	-4581
▁Dona	-4582
▁Gold	-4583
▁Jaya	-4584
▁prov	-4585
mashed	-4586
▁Awadh	-4587
▁Clyde	-4588
▁Demak	-4589
▁Jalan	-4590
▁Pleas	-4591
▁piece	-4592
▁Monroe	-4593
▁Sergey	-4594
▁sanger	-4595
ervative	-4596
▁classed	-4597
▁Pleasant	-4598
▁measures	-4599
▁nickname	-4600
▁Recordings	-4601
45	-4602
95	-4603
98	-4604
900	-4605
aph	-4606
eez	-4607
iya	-4608
▁70	-4609
▁On	-4610
atus	-4611
ehit	-4612
elin	-4613
elly	-4614
ffer	-4615
illi	-4616
rata	-4617
▁cob	-4618
▁ras	-4619
boang	-4620
oales	-4621
orizo	-4622
queez	-4623
wheel	-4624
whose	-4625
▁Oper	-4626
▁Pont	-4627
▁Solo	-4628
▁dire	-4629
▁pers	-4630
ceived	-4631
▁Bloom	-4632
▁Enter	-4633
▁Essex	-4634
▁belly	-4635
▁local	-4636
00000.0	-4637
ehitler	-4638
▁Errata	-4639
▁Gerard	-4640
▁Static	-4641
▁Wilson	-4642
▁rasher	-4643
▁status	-4644
tainment	-4645
▁Caravan	-4646
▁Africans	-4647
▁Asunción	-4648
▁Zamboang	-4649
▁military	-4650
▁buildings	-4651
▁Aleksander	-4652
▁Fiorentina	-4653
▁kilometers	-4654
▁Mathematica	-4655
▁Conservative	-4656
▁Entertainment	-4657
▁Monocotyledon	-4658
ša	-4659
3.0	-4660
633	-4661
80.	-4662
AID	-4663
aft	-4664
onz	-4665
set	-4666
▁50	-4667
▁DA	-4668
▁Em	-4669
eare	-4670
enaw	-4671
oger	-4672
peal	-4673
quez	-4674
▁3.0	-4675
▁Rev	-4676
aiser	-4677
etown	-4678
iniša	-4679
iving	-4680
tenaw	-4681
where	-4682
▁1850	-4683
▁Gonz	-4684
▁Puig	-4685
▁near	-4686
eareas	-4687
▁2016.	-4688
▁39971	-4689
▁Afara	-4690
▁Cyril	-4691
▁aired	-4692
▁citiz	-4693
isional	-4694
queezed	-4695
▁Appeal	-4696
▁Kaiser	-4697
▁Ramaph	-4698
▁Siniša	-4699
▁centre	-4700
▁diesel	-4701
▁offset	-4702
ehitleri	-4703
▁Michael	-4704
▁playing	-4705
▁director	-4706
▁Hungarica	-4707
▁Washtenaw	-4708
▁Mihajlović	-4709
▁Ponteareas	-4710
▁subsidiary	-4711
▁Í	-4712
ije	-4713
mar	-4714
▁4-	-4715
▁51	-4716
▁Ra	-4717
▁Tr	-4718
exas	-4719
▁Gab	-4720
▁UTC	-4721
aperb	-4722
ishes	-4723
▁1983	-4724
▁Live	-4725
▁Ruth	-4726
uction	-4727
▁Dolph	-4728
▁Filip	-4729
▁Music	-4730
▁Rojas	-4731
▁Royce	-4732
▁Ícolo	-4733
elinids	-4734
merican	-4735
▁People	-4736
▁Seagle	-4737
▁Stoger	-4738
▁peanut	-4739
aperback	-4740
▁Cameron	-4741
▁element	-4742
▁received	-4743
▁Ramaphosa	-4744
▁0-439-1768	-4745
▁Alternative	-4746
▁Provisional	-4747
▁Zamboangans	-4748
▁architecture	-4749
▁headquartered	-4750
749	-4751
920	-4752
ema	-4753
hai	-4754
irc	-4755
met	-4756
▁49	-4757
4075	-4758
9075	-4759
back	-4760
lect	-4761
lins	-4762
oice	-4763
▁288	-4764
▁Rad	-4765
▁Tud	-4766
elije	-4767
orden	-4768
▁1799	-4769
▁Hard	-4770
▁Koch	-4771
▁Korn	-4772
▁Pain	-4773
▁Wich	-4774
▁cold	-4775
▁then	-4776
marine	-4777
▁44075	-4778
▁Auron	-4779
▁Divis	-4780
▁Irish	-4781
▁Queen	-4782
▁Salem	-4783
▁Worth	-4784
▁occup	-4785
▁short	-4786
▁Territ	-4787
▁Worden	-4788
▁colour	-4789
electric	-4790
▁Charles	-4791
▁Cullins	-4792
▁Defence	-4793
▁Greater	-4794
▁Grenada	-4795
▁Russian	-4796
▁Stanley	-4797
▁Wichita	-4798
▁División	-4799
▁Dolphins	-4800
▁Kornelije	-4801
▁Psychedel	-4802
▁condensed	-4803
▁northwest	-4804
/21	-4805
iti	-4806
sta	-4807
▁78	-4808
▁Nu	-4809
▁ST	-4810
apán	-4811
bell	-4812
ubic	-4813
ucci	-4814
uyah	-4815
▁546	-4816
▁610	-4817
▁Akt	-4818
▁Arp	-4819
▁Inv	-4820
ansas	-4821
esame	-4822
İzmir	-4823
▁4410	-4824
▁Dave	-4825
▁Gran	-4826
▁Mold	-4827
▁coup	-4828
▁line	-4829
▁roll	-4830
▁size	-4831
▁1930.	-4832
▁1963,	-4833
▁1979.	-4834
▁Creek	-4835
▁Cuyah	-4836
▁Grand	-4837
▁Kochi	-4838
▁hired	-4839
▁indie	-4840
▁179942	-4841
▁560090	-4842
▁Ganges	-4843
▁Kansas	-4844
▁Oliver	-4845
▁Tomato	-4846
▁coming	-4847
▁living	-4848
▁partly	-4849
▁sponge	-4850
▁states	-4851
00000.0.	-4852
▁Metapán	-4853
▁Panucci	-4854
▁asphalt	-4855
▁compete	-4856
▁Campbell	-4857
▁Cuyahoga	-4858
▁Invasion	-4859
▁bakewell	-4860
▁Democracy	-4861
▁Williamson	-4862
▁440756000.0	-4863
▁441092000.0	-4864
kg	-4865
158	-4866
722	-4867
aac	-4868
ijm	-4869
ota	-4870
oud	-4871
yss	-4872
▁08	-4873
▁61	-4874
▁Ho	-4875
▁ap	-4876
5-20	-4877
egen	-4878
emer	-4879
ogao	-4880
ould	-4881
üner	-4882
▁1.5	-4883
▁Ast	-4884
▁Pat	-4885
▁Tic	-4886
▁Tim	-4887
▁Van	-4888
▁hot	-4889
andon	-4890
obeat	-4891
under	-4892
▁2004	-4893
▁3500	-4894
▁Buil	-4895
▁Igor	-4896
▁Marg	-4897
▁Nijm	-4898
▁Radb	-4899
▁Wyss	-4900
▁drum	-4901
▁past	-4902
▁pick	-4903
000.0,	-4904
▁1955.	-4905
▁Aniti	-4906
▁Cross	-4907
▁Edwin	-4908
▁Elect	-4909
▁Isaac	-4910
▁forms	-4911
▁makes	-4912
▁neigh	-4913
umberto	-4914
▁Akties	-4915
▁Chiefs	-4916
▁Crafts	-4917
▁Russia	-4918
▁Ticino	-4919
ashville	-4920
▁Brandon	-4921
▁Jackets	-4922
▁Thunder	-4923
▁Afrobeat	-4924
▁Asherton	-4925
▁Humberto	-4926
▁Nijmegen	-4927
▁Weymouth	-4928
▁historic	-4929
▁Sehitleri	-4930
▁countries	-4931
▁Nottingham	-4932
▁variations	-4933
/1	-4934
ps	-4935
-16	-4936
5.3	-4937
cam	-4938
ole	-4939
ory	-4940
uso	-4941
▁09	-4942
▁41	-4943
▁af	-4944
9343	-4945
amel	-4946
ekom	-4947
ians	-4948
ombe	-4949
oust	-4950
park	-4951
thur	-4952
vard	-4953
yria	-4954
▁108	-4955
▁15,	-4956
▁Anb	-4957
▁egg	-4958
▁him	-4959
▁may	-4960
3.722	-4961
rethe	-4962
ungen	-4963
▁1966	-4964
▁Circ	-4965
▁Cook	-4966
▁Post	-4967
▁gram	-4968
▁lira	-4969
▁spec	-4970
▁warm	-4971
andard	-4972
ansing	-4973
ekomst	-4974
oustic	-4975
risten	-4976
▁1.524	-4977
▁Billy	-4978
▁Eagle	-4979
▁Emile	-4980
▁Perón	-4981
▁Roger	-4982
▁Sycam	-4983
▁after	-4984
ameleon	-4985
▁479343	-4986
▁Arthur	-4987
▁Balder	-4988
▁Benton	-4989
▁Brooke	-4990
▁Igorot	-4991
▁Queens	-4992
▁Tennis	-4993
▁having	-4994
▁Country	-4995
▁Harbour	-4996
▁Harvard	-4997
▁Radboud	-4998
▁Candombe	-4999
▁Location	-5000
▁Toekomst	-5001
▁fullname	-5002
▁Chameleon	-5003
▁Margrethe	-5004
▁Sportpark	-5005
▁Identifier	-5006
▁479343000.0	-5007
▁Commelinids	-5008
9,	-5009
Ta	-5010
ha	-5011
pa	-5012
-93	-5013
603	-5014
7.1	-5015
emp	-5016
gew	-5017
ird	-5018
nai	-5019
nie	-5020
osl	-5021
▁6,	-5022
▁SK	-5023
▁up	-5024
1634	-5025
3329	-5026
adio	-5027
eppe	-5028
erts	-5029
omer	-5030
race	-5031
▁194	-5032
▁Cel	-5033
▁aus	-5034
73513	-5035
handl	-5036
iches	-5037
metal	-5038
names	-5039
▁Cant	-5040
▁Dean	-5041
▁Dian	-5042
▁Olus	-5043
▁Parc	-5044
▁Zuma	-5045
1000.0	-5046
achini	-5047
asanjo	-5048
gewood	-5049
ischen	-5050
▁10000	-5051
▁16000	-5052
▁1981.	-5053
▁Anbar	-5054
▁Aster	-5055
▁Lufth	-5056
▁Manag	-5057
▁Thema	-5058
▁games	-5059
▁373513	-5060
▁523329	-5061
▁Center	-5062
▁Lancia	-5063
▁Poales	-5064
▁Roemer	-5065
▁inches	-5066
▁itself	-5067
Taqaddum	-5068
▁Abhandl	-5069
▁Circuit	-5070
▁Cornish	-5071
▁Galicia	-5072
▁Georges	-5073
▁Lansing	-5074
▁Seminar	-5075
▁Terrace	-5076
▁1513.722	-5077
▁Castilla	-5078
▁Obasanjo	-5079
▁Olusegun	-5080
▁Sycamore	-5081
▁christen	-5082
6000000.0.	-5083
▁Nashville	-5084
▁Ridgewood	-5085
▁commanders	-5086
▁sandwiches	-5087
▁Abhandlungen	-5088
▁Mathematischen	-5089
0-	-5090
2,	-5091
AC	-5092
tà	-5093
Ind	-5094
Its	-5095
alo	-5096
aza	-5097
lia	-5098
pel	-5099
▁05	-5100
▁TV	-5101
acao	-5102
ayas	-5103
ieto	-5104
jang	-5105
▁16.	-5106
▁Jak	-5107
▁Mel	-5108
▁Peñ	-5109
▁Sea	-5110
▁big	-5111
2.846	-5112
arese	-5113
ffalo	-5114
iacao	-5115
inced	-5116
onnel	-5117
rique	-5118
▁1913	-5119
▁3.04	-5120
▁3180	-5121
▁Opel	-5122
▁fish	-5123
▁gear	-5124
▁land	-5125
▁sago	-5126
hennai	-5127
namese	-5128
▁1989,	-5129
▁2013.	-5130
▁Arabs	-5131
▁Città	-5132
▁Maine	-5133
▁Metal	-5134
▁Nieto	-5135
▁Plaza	-5136
▁Sweet	-5137
▁genus	-5138
assador	-5139
▁288749	-5140
▁Agency	-5141
▁Candle	-5142
▁Solent	-5143
▁deputy	-5144
▁minced	-5145
▁tonnes	-5146
▁Arabian	-5147
▁Buffalo	-5148
▁Enrique	-5149
▁Gangsta	-5150
▁Iachini	-5151
▁Visayas	-5152
ietnamese	-5153
▁electric	-5154
▁finished	-5155
▁submarine	-5156
▁Ambassador	-5157
▁373513000.0	-5158
▁Jacksonville	-5159
)'	-5160
05	-5161
58	-5162
ax	-5163
/32	-5164
352	-5165
9.0	-5166
91.	-5167
aut	-5168
ián	-5169
▁(2	-5170
▁38	-5171
▁5,	-5172
▁Qu	-5173
▁cm	-5174
2603	-5175
8388	-5176
arta	-5177
azio	-5178
iale	-5179
ilow	-5180
inor	-5181
ling	-5182
ters	-5183
wald	-5184
wood	-5185
öger	-5186
▁211	-5187
▁280	-5188
▁ATK	-5189
▁Bru	-5190
▁Cov	-5191
▁Eal	-5192
▁hel	-5193
1634:	-5194
▁0.01	-5195
▁1986	-5196
▁1995	-5197
▁32.2	-5198
▁Shan	-5199
▁Vila	-5200
▁Whig	-5201
▁army	-5202
▁east	-5203
▁owns	-5204
5-2060	-5205
dorman	-5206
ronaut	-5207
square	-5208
▁1-416	-5209
▁Award	-5210
▁Chall	-5211
▁Clube	-5212
▁Ernie	-5213
▁Futeb	-5214
▁Lazio	-5215
▁Marry	-5216
▁Royal	-5217
▁hogao	-5218
anciale	-5219
eringue	-5220
▁142603	-5221
▁Anglia	-5222
▁Mellow	-5223
▁Styria	-5224
▁common	-5225
▁Banilow	-5226
▁Chennai	-5227
▁Jakarta	-5228
▁Lufthav	-5229
▁Orbital	-5230
▁Revival	-5231
▁debuted	-5232
▁Standard	-5233
▁Stanford	-5234
▁plantain	-5235
▁Challinor	-5236
▁Christmas	-5237
▁Ealdorman	-5238
▁Sebastián	-5239
▁explosion	-5240
▁following	-5241
▁Agremiacao	-5242
▁Vietnamese	-5243
▁1-4165-2060	-5244
fL	-5245
312	-5246
abi	-5247
ann	-5248
api	-5249
egh	-5250
ela	-5251
lay	-5252
oba	-5253
oca	-5254
pad	-5255
vaz	-5256
▁Ni	-5257
1640	-5258
4071	-5259
adal	-5260
cabi	-5261
esen	-5262
ible	-5263
▁24.	-5264
▁523	-5265
▁7.5	-5266
▁Fru	-5267
▁Put	-5268
▁VfL	-5269
▁pep	-5270
achie	-5271
akles	-5272
itoba	-5273
lande	-5274
opped	-5275
▁2160	-5276
▁4371	-5277
▁Hail	-5278
▁Iuso	-5279
▁Lega	-5280
▁Nova	-5281
▁Stud	-5282
▁Syst	-5283
▁Wall	-5284
▁some	-5285
apioca	-5286
ariant	-5287
▁2011.	-5288
▁Ahvaz	-5289
▁Batum	-5290
▁Limer	-5291
▁baked	-5292
▁chich	-5293
▁cubic	-5294
164091.	-5295
▁Estegh	-5296
▁Guadal	-5297
▁provid	-5298
▁trance	-5299
▁6004071	-5300
▁Futebol	-5301
▁Maccabi	-5302
▁battled	-5303
▁builder	-5304
▁chorizo	-5305
▁Hollande	-5306
▁Limerick	-5307
▁Manitoba	-5308
▁belonged	-5309
▁Sebastian	-5310
▁Shanachie	-5311
164091.8388	-5312
▁production	-5313
▁475426000.0	-5314
▁Bloomington	-5315
▁162164091.8388	-5316
-7	-5317
aik	-5318
box	-5319
com	-5320
ebi	-5321
egn	-5322
uda	-5323
▁Be	-5324
▁ev	-5325
agon	-5326
anku	-5327
aron	-5328
ecut	-5329
edom	-5330
enza	-5331
ized	-5332
▁23,	-5333
▁911	-5334
▁Fre	-5335
▁Luc	-5336
▁emp	-5337
2.339	-5338
9075)	-5339
ajara	-5340
alegn	-5341
edded	-5342
thaca	-5343
▁2001	-5344
▁2011	-5345
▁Bebi	-5346
▁Chap	-5347
▁Koln	-5348
▁Lamb	-5349
▁Laur	-5350
▁Mahe	-5351
▁Naik	-5352
▁Pale	-5353
▁Tesh	-5354
▁Tink	-5355
▁View	-5356
▁base	-5357
▁cars	-5358
▁dark	-5359
▁open	-5360
000270	-5361
ressed	-5362
▁1927.	-5363
▁1956.	-5364
▁43717	-5365
▁70634	-5366
▁Berry	-5367
▁Citta	-5368
▁Rabad	-5369
▁advis	-5370
▁autom	-5371
▁coupe	-5372
▁degre	-5373
▁sport	-5374
2.33968	-5375
ecutive	-5376
located	-5377
▁Batumi	-5378
▁Hailem	-5379
▁Maiden	-5380
▁Philip	-5381
▁Samuda	-5382
▁Steven	-5383
▁Stöger	-5384
▁Tuanku	-5385
▁(29075)	-5386
▁8000270	-5387
▁Freedom	-5388
▁Randall	-5389
▁Teshome	-5390
▁Tinkham	-5391
▁gearbox	-5392
▁serving	-5393
▁station	-5394
Wisconsin	-5395
▁1202.846	-5396
▁Desalegn	-5397
▁Lufthavn	-5398
▁Pallesen	-5399
▁Rabadash	-5400
▁Seminary	-5401
▁potatoes	-5402
▁specific	-5403
▁Ellington	-5404
▁executive	-5405
▁launchpad	-5406
▁musicians	-5407
▁neighbour	-5408
▁paperback	-5409
▁personnel	-5410
▁Guadalajara	-5411
▁Legislature	-5412
21	-5413
22	-5414
Ab	-5415
kab	-5416
red	-5417
sky	-5418
tar	-5419
uck	-5420
yam	-5421
▁2,	-5422
▁AK	-5423
▁Ir	-5424
▁Sq	-5425
▁ac	-5426
▁br	-5427
3528	-5428
4253	-5429
AIDS	-5430
aple	-5431
epar	-5432
etti	-5433
iced	-5434
iral	-5435
salm	-5436
▁31.	-5437
▁978	-5438
▁Pro	-5439
▁Sim	-5440
▁ser	-5441
Black	-5442
ajaya	-5443
ariam	-5444
askat	-5445
ocano	-5446
tario	-5447
yster	-5448
▁1971	-5449
▁Both	-5450
▁Gius	-5451
▁Isis	-5452
▁Punk	-5453
▁Taro	-5454
▁VIAG	-5455
▁doll	-5456
▁prop	-5457
-1-416	-5458
5-4253	-5459
chewan	-5460
market	-5461
olitan	-5462
others	-5463
▁1862.	-5464
▁1923.	-5465
▁Oddie	-5466
▁Psalm	-5467
▁Turin	-5468
▁Urich	-5469
▁arepa	-5470
▁names	-5471
▁separ	-5472
▁wagon	-5473
▁16,000	-5474
▁Peoria	-5475
▁Saskat	-5476
▁560090,	-5477
▁Asajaya	-5478
▁Fighter	-5479
▁batchoy	-5480
▁citizen	-5481
▁ketchup	-5482
▁operate	-5483
ropolitan	-5484
▁Aurakles	-5485
▁Brothers	-5486
▁Electric	-5487
▁Giuseppe	-5488
▁separate	-5489
▁shredded	-5490
▁Newmarket	-5491
▁Territory	-5492
▁political	-5493
millimetres	-5494
▁containing	-5495
-1-4165-4253	-5496
▁437170000.0	-5497
▁Hailemariam	-5498
▁Saskatchewan	-5499
65	-5500
AT	-5501
ya	-5502
øk	-5503
-06	-5504
/27	-5505
80-	-5506
III	-5507
ipo	-5508
ise	-5509
lal	-5510
ncr	-5511
off	-5512
sil	-5513
uto	-5514
xle	-5515
▁Gi	-5516
▁Re	-5517
-27.	-5518
3.0.	-5519
9705	-5520
amin	-5521
code	-5522
ring	-5523
ully	-5524
økke	-5525
▁520	-5526
▁Flo	-5527
▁RCA	-5528
▁rom	-5529
▁she	-5530
▁tub	-5531
95158	-5532
Texas	-5533
hames	-5534
haric	-5535
ncrom	-5536
oslar	-5537
patac	-5538
▁107.	-5539
▁6603	-5540
▁Diaz	-5541
▁Form	-5542
▁Publ	-5543
▁XIII	-5544
▁axle	-5545
silent	-5546
▁1958.	-5547
▁1998.	-5548
▁Krist	-5549
▁Maple	-5550
▁Mater	-5551
▁Roman	-5552
▁bevel	-5553
▁brown	-5554
▁fully	-5555
▁lever	-5556
▁parts	-5557
▁plate	-5558
▁shaft	-5559
ighting	-5560
nalillo	-5561
syncrom	-5562
▁139705	-5563
▁Goslar	-5564
▁Ithaca	-5565
▁Thames	-5566
▁attack	-5567
▁change	-5568
▁clutch	-5569
▁edited	-5570
▁garage	-5571
▁joints	-5572
▁series	-5573
▁spiral	-5574
▁6603633	-5575
▁Alfonso	-5576
▁Amharic	-5577
▁Another	-5578
▁Ilocano	-5579
▁Seattle	-5580
▁tubular	-5581
▁variant	-5582
patacones	-5583
▁52395158	-5584
▁Coritiba	-5585
▁Kristina	-5586
▁floating	-5587
▁particip	-5588
▁regional	-5589
syncromesh	-5590
▁Esteghlal	-5591
▁ajoblanco	-5592
▁commanded	-5593
▁publishes	-5594
▁Bernalillo	-5595
▁523951582.33968	-5596
iu	-5597
vd	-5598
2.3	-5599
718	-5600
eme	-5601
ito	-5602
nod	-5603
orc	-5604
ñol	-5605
▁ye	-5606
9447	-5607
ajor	-5608
alez	-5609
edan	-5610
elle	-5611
iber	-5612
imes	-5613
ydor	-5614
▁2.0	-5615
▁AFB	-5616
▁FAS	-5617
▁Klu	-5618
▁Mas	-5619
▁Mol	-5620
▁Qiu	-5621
▁Sin	-5622
▁Wol	-5623
▁not	-5624
▁own	-5625
60.29	-5626
adipo	-5627
irley	-5628
itman	-5629
nodar	-5630
ourou	-5631
▁Blvd	-5632
▁Dane	-5633
▁Kenn	-5634
▁Kras	-5635
▁Marv	-5636
▁Moro	-5637
▁Walt	-5638
▁cost	-5639
▁more	-5640
Verona	-5641
ellors	-5642
though	-5643
▁1928.	-5644
▁1933.	-5645
▁1959.	-5646
▁347.1	-5647
▁39447	-5648
▁52090	-5649
▁Class	-5650
▁Colon	-5651
▁Kuban	-5652
▁Løkke	-5653
▁Tudor	-5654
▁carri	-5655
▁drive	-5656
▁medal	-5657
▁years	-5658
orcilla	-5659
▁100305	-5660
▁107.43	-5661
▁360.29	-5662
▁Bruins	-5663
▁Kourou	-5664
▁Panama	-5665
▁Telang	-5666
▁become	-5667
▁genres	-5668
▁public	-5669
▁sounds	-5670
▁2015-06	-5671
▁Mexican	-5672
▁Oladipo	-5673
▁Peñarol	-5674
▁Polydor	-5675
▁Sandage	-5676
▁Shirley	-5677
▁Whitman	-5678
▁advisor	-5679
▁severed	-5680
Blackwell	-5681
▁252000.0	-5682
▁Floating	-5683
▁Gonzalez	-5684
▁commonly	-5685
▁tomatoes	-5686
▁Australia	-5687
▁Krasnodar	-5688
▁condiment	-5689
▁cylinders	-5690
▁propellor	-5691
ellorsville	-5692
▁compressed	-5693
▁6603633000.0	-5694
▁metropolitan	-5695
▁3997100000000	-5696
▁Fredericksburg	-5697
50	-5698
FC	-5699
bg	-5700
ät	-5701
2.4	-5702
rov	-5703
tti	-5704
▁07	-5705
▁gu	-5706
5589	-5707
5718	-5708
7055	-5709
Hung	-5710
anol	-5711
cour	-5712
ileo	-5713
ower	-5714
▁-3.	-5715
▁1.2	-5716
▁11,	-5717
▁3.8	-5718
▁410	-5719
▁6.7	-5720
▁Aff	-5721
▁End	-5722
▁Tob	-5723
▁ska	-5724
50000	-5725
altic	-5726
aracy	-5727
riela	-5728
▁1901	-5729
▁1980	-5730
▁21.2	-5731
▁5.57	-5732
▁Auto	-5733
▁Bart	-5734
▁Disc	-5735
▁Diya	-5736
▁Mami	-5737
▁Mata	-5738
▁Petr	-5739
▁fill	-5740
▁rank	-5741
▁18.29	-5742
▁1905.	-5743
▁1974.	-5744
▁2005,	-5745
▁523.9	-5746
▁Beach	-5747
▁Dutch	-5748
▁Popul	-5749
▁Spall	-5750
▁event	-5751
2.47055	-5752
Univers	-5753
▁135589	-5754
▁605718	-5755
▁Affair	-5756
▁Baltic	-5757
▁Falcon	-5758
▁Garden	-5759
▁Graeme	-5760
▁Kluwer	-5761
▁Rivers	-5762
▁Sinisa	-5763
▁Tobago	-5764
▁celery	-5765
▁litres	-5766
football	-5767
morcilla	-5768
▁Coaracy	-5769
▁Galileo	-5770
▁Luciano	-5771
▁Ontario	-5772
▁Wolters	-5773
▁drafted	-5774
▁Building	-5775
▁Enduring	-5776
▁Fighting	-5777
▁Gabriela	-5778
▁Goslarer	-5779
▁Michetti	-5780
▁assembly	-5781
▁Municipal	-5782
▁Riverside	-5783
▁Telangana	-5784
▁chicharon	-5785
▁Government	-5786
▁Universität	-5787
▁ChievoVerona	-5788
▁construction	-5789
▁1-4165-2060-0.	-5790
."	-5791
002	-5792
2-2	-5793
3.8	-5794
597	-5795
977	-5796
aan	-5797
amo	-5798
chi	-5799
eca	-5800
keh	-5801
▁89	-5802
▁UC	-5803
2343	-5804
Amin	-5805
also	-5806
auli	-5807
eniz	-5808
enzi	-5809
gest	-5810
iaol	-5811
ogan	-5812
omet	-5813
▁17.	-5814
▁99.	-5815
▁Din	-5816
▁Wet	-5817
▁imp	-5818
inist	-5819
▁5.75	-5820
▁9364	-5821
▁Azin	-5822
▁Espa	-5823
▁Fons	-5824
▁Hays	-5825
▁Mols	-5826
▁Okeh	-5827
▁door	-5828
▁like	-5829
▁real	-5830
▁1976.	-5831
▁1987.	-5832
▁25977	-5833
▁Evang	-5834
▁Guard	-5835
▁Kesel	-5836
▁Logan	-5837
▁Price	-5838
▁Renzi	-5839
▁Sauli	-5840
▁Tomsk	-5841
▁Veniz	-5842
▁Voice	-5843
fection	-5844
iaolong	-5845
▁882343	-5846
▁Dinamo	-5847
▁Matteo	-5848
▁Newark	-5849
▁Penyet	-5850
▁Tejano	-5851
▁degree	-5852
▁deploy	-5853
ometimes	-5854
▁-3.3528	-5855
▁9364597	-5856
▁Avocado	-5857
▁Daggash	-5858
▁Espanol	-5859
▁Estadio	-5860
▁Fonseca	-5861
▁Francis	-5862
▁Niinist	-5863
▁Wolfman	-5864
▁biggest	-5865
▁million	-5866
▁singing	-5867
▁typical	-5868
▁Mamiffer	-5869
▁Petrakov	-5870
▁Populous	-5871
▁Wetlands	-5872
▁fillings	-5873
▁invasion	-5874
footballer	-5875
▁Astronaut	-5876
▁Evangelos	-5877
▁Spalletti	-5878
▁Venizelos	-5879
▁automatic	-5880
▁guitarist	-5881
Universitas	-5882
▁Australian	-5883
▁Management	-5884
▁Mihajlovic	-5885
▁520906000.0	-5886
'.	-5887
BI	-5888
za	-5889
1.0	-5890
eck	-5891
ihu	-5892
rah	-5893
▁83	-5894
000.	-5895
2447	-5896
4984	-5897
9652	-5898
ajji	-5899
alop	-5900
atin	-5901
dams	-5902
ects	-5903
elli	-5904
etre	-5905
haji	-5906
otto	-5907
yang	-5908
▁125	-5909
▁14.	-5910
▁Dal	-5911
▁Dun	-5912
▁Mov	-5913
▁Vic	-5914
▁def	-5915
▁eth	-5916
▁hub	-5917
▁ink	-5918
843.8	-5919
Izmir	-5920
Stars	-5921
actic	-5922
adium	-5923
akrah	-5924
ensis	-5925
ieter	-5926
rigan	-5927
▁1904	-5928
▁1987	-5929
▁5115	-5930
▁Dale	-5931
▁Eman	-5932
▁Heck	-5933
▁Karl	-5934
▁Kway	-5935
▁Land	-5936
▁Linn	-5937
▁Rahm	-5938
▁Reid	-5939
▁chil	-5940
▁held	-5941
Taylor	-5942
alopod	-5943
ations	-5944
icelli	-5945
▁1983.	-5946
▁2000,	-5947
▁29652	-5948
▁Cakes	-5949
▁Elihu	-5950
▁Halla	-5951
▁Homer	-5952
▁Short	-5953
▁Steel	-5954
▁grant	-5955
▁using	-5956
▁162447	-5957
▁410777	-5958
▁414984	-5959
▁Anyang	-5960
▁Dieter	-5961
▁Former	-5962
▁Joseph	-5963
▁Parana	-5964
▁Valery	-5965
▁manual	-5966
▁sesame	-5967
ubanelle	-5968
▁Desmond	-5969
▁Emanuel	-5970
▁Español	-5971
▁Hecking	-5972
▁another	-5973
▁chopped	-5974
▁stadium	-5975
ederation	-5976
ephalopod	-5977
▁125800.0	-5978
▁25977670	-5979
▁Division	-5980
▁Galactic	-5981
▁Horrigan	-5982
▁Xiaolong	-5983
▁carriers	-5984
▁postcode	-5985
fectionery	-5986
▁Canadians	-5987
▁sometimes	-5988
▁department	-5989
▁neighbouring	-5990
▁259776702.47055	-5991
5,	-5992
Te	-5993
UK	-5994
ku	-5995
na	-5996
pi	-5997
15.	-5998
622	-5999
ati	-6000
sit	-6001
uad	-6002
urt	-6003
who	-6004
ğlu	-6005
▁29	-6006
▁87	-6007
▁AG	-6008
▁By	-6009
▁CD	-6010
▁KV	-6011
0008	-6012
1911	-6013
4.55	-6014
Athe	-6015
cell	-6016
eche	-6017
icop	-6018
idad	-6019
pere	-6020
udge	-6021
▁12,	-6022
▁129	-6023
▁28,	-6024
▁299	-6025
▁36.	-6026
▁416	-6027
▁448	-6028
▁5.4	-6029
▁560	-6030
▁698	-6031
▁Abh	-6032
▁Acc	-6033
▁Bre	-6034
▁Sip	-6035
▁Tam	-6036
▁Vit	-6037
▁res	-6038
asket	-6039
ennis	-6040
eston	-6041
iseum	-6042
▁0.21	-6043
▁Apul	-6044
▁Fuad	-6045
▁Jama	-6046
▁Juha	-6047
▁Line	-6048
▁Oros	-6049
▁Slay	-6050
▁Step	-6051
▁Virt	-6052
▁ayam	-6053
Athens	-6054
elskab	-6055
illery	-6056
rysler	-6057
▁41911	-6058
▁Finns	-6059
▁Horch	-6060
▁Kenny	-6061
▁Meche	-6062
▁judge	-6063
▁mayor	-6064
▁types	-6065
3394.55	-6066
Hungary	-6067
rinidad	-6068
smashed	-6069
▁299196	-6070
▁698622	-6071
▁Airbus	-6072
▁Excell	-6073
▁Fruits	-6074
▁Meride	-6075
▁blanco	-6076
▁fruits	-6077
▁tennis	-6078
urturing	-6079
▁30843.8	-6080
▁Tampere	-6081
▁dollars	-6082
▁Chrysler	-6083
▁Coliseum	-6084
▁Mechelen	-6085
▁Property	-6086
▁american	-6087
▁creators	-6088
▁elements	-6089
▁graduate	-6090
3394.55312	-6091
▁Apulensis	-6092
▁Artillery	-6093
▁Operation	-6094
▁Stockport	-6095
▁Transport	-6096
▁competing	-6097
▁guanciale	-6098
▁recording	-6099
▁Charleston	-6100
▁Excellence	-6101
▁Federation	-6102
▁categorized	-6103
▁Aktieselskab	-6104
▁419113394.55312	-6105
Sp	-6106
XN	-6107
of	-6108
.".	-6109
608	-6110
729	-6111
ele	-6112
hip	-6113
raj	-6114
▁Fa	-6115
▁Fo	-6116
▁Uk	-6117
2497	-6118
4989	-6119
570.	-6120
6468	-6121
90.9	-6122
9371	-6123
ader	-6124
aduy	-6125
alin	-6126
arif	-6127
asha	-6128
inat	-6129
inds	-6130
onet	-6131
ousa	-6132
oyet	-6133
psey	-6134
▁274	-6135
▁5.7	-6136
▁512	-6137
▁AGR	-6138
▁Adm	-6139
▁Are	-6140
▁Dar	-6141
▁Gus	-6142
▁Led	-6143
▁Men	-6144
▁arr	-6145
▁rul	-6146
▁use	-6147
Techn	-6148
ights	-6149
ively	-6150
ually	-6151
velop	-6152
▁"192	-6153
▁1981	-6154
▁Aviv	-6155
▁Clay	-6156
▁Crew	-6157
▁Enda	-6158
▁Gene	-6159
▁Test	-6160
▁appe	-6161
▁blue	-6162
▁conc	-6163
646863	-6164
Wakrah	-6165
overed	-6166
▁19238	-6167
▁1989.	-6168
▁39371	-6169
▁490.9	-6170
▁99.83	-6171
▁Adsit	-6172
▁Arion	-6173
▁Faber	-6174
▁Icolo	-6175
▁Order	-6176
▁Paulo	-6177
▁Poyet	-6178
▁Silva	-6179
▁Sousa	-6180
▁Youth	-6181
▁ethic	-6182
570.608	-6183
damsche	-6184
▁254989	-6185
▁352497	-6186
▁Bright	-6187
▁Carles	-6188
▁Cruise	-6189
▁Darien	-6190
▁Michel	-6191
▁Minist	-6192
▁Putraj	-6193
▁Sharif	-6194
▁Stalin	-6195
▁awards	-6196
▁oyster	-6197
▁spouse	-6198
formerly	-6199
▁Chester	-6200
▁Coronet	-6201
▁Hungary	-6202
▁Menasha	-6203
▁compris	-6204
▁89646863	-6205
▁80002709.	-6206
▁Carrarese	-6207
▁Lauraceae	-6208
Association	-6209
ightsbridge	-6210
▁Lokomotive	-6211
▁523329000.0	-6212
▁Chesterfield	-6213
▁254989570.608	-6214
▁representative	-6215
AA	-6216
SA	-6217
TE	-6218
by	-6219
mm	-6220
zo	-6221
ín	-6222
/35	-6223
015	-6224
4.9	-6225
711	-6226
92.	-6227
adt	-6228
int	-6229
kan	-6230
lef	-6231
▁Vl	-6232
▁su	-6233
3309	-6234
9-01	-6235
aide	-6236
ared	-6237
gram	-6238
hers	-6239
iyev	-6240
oğlu	-6241
side	-6242
▁3.9	-6243
▁94.	-6244
▁973	-6245
▁Ajo	-6246
▁Dig	-6247
▁Emp	-6248
▁Far	-6249
▁Mam	-6250
▁Qar	-6251
▁vol	-6252
00000	-6253
abels	-6254
alist	-6255
alted	-6256
angip	-6257
anyum	-6258
otaur	-6259
ysics	-6260
▁Adel	-6261
▁Also	-6262
▁Boat	-6263
▁Folk	-6264
▁Giov	-6265
▁Raul	-6266
▁Sant	-6267
▁Tait	-6268
▁make	-6269
iensis	-6270
lefish	-6271
ustadt	-6272
▁1931.	-6273
▁2001.	-6274
▁34920	-6275
▁Baduy	-6276
▁Colan	-6277
▁Latin	-6278
▁Lemon	-6279
▁Masum	-6280
▁chili	-6281
▁motto	-6282
icopter	-6283
inatown	-6284
▁0.0455	-6285
▁183309	-6286
▁Babels	-6287
▁Claude	-6288
▁Lankan	-6289
▁Torino	-6290
▁Viktor	-6291
▁Wiener	-6292
▁chilli	-6293
▁design	-6294
▁employ	-6295
▁volume	-6296
angipane	-6297
▁Agustín	-6298
▁Dempsey	-6299
▁Digweed	-6300
▁Physics	-6301
▁Stephen	-6302
▁Vicenza	-6303
▁Workers	-6304
▁nearest	-6305
▁program	-6306
▁tapioca	-6307
Technical	-6308
anyumasan	-6309
uttlefish	-6310
▁Adelaide	-6311
▁Berliner	-6312
▁Filipino	-6313
▁Neustadt	-6314
▁resident	-6315
▁475426000	-6316
▁Chinatown	-6317
▁Davutoğlu	-6318
▁Gadzhiyev	-6319
▁Putrajaya	-6320
▁institute	-6321
▁Babelsberg	-6322
▁Footballer	-6323
▁296521000.0	-6324
▁511592000.0	-6325
▁Aarhusiensis	-6326
▁3997100000000.	-6327
54	-6328
IS	-6329
SV	-6330
ng	-6331
úl	-6332
-12	-6333
-26	-6334
-92	-6335
/1.	-6336
003	-6337
2.0	-6338
4.7	-6339
aré	-6340
fay	-6341
lus	-6342
pur	-6343
▁94	-6344
▁AD	-6345
▁mm	-6346
-033	-6347
550-	-6348
6.67	-6349
7392	-6350
8024	-6351
anni	-6352
cema	-6353
ebre	-6354
ette	-6355
gory	-6356
holm	-6357
itut	-6358
pnyk	-6359
quid	-6360
roth	-6361
uala	-6362
▁488	-6363
▁Fox	-6364
▁Lum	-6365
▁STV	-6366
▁Vel	-6367
▁Vfl	-6368
▁dis	-6369
70592	-6370
72943	-6371
ailan	-6372
board	-6373
drini	-6374
emont	-6375
olone	-6376
▁Gard	-6377
▁Moga	-6378
▁Pant	-6379
▁Raúl	-6380
▁Vlad	-6381
▁side	-6382
739224	-6383
allots	-6384
▁0-670	-6385
▁2008.	-6386
▁31.48	-6387
▁344.9	-6388
▁Bhaji	-6389
▁Crewe	-6390
▁Lafay	-6391
▁Larry	-6392
▁Laura	-6393
▁Perth	-6394
▁about	-6395
▁bajji	-6396
▁broth	-6397
▁grams	-6398
▁latin	-6399
▁lived	-6400
▁squid	-6401
-92550-	-6402
▁570592	-6403
▁772943	-6404
▁Accord	-6405
▁Farmer	-6406
▁Fisher	-6407
▁Gadzhi	-6408
▁Lumpur	-6409
▁Marius	-6410
▁Rovers	-6411
▁Singer	-6412
▁Tabaré	-6413
▁bhajji	-6414
▁cities	-6415
▁kailan	-6416
▁noodle	-6417
▁salted	-6418
istricts	-6419
▁1516.67	-6420
▁94.8024	-6421
▁Asterix	-6422
▁Buscema	-6423
▁Gregory	-6424
▁bionico	-6425
▁general	-6426
▁Boldrini	-6427
▁Giovanni	-6428
▁Guardian	-6429
▁Hessisch	-6430
▁Minotaur	-6431
▁Panthers	-6432
▁shallots	-6433
▁0-670-033	-6434
▁Bartolone	-6435
▁Hardcover	-6436
▁Lafayette	-6437
▁Published	-6438
▁Stockholm	-6439
▁districts	-6440
▁Netherland	-6441
▁architects	-6442
▁leadership	-6443
▁0-439-92550-	-6444
▁1516.6700000000	-6445
▁254989570.60815	-6446
,"	-6447
no	-6448
oa	-6449
áz	-6450
ér	-6451
-10	-6452
-83	-6453
Zaw	-6454
hly	-6455
iac	-6456
jor	-6457
lyn	-6458
nem	-6459
odr	-6460
sen	-6461
zil	-6462
zze	-6463
▁sl	-6464
-932	-6465
7.0.	-6466
7151	-6467
9142	-6468
9618	-6469
deon	-6470
ever	-6471
fres	-6472
kuas	-6473
noon	-6474
nykh	-6475
olai	-6476
thel	-6477
▁127	-6478
▁292	-6479
▁Eva	-6480
▁Gér	-6481
▁Mul	-6482
▁Red	-6483
▁Váz	-6484
▁too	-6485
2.213	-6486
Abadi	-6487
Zawra	-6488
artel	-6489
iacos	-6490
ietam	-6491
jorie	-6492
oklyn	-6493
▁0.02	-6494
▁11/2	-6495
▁1174	-6496
▁2008	-6497
▁8.33	-6498
▁Anth	-6499
▁Arms	-6500
▁Bari	-6501
▁Dick	-6502
▁Dill	-6503
▁Huss	-6504
▁Roll	-6505
▁Sach	-6506
▁Scot	-6507
▁Skry	-6508
▁Vala	-6509
▁gula	-6510
▁pres	-6511
▁soya	-6512
▁verm	-6513
icharr	-6514
odrome	-6515
▁144.7	-6516
▁15788	-6517
▁41613	-6518
▁69618	-6519
▁77151	-6520
▁Diane	-6521
▁Kuala	-6522
▁Match	-6523
▁Odeon	-6524
▁Puigd	-6525
▁Sandw	-6526
▁river	-6527
diction	-6528
ebrezze	-6529
freshly	-6530
istrate	-6531
oration	-6532
▁0.0473	-6533
▁2014-2	-6534
▁279142	-6535
▁Donald	-6536
▁Gérard	-6537
▁Hartel	-6538
▁Knight	-6539
▁Lufkin	-6540
▁Warnem	-6541
▁labels	-6542
▁pastry	-6543
▁tender	-6544
▁writer	-6545
0002-932	-6546
thelwald	-6547
▁Antonio	-6548
▁Gardner	-6549
▁Hussain	-6550
▁Mamnoon	-6551
▁Rutland	-6552
▁Sachsen	-6553
▁Vázquez	-6554
▁preserv	-6555
▁Antietam	-6556
▁Brooklyn	-6557
▁Chicharr	-6558
▁Marjorie	-6559
▁Ministry	-6560
▁Rosaceae	-6561
▁Sandwich	-6562
▁Trinidad	-6563
▁lengkuas	-6564
▁93645978.	-6565
▁Velodrome	-6566
▁kilometer	-6567
▁Banyumasan	-6568
▁Celebrezze	-6569
▁Olympiacos	-6570
▁vermicelli	-6571
▁2015-06-27.	-6572
▁Psychedelia	-6573
▁0-439-17685-	-6574
▁Knightsbridge	-6575
▁978-1-4165-4253	-6576
GP	-6577
OK	-6578
dr	-6579
ln	-6580
uß	-6581
-23	-6582
/23	-6583
3.1	-6584
679	-6585
744	-6586
831	-6587
937	-6588
ATA	-6589
Ass	-6590
PGP	-6591
ege	-6592
iah	-6593
obi	-6594
ora	-6595
reg	-6596
top	-6597
▁Di	-6598
▁Of	-6599
0001	-6600
0068	-6601
4.33	-6602
9.0.	-6603
aced	-6604
ajub	-6605
elez	-6606
etro	-6607
imum	-6608
serv	-6609
sing	-6610
▁168	-6611
▁2.7	-6612
▁Bac	-6613
▁Fen	-6614
▁Gar	-6615
▁HOK	-6616
▁Kir	-6617
▁Paz	-6618
▁São	-6619
▁mat	-6620
▁pos	-6621
▁str	-6622
▁tax	-6623
36463	-6624
PGPAC	-6625
aider	-6626
crust	-6627
erman	-6628
helor	-6629
loilo	-6630
riots	-6631
▁167.	-6632
▁Cher	-6633
▁IATA	-6634
▁Into	-6635
▁Jong	-6636
▁José	-6637
▁Mond	-6638
▁Univ	-6639
▁here	-6640
▁loin	-6641
▁over	-6642
▁taro	-6643
679831	-6644
ashire	-6645
etroit	-6646
ußisch	-6647
▁23900	-6648
▁74.33	-6649
▁Adnan	-6650
▁Carpi	-6651
▁Duane	-6652
▁Found	-6653
▁Genoa	-6654
▁Hamad	-6655
▁Hambg	-6656
▁Irwin	-6657
▁Maher	-6658
▁Pugin	-6659
▁Round	-6660
▁Siege	-6661
▁Tamil	-6662
▁Vajub	-6663
▁dried	-6664
▁since	-6665
0001-83	-6666
Indiana	-6667
anguage	-6668
▁836463	-6669
▁870008	-6670
▁Haider	-6671
▁Melaka	-6672
▁Origin	-6673
▁helped	-6674
obiology	-6675
ontology	-6676
▁5739224	-6677
▁Anthony	-6678
▁Barajas	-6679
▁Detroit	-6680
▁Nikolai	-6681
▁governs	-6682
▁hardtop	-6683
▁Augustus	-6684
▁Bachelor	-6685
▁Chernykh	-6686
▁Democrat	-6687
▁Mondelez	-6688
▁Patriots	-6689
▁Skrypnyk	-6690
▁Taqaddum	-6691
▁meringue	-6692
▁position	-6693
▁Preußisch	-6694
▁Southeast	-6695
▁Lancashire	-6696
▁Petersburg	-6697
▁Universitas	-6698
PS	-6699
/30	-6700
14.	-6701
150	-6702
5.8	-6703
905	-6704
AGE	-6705
eja	-6706
eyr	-6707
ona	-6708
orw	-6709
ova	-6710
ows	-6711
uin	-6712
öln	-6713
▁39	-6714
▁42	-6715
▁Gm	-6716
▁KC	-6717
▁er	-6718
▁ro	-6719
aint	-6720
amie	-6721
coni	-6722
esse	-6723
inau	-6724
inez	-6725
ldon	-6726
ouri	-6727
owle	-6728
plac	-6729
▁17,	-6730
▁20,	-6731
▁44.	-6732
▁787	-6733
▁Arn	-6734
▁Kad	-6735
▁Kal	-6736
▁Nor	-6737
▁Zah	-6738
5.324	-6739
7080.	-6740
Spain	-6741
acker	-6742
ected	-6743
entry	-6744
enzie	-6745
▁1856	-6746
▁3,99	-6747
▁4150	-6748
▁Area	-6749
▁Does	-6750
▁Köln	-6751
▁Lyle	-6752
▁Peng	-6753
▁Rosa	-6754
▁SAGE	-6755
▁Vant	-6756
▁Vorw	-6757
▁Ximo	-6758
▁alum	-6759
▁auto	-6760
▁bodh	-6761
▁cott	-6762
▁resp	-6763
indsor	-6764
isinau	-6765
▁1.905	-6766
▁125.8	-6767
▁18.52	-6768
▁497.0	-6769
▁Brown	-6770
▁Fowle	-6771
▁Gould	-6772
▁Nouri	-6773
▁Rolls	-6774
▁Steyr	-6775
▁Ukrop	-6776
▁Valer	-6777
▁sings	-6778
▁İzmir	-6779
lusconi	-6780
▁560937	-6781
▁75.324	-6782
▁Admira	-6783
▁Fenves	-6784
▁Garage	-6785
▁Iloilo	-6786
▁Kaduna	-6787
▁Random	-6788
▁Silvio	-6789
▁Wacker	-6790
▁secret	-6791
▁sliced	-6792
7080.744	-6793
roadwood	-6794
▁7679831	-6795
▁Lambien	-6796
▁Moldoff	-6797
▁Penguin	-6798
▁Sheldon	-6799
▁Studies	-6800
▁Trenton	-6801
▁Vantage	-6802
▁Windsor	-6803
▁bandeja	-6804
▁cottage	-6805
▁displac	-6806
▁erected	-6807
▁reality	-6808
asketball	-6809
▁1622.213	-6810
▁Coventry	-6811
▁Doesburg	-6812
▁Francois	-6813
▁Martinez	-6814
▁Movement	-6815
▁Vajubhai	-6816
▁provided	-6817
▁relative	-6818
▁Broadcast	-6819
▁alongside	-6820
▁preserves	-6821
▁837080.744	-6822
▁Berlusconi	-6823
▁Puigdemont	-6824
▁occupation	-6825
▁560937000.0	-6826
▁Established	-6827
▁originating	-6828
▁Broadcasting	-6829
▁Paleobiology	-6830
▁Publications	-6831
▁displacement	-6832
▁participated	-6833
-8	-6834
41	-6835
Km	-6836
ki	-6837
rs	-6838
üs	-6839
üt	-6840
-36	-6841
517	-6842
78.	-6843
955	-6844
TEC	-6845
apt	-6846
ego	-6847
hal	-6848
ikh	-6849
mut	-6850
nic	-6851
pot	-6852
▁44	-6853
▁BC	-6854
000,	-6855
42.3	-6856
67-7	-6857
7156	-6858
7888	-6859
Wash	-6860
abag	-6861
awaz	-6862
baan	-6863
eden	-6864
itar	-6865
lass	-6866
oard	-6867
olfo	-6868
writ	-6869
▁27,	-6870
▁388	-6871
▁445	-6872
▁464	-6873
▁Abu	-6874
▁Büt	-6875
▁Dep	-6876
▁ESA	-6877
▁Hüs	-6878
▁VAM	-6879
▁Vaz	-6880
▁mas	-6881
▁tra	-6882
-3648	-6883
aking	-6884
atins	-6885
epend	-6886
eters	-6887
itude	-6888
manag	-6889
rafts	-6890
ravis	-6891
▁1249	-6892
▁1936	-6893
▁1988	-6894
▁4.14	-6895
▁5300	-6896
▁Cohn	-6897
▁Faro	-6898
▁Gary	-6899
▁Mari	-6900
▁dece	-6901
▁each	-6902
▁feat	-6903
▁high	-6904
▁stor	-6905
egunda	-6906
▁1.955	-6907
▁16.55	-6908
▁2014–	-6909
▁233.9	-6910
▁783.1	-6911
▁87888	-6912
▁Bible	-6913
▁Breaz	-6914
▁Diego	-6915
▁Güner	-6916
▁Kirby	-6917
▁Nawaz	-6918
▁Reith	-6919
▁Staff	-6920
▁Ujang	-6921
▁Zahar	-6922
▁distr	-6923
▁ranks	-6924
▁third	-6925
atinsky	-6926
oleague	-6927
▁1142.3	-6928
▁167.94	-6929
▁464517	-6930
▁787711	-6931
▁Airman	-6932
▁Arnhem	-6933
▁Benito	-6934
▁Dayton	-6935
▁Dillin	-6936
▁Helmut	-6937
▁Russel	-6938
▁Sheikh	-6939
▁Shorta	-6940
▁Spring	-6941
▁Sweden	-6942
▁Valour	-6943
▁aboard	-6944
▁Bütüner	-6945
▁Classic	-6946
▁Develop	-6947
▁Faroese	-6948
▁Fiction	-6949
▁Hüseyin	-6950
▁Kaliber	-6951
▁Moldova	-6952
▁Philips	-6953
▁Vazquez	-6954
▁Vitesse	-6955
▁chinese	-6956
▁founder	-6957
7156-3648	-6958
ependence	-6959
▁Airports	-6960
▁Chisinau	-6961
▁Santilli	-6962
▁acoustic	-6963
▁authored	-6964
▁deceased	-6965
▁keyboard	-6966
Washington	-6967
▁124950000	-6968
▁Brazilian	-6969
▁Broadwood	-6970
▁secretary	-6971
▁Bolatinsky	-6972
▁Euroleague	-6973
▁Salvadoran	-6974
▁christened	-6975
▁0-439-17684	-6976
▁605718000.0	-6977
▁Development	-6978
▁0-670-03380-	-6979
▁Independence	-6980
ea	-6981
wa	-6982
▁)	-6983
▁Æ	-6984
-1.	-6985
.),	-6986
/03	-6987
86.	-6988
911	-6989
Eng	-6990
Man	-6991
Ord	-6992
RAA	-6993
ees	-6994
gro	-6995
hov	-6996
ked	-6997
sol	-6998
▁24	-6999
▁BS	-7000
▁HQ	-7001
▁Ha	-7002
▁MD	-7003
▁Ow	-7004
▁SN	-7005
3326	-7006
aris	-7007
atow	-7008
ayat	-7009
ches	-7010
edah	-7011
ello	-7012
ieut	-7013
mine	-7014
ness	-7015
rett	-7016
▁142	-7017
▁21,	-7018
▁31,	-7019
▁331	-7020
▁4.8	-7021
▁507	-7022
▁Low	-7023
▁PSV	-7024
▁cap	-7025
▁fat	-7026
▁lay	-7027
Ordon	-7028
actor	-7029
anyan	-7030
enant	-7031
estin	-7032
hoven	-7033
ility	-7034
miral	-7035
stone	-7036
▁1959	-7037
▁Arts	-7038
▁Boer	-7039
▁Cour	-7040
▁Dept	-7041
▁Eind	-7042
▁Jahn	-7043
▁Jati	-7044
▁Jill	-7045
▁Leon	-7046
▁ORAA	-7047
▁Rear	-7048
▁Shab	-7049
▁Taid	-7050
▁Trot	-7051
▁Wave	-7052
▁lloc	-7053
▁magn	-7054
▁most	-7055
ending	-7056
illing	-7057
impico	-7058
owever	-7059
solute	-7060
▁1996,	-7061
▁48816	-7062
▁Group	-7063
▁Katow	-7064
▁Kedah	-7065
▁Lieut	-7066
▁Lions	-7067
▁Sumac	-7068
▁cruis	-7069
▁dance	-7070
▁liter	-7071
▁often	-7072
▁serve	-7073
▁these	-7074
▁0.0068	-7075
▁1.9558	-7076
▁2777.0	-7077
▁283326	-7078
▁Allian	-7079
▁Chapin	-7080
▁Ethnic	-7081
▁Greene	-7082
▁Malatu	-7083
▁Sparta	-7084
▁Travis	-7085
▁layout	-7086
▁rector	-7087
▁rupiah	-7088
▁Admiral	-7089
▁Almonds	-7090
▁Carmine	-7091
▁Culture	-7092
▁Garrett	-7093
▁Indians	-7094
▁Jamaica	-7095
▁Qarabag	-7096
▁Segunda	-7097
▁Trotsky	-7098
▁llocano	-7099
▁smashed	-7100
▁stories	-7101
Nurturing	-7102
couronnes	-7103
▁140000.0	-7104
▁Georgian	-7105
▁Katowice	-7106
▁Olimpico	-7107
▁Shilling	-7108
▁absolute	-7109
▁designer	-7110
▁desserts	-7111
▁operator	-7112
▁2014-2015	-7113
▁employees	-7114
▁inhabited	-7115
▁magnitude	-7116
▁musically	-7117
▁Æthelwald	-7118
▁Discovered	-7119
▁Lieutenant	-7120
▁cuttlefish	-7121
▁0-7156-3648	-7122
▁Psychedelic	-7123
▁288749000000.0	-7124
76	-7125
Ad	-7126
Ag	-7127
Ge	-7128
mo	-7129
-19	-7130
131	-7131
73.	-7132
bat	-7133
cot	-7134
hne	-7135
ika	-7136
▁8,	-7137
▁9.	-7138
▁HA	-7139
▁HE	-7140
▁Ll	-7141
-15.	-7142
-374	-7143
80.7	-7144
acio	-7145
asim	-7146
empe	-7147
enry	-7148
erto	-7149
iman	-7150
ined	-7151
kpot	-7152
owda	-7153
pers	-7154
reta	-7155
tron	-7156
ugar	-7157
velt	-7158
ärts	-7159
▁45.	-7160
▁5.6	-7161
▁Kek	-7162
▁Vig	-7163
▁gar	-7164
ainen	-7165
andro	-7166
ectra	-7167
habit	-7168
ither	-7169
▁2003	-7170
▁3000	-7171
▁4000	-7172
▁Chil	-7173
▁Cond	-7174
▁Hook	-7175
▁Hull	-7176
▁Kiss	-7177
▁Lein	-7178
▁Mish	-7179
▁Sago	-7180
▁Sons	-7181
▁Sula	-7182
▁bomb	-7183
▁hold	-7184
▁rise	-7185
-26131	-7186
enburg	-7187
incial	-7188
inegro	-7189
landic	-7190
ursema	-7191
▁1986,	-7192
▁44589	-7193
▁8.334	-7194
▁Baron	-7195
▁Canto	-7196
▁Gowda	-7197
▁Henry	-7198
▁Hohne	-7199
▁Inter	-7200
▁Jarmo	-7201
▁Kempe	-7202
▁Preub	-7203
▁Spell	-7204
▁recip	-7205
▁sedan	-7206
▁sugar	-7207
ressive	-7208
▁'1634:	-7209
▁0.0112	-7210
▁Franco	-7211
▁Inkpot	-7212
▁Leiden	-7213
▁Llopis	-7214
▁Marcos	-7215
▁Number	-7216
▁Rosids	-7217
▁Shabab	-7218
▁Sipila	-7219
▁Tabare	-7220
▁Vectra	-7221
▁cookie	-7222
▁garris	-7223
▁mascot	-7224
▁picked	-7225
▁postal	-7226
▁shumai	-7227
▁1907-07	-7228
▁2005-11	-7229
▁Larreta	-7230
▁Matchst	-7231
▁Mishkin	-7232
▁Opelika	-7233
▁Rodolfo	-7234
▁Stanyan	-7235
▁english	-7236
▁peppers	-7237
▁several	-7238
6000000.0	-7239
habitants	-7240
itionally	-7241
▁Counties	-7242
▁Duursema	-7243
▁Japanese	-7244
▁Leinster	-7245
▁Marietta	-7246
▁Scotland	-7247
▁Sulaiman	-7248
▁Tomatoes	-7249
▁although	-7250
▁champion	-7251
▁succeded	-7252
-374-26131	-7253
▁Eindhoven	-7254
▁Filipinos	-7255
▁Infantino	-7256
▁Sanderson	-7257
▁cubanelle	-7258
▁distribut	-7259
▁therefore	-7260
▁Alessandro	-7261
▁Provincial	-7262
▁Wilderness	-7263
▁cephalopod	-7264
▁impressive	-7265
Associazione	-7266
▁Greenlandic	-7267
▁christening	-7268
▁publication	-7269
confectionery	-7270
▁Courcouronnes	-7271
▁0-439-92550-9.	-7272
▁88234300000.0.	-7273
▁288749000000.0.	-7274
-7.	-7275
/26	-7276
00,	-7277
11.	-7278
26.	-7279
484	-7280
9-0	-7281
den	-7282
imm	-7283
kgs	-7284
sea	-7285
uce	-7286
▁40	-7287
▁65	-7288
▁75	-7289
▁WW	-7290
▁if	-7291
7701	-7292
atov	-7293
ecor	-7294
harp	-7295
head	-7296
ices	-7297
iles	-7298
olin	-7299
simm	-7300
udap	-7301
wick	-7302
▁"19	-7303
▁111	-7304
▁219	-7305
▁25,	-7306
▁746	-7307
▁Arm	-7308
▁Bet	-7309
▁Ent	-7310
▁Key	-7311
▁Kub	-7312
▁Kup	-7313
▁McK	-7314
▁Oth	-7315
▁Pic	-7316
▁Rap	-7317
▁SVE	-7318
▁bed	-7319
▁gre	-7320
▁mag	-7321
▁orb	-7322
▁thr	-7323
-05-2	-7324
-12-3	-7325
Agrem	-7326
Georg	-7327
achos	-7328
atory	-7329
ealla	-7330
found	-7331
hesda	-7332
innah	-7333
irate	-7334
onson	-7335
▁5000	-7336
▁Book	-7337
▁Bury	-7338
▁Chel	-7339
▁Doll	-7340
▁Ferg	-7341
▁Head	-7342
▁Much	-7343
▁Pick	-7344
▁Quay	-7345
▁asam	-7346
▁fail	-7347
▁host	-7348
▁tour	-7349
aminer	-7350
comics	-7351
inning	-7352
▁"1928	-7353
▁3360.	-7354
▁37701	-7355
▁66391	-7356
▁Barry	-7357
▁Blank	-7358
▁Budap	-7359
▁Kekal	-7360
▁Kolin	-7361
▁Laird	-7362
▁Libya	-7363
▁Magik	-7364
▁Plast	-7365
▁Roose	-7366
▁Roque	-7367
▁Under	-7368
▁holds	-7369
▁works	-7370
ecorino	-7371
minster	-7372
perberg	-7373
simmons	-7374
▁"1634:	-7375
▁0.0155	-7376
▁1580.7	-7377
▁Bujang	-7378
▁Danish	-7379
▁Denzil	-7380
▁During	-7381
▁Empire	-7382
▁Greeks	-7383
▁Jinnah	-7384
▁Mother	-7385
▁Observ	-7386
▁Othman	-7387
▁Picchi	-7388
▁Puerto	-7389
▁Regina	-7390
▁Virtus	-7391
▁cruise	-7392
▁destin	-7393
▁either	-7394
▁events	-7395
▁pepper	-7396
▁powers	-7397
▁varied	-7398
eallaigh	-7399
islative	-7400
squeezed	-7401
▁3800.0.	-7402
▁Armando	-7403
▁Chelsea	-7404
▁Chilton	-7405
▁Entella	-7406
▁Horacio	-7407
▁Kissing	-7408
▁Kubatov	-7409
▁Pickard	-7410
▁matches	-7411
▁natives	-7412
▁regions	-7413
ffiliated	-7414
▁0002-932	-7415
▁60040714	-7416
▁Amateurs	-7417
▁Bethesda	-7418
▁Budapest	-7419
▁Charlott	-7420
▁McKenzie	-7421
▁Niinisto	-7422
▁Operated	-7423
▁Richland	-7424
▁Simonson	-7425
▁appeared	-7426
▁autoharp	-7427
▁competes	-7428
▁township	-7429
Agremiação	-7430
▁2006-12-3	-7431
▁57059226.	-7432
▁Craftsman	-7433
▁Muchachos	-7434
▁Preubisch	-7435
▁Roosevelt	-7436
▁americans	-7437
▁Kekalainen	-7438
▁Kupperberg	-7439
▁Motherwell	-7440
▁magistrate	-7441
▁Observatory	-7442
▁Westminster	-7443
▁centimetres	-7444
▁destination	-7445
▁Efxeinoupoli	-7446
▁manufactures	-7447
▁international	-7448
bh	-7449
km	-7450
72.	-7451
805	-7452
894	-7453
904	-7454
919	-7455
has	-7456
iku	-7457
ilä	-7458
kaz	-7459
key	-7460
rog	-7461
tle	-7462
▁"1	-7463
▁3-	-7464
▁68	-7465
▁RQ	-7466
▁VA	-7467
▁VD	-7468
▁WB	-7469
▁We	-7470
▁en	-7471
▁ob	-7472
1683	-7473
Nair	-7474
heda	-7475
iate	-7476
iben	-7477
ikav	-7478
inny	-7479
tred	-7480
ulas	-7481
uson	-7482
▁03/	-7483
▁1.8	-7484
▁22,	-7485
▁374	-7486
▁657	-7487
▁Bod	-7488
▁Len	-7489
▁Mak	-7490
▁Mig	-7491
▁Mun	-7492
▁Rub	-7493
▁cha	-7494
▁pen	-7495
▁pes	-7496
2-242	-7497
2.88.	-7498
Miche	-7499
ashub	-7500
attro	-7501
einst	-7502
erald	-7503
etrov	-7504
imber	-7505
itake	-7506
otein	-7507
▁1418	-7508
▁1700	-7509
▁1990	-7510
▁250.	-7511
▁524.	-7512
▁8805	-7513
▁Band	-7514
▁Buck	-7515
▁Drog	-7516
▁Fitz	-7517
▁Gmbh	-7518
▁Gosc	-7519
▁Guar	-7520
▁Jean	-7521
▁Luis	-7522
▁SqKm	-7523
▁Wart	-7524
▁Wein	-7525
▁gold	-7526
▁into	-7527
Michel	-7528
imetre	-7529
single	-7530
tredia	-7531
▁08/26	-7532
▁1857.	-7533
▁1907.	-7534
▁1957,	-7535
▁1962,	-7536
▁1971.	-7537
▁Among	-7538
▁Anand	-7539
▁Atiku	-7540
▁Aulas	-7541
▁Donal	-7542
▁Giles	-7543
▁Horse	-7544
▁Light	-7545
▁Major	-7546
▁Olive	-7547
▁Patel	-7548
▁Ramis	-7549
▁orbit	-7550
▁piano	-7551
▁super	-7552
fferent	-7553
ikavkaz	-7554
irector	-7555
managed	-7556
portiva	-7557
▁0567-7	-7558
▁111484	-7559
▁331683	-7560
▁APGPAC	-7561
▁Alania	-7562
▁Combat	-7563
▁Feinst	-7564
▁Graves	-7565
▁Herald	-7566
▁Kashub	-7567
▁McNair	-7568
▁Miguel	-7569
▁Pirate	-7570
▁raised	-7571
▁single	-7572
▁stages	-7573
▁titled	-7574
▁0001-83	-7575
▁2014–15	-7576
▁Munster	-7577
▁Plastik	-7578
▁Quattro	-7579
▁chaired	-7580
▁notable	-7581
▁protein	-7582
▁through	-7583
▁tourist	-7584
▁100305.0	-7585
▁2014-15.	-7586
▁Deptford	-7587
▁Drogheda	-7588
▁Ferguson	-7589
▁Goscinny	-7590
▁Guarania	-7591
▁Musician	-7592
▁Philippe	-7593
▁cylinder	-7594
▁recorded	-7595
▁squeezed	-7596
▁vehicles	-7597
▁Anandiben	-7598
▁Construct	-7599
▁Feinstein	-7600
▁Samtredia	-7601
▁Universal	-7602
▁different	-7603
▁originate	-7604
inghamshire	-7605
inhabitants	-7606
▁Helicopter	-7607
▁Reidsville	-7608
▁shortcrust	-7609
▁331683000.0	-7610
▁Fitzsimmons	-7611
▁Vladikavkaz	-7612
▁connections	-7613
▁139705000.0.	-7614
▁179942000.0.	-7615
▁Williamsburg	-7616
▁Charlottetown	-7617
▁Parliamentary	-7618
▁0-670-03380-4.	-7619
▁29919600000.0.	-7620
▁416136000000.0.	-7621
▁Buckinghamshire	-7622
',	-7623
AH	-7624
ui	-7625
wy	-7626
-28	-7627
-55	-7628
-56	-7629
0.8	-7630
269	-7631
348	-7632
5.4	-7633
947	-7634
999	-7635
AHE	-7636
Jaw	-7637
hek	-7638
mán	-7639
nez	-7640
rec	-7641
rix	-7642
uet	-7643
uzz	-7644
wyn	-7645
âne	-7646
ște	-7647
▁CA	-7648
▁GA	-7649
▁tr	-7650
-263	-7651
-301	-7652
1951	-7653
8.0.	-7654
86.2	-7655
92.6	-7656
Quwa	-7657
abbr	-7658
anta	-7659
aptă	-7660
atto	-7661
bohy	-7662
iang	-7663
irus	-7664
kies	-7665
kman	-7666
rese	-7667
uzzi	-7668
wall	-7669
érix	-7670
ínez	-7671
▁-8.	-7672
▁096	-7673
▁173	-7674
▁Dis	-7675
▁HAL	-7676
▁Kai	-7677
▁Qui	-7678
▁Uab	-7679
▁Web	-7680
▁Zor	-7681
▁rut	-7682
▁via	-7683
68.05	-7684
68.65	-7685
73-55	-7686
Mater	-7687
adija	-7688
alows	-7689
atten	-7690
ensio	-7691
esque	-7692
hnese	-7693
ibbon	-7694
inson	-7695
iskey	-7696
ituta	-7697
ordon	-7698
orsep	-7699
oured	-7700
udios	-7701
woody	-7702
▁1147	-7703
▁1299	-7704
▁13/3	-7705
▁1301	-7706
▁1820	-7707
▁1862	-7708
▁1909	-7709
▁1931	-7710
▁1952	-7711
▁1953	-7712
▁1976	-7713
▁55.4	-7714
▁Arib	-7715
▁Atal	-7716
▁Bung	-7717
▁Dino	-7718
▁Hill	-7719
▁Hort	-7720
▁Iwan	-7721
▁Liga	-7722
▁Most	-7723
▁Numa	-7724
▁Rest	-7725
▁Some	-7726
▁Sour	-7727
▁Stam	-7728
▁know	-7729
▁peso	-7730
▁prep	-7731
-56947	-7732
269-93	-7733
88-263	-7734
Jawiya	-7735
Unique	-7736
bohydr	-7737
estizo	-7738
iitake	-7739
kmanov	-7740
ousins	-7741
▁140.8	-7742
▁178.0	-7743
▁1941.	-7744
▁1982.	-7745
▁24.0.	-7746
▁3500.	-7747
▁486.2	-7748
▁524.5	-7749
▁992.6	-7750
▁Bread	-7751
▁Chris	-7752
▁Colin	-7753
▁Cyrus	-7754
▁Dance	-7755
▁Dește	-7756
▁Dunne	-7757
▁Fired	-7758
▁Place	-7759
▁Spata	-7760
▁Vance	-7761
▁major	-7762
▁ruler	-7763
▁shown	-7764
50000.0	-7765
Georgia	-7766
▁0.0348	-7767
▁0965-2	-7768
▁1421.2	-7769
▁368.65	-7770
▁Brasil	-7771
▁Celery	-7772
▁Chapel	-7773
▁Chiang	-7774
▁Colwyn	-7775
▁Dianne	-7776
▁Disney	-7777
▁Gordon	-7778
▁Ground	-7779
▁Kimber	-7780
▁Legion	-7781
▁Mulatu	-7782
▁Powell	-7783
▁coined	-7784
▁horsep	-7785
▁offers	-7786
▁ribbon	-7787
▁senate	-7788
▁should	-7789
▁strong	-7790
American	-7791
allistic	-7792
▁1473-55	-7793
▁1980-04	-7794
▁2368.05	-7795
▁Daniele	-7796
▁Huskies	-7797
▁Khadija	-7798
▁Manuzzi	-7799
▁Marsden	-7800
▁Odinson	-7801
▁Orosmán	-7802
▁Polonia	-7803
▁Popular	-7804
▁Quijano	-7805
▁Rosales	-7806
▁Studios	-7807
▁Webster	-7808
▁Whiskey	-7809
▁Wilfred	-7810
▁Zoratto	-7811
▁batagor	-7812
▁engines	-7813
▁monarch	-7814
▁offered	-7815
▁printed	-7816
▁Acehnese	-7817
▁Agentina	-7818
▁Atalanta	-7819
▁Cornwall	-7820
▁Director	-7821
▁Firedome	-7822
▁Martínez	-7823
▁Stamford	-7824
▁Tukmanov	-7825
▁rutaceae	-7826
▁tenanted	-7827
-56947-301	-7828
▁Bungalows	-7829
▁Covington	-7830
▁Deportiva	-7831
▁Deșteaptă	-7832
▁Hortensio	-7833
▁Restituta	-7834
▁Robertson	-7835
▁almaMater	-7836
▁carbohydr	-7837
▁0002-9327.	-7838
▁7729430000	-7839
▁Brazilians	-7840
▁Georgetown	-7841
▁Romanesque	-7842
▁frangipane	-7843
▁graduating	-7844
▁horsepower	-7845
▁Californian	-7846
▁broadcasted	-7847
▁8788850000.0	-7848
▁Construction	-7849
▁championship	-7850
▁0-439-17685-9.	-7851
-6	-7852
zi	-7853
01.	-7854
39.	-7855
4.1	-7856
626	-7857
978	-7858
Act	-7859
aes	-7860
ahn	-7861
ajo	-7862
olu	-7863
sec	-7864
yav	-7865
▁0,	-7866
▁59	-7867
▁62	-7868
▁92	-7869
▁LA	-7870
▁NJ	-7871
▁NZ	-7872
▁we	-7873
-04.	-7874
-204	-7875
6.65	-7876
7-03	-7877
7290	-7878
Acta	-7879
acan	-7880
adiq	-7881
arst	-7882
asts	-7883
azan	-7884
curr	-7885
fess	-7886
klas	-7887
mere	-7888
oint	-7889
olan	-7890
oney	-7891
shek	-7892
spor	-7893
ules	-7894
used	-7895
wise	-7896
ying	-7897
▁1.1	-7898
▁13,	-7899
▁270	-7900
▁3.5	-7901
▁476	-7902
▁Eug	-7903
▁Hui	-7904
▁Max	-7905
▁Raf	-7906
▁Sob	-7907
▁Tze	-7908
▁Zar	-7909
▁foc	-7910
▁max	-7911
▁sen	-7912
-0-15	-7913
00253	-7914
58-28	-7915
adolu	-7916
agoza	-7917
ardar	-7918
ector	-7919
enese	-7920
erbia	-7921
estro	-7922
unway	-7923
uting	-7924
yanin	-7925
▁1896	-7926
▁2016	-7927
▁Ahri	-7928
▁Ayaz	-7929
▁Ciro	-7930
▁Cold	-7931
▁Corp	-7932
▁Efes	-7933
▁From	-7934
▁Kuet	-7935
▁Lyon	-7936
▁Muss	-7937
▁Pict	-7938
▁Puya	-7939
▁Tran	-7940
▁Vict	-7941
▁Yong	-7942
▁bird	-7943
▁give	-7944
▁soup	-7945
▁ster	-7946
▁wrec	-7947
-20477	-7948
/03/19	-7949
backer	-7950
curred	-7951
klasse	-7952
ologna	-7953
yavsky	-7954
▁03/04	-7955
▁17023	-7956
▁1913.	-7957
▁2003.	-7958
▁33626	-7959
▁47290	-7960
▁50000	-7961
▁61196	-7962
▁Andre	-7963
▁Annie	-7964
▁Arese	-7965
▁Brian	-7966
▁Carlo	-7967
▁First	-7968
▁Kazan	-7969
▁Leach	-7970
▁Rican	-7971
▁Robur	-7972
▁Rover	-7973
▁Rubin	-7974
▁Sadiq	-7975
▁Siena	-7976
▁These	-7977
▁Turzi	-7978
▁force	-7979
▁hatch	-7980
▁round	-7981
▁veter	-7982
9-09-01	-7983
founded	-7984
obility	-7985
▁1104.1	-7986
▁2776.0	-7987
▁Borneo	-7988
▁Edward	-7989
▁Eugene	-7990
▁Hearst	-7991
▁Hector	-7992
▁Moraes	-7993
▁Motion	-7994
▁Patten	-7995
▁Prince	-7996
▁Sardar	-7997
▁Serbia	-7998
▁making	-7999
▁rapper	-8000
▁române	-8001
▁sports	-8002
ectively	-8003
language	-8004
▁1296.65	-8005
▁1558-28	-8006
▁1857-03	-8007
▁8800253	-8008
▁Anadolu	-8009
▁Bologna	-8010
▁Cousins	-8011
▁Geering	-8012
▁Ketchup	-8013
▁Mestizo	-8014
▁Nigeria	-8015
▁Olympia	-8016
▁maximum	-8017
▁profess	-8018
▁wrecked	-8019
acanestro	-8020
ufactured	-8021
▁Examiner	-8022
▁Huiberts	-8023
▁Javenese	-8024
▁Meringue	-8025
▁Previous	-8026
▁Sobyanin	-8027
▁Tranmere	-8028
▁Victoria	-8029
▁Zaragoza	-8030
▁concerts	-8031
▁defender	-8032
▁features	-8033
▁garrison	-8034
▁occurred	-8035
▁services	-8036
▁starring	-8037
▁sterling	-8038
▁89646863.	-8039
▁Ballistic	-8040
▁Belyavsky	-8041
▁Computing	-8042
▁Mussolini	-8043
▁affiliate	-8044
▁belonging	-8045
▁comprises	-8046
▁doctorate	-8047
▁hatchback	-8048
▁operation	-8049
▁otherwise	-8050
-0-15-20477	-8051
▁1969-09-01	-8052
▁parliament	-8053
▁1-56947-301	-8054
▁Corporation	-8055
▁derivatives	-8056
▁Additionally	-8057
▁respectively	-8058
▁Amsterdamsche	-8059
▁Pallacanestro	-8060
▁carbohydrates	-8061
▁0-7156-3648-0.	-8062
▁352497000000.0.	-8063
▁instrumentalist	-8064
fa	-8065
fu	-8066
rl	-8067
-02	-8068
-20	-8069
-21	-8070
/18	-8071
/22	-8072
250	-8073
ABI	-8074
afs	-8075
cht	-8076
eap	-8077
hot	-8078
rag	-8079
urd	-8080
▁"0	-8081
▁84	-8082
▁9,	-8083
▁ED	-8084
▁Km	-8085
▁RB	-8086
/200	-8087
1.54	-8088
2445	-8089
3.9.	-8090
4.0.	-8091
46-8	-8092
5591	-8093
6448	-8094
Alfa	-8095
Arts	-8096
chap	-8097
dale	-8098
erle	-8099
from	-8100
hini	-8101
home	-8102
ocal	-8103
quir	-8104
umpl	-8105
unct	-8106
çois	-8107
▁16'	-8108
▁77.	-8109
▁9.8	-8110
▁Hav	-8111
▁Mes	-8112
▁Pap	-8113
▁Res	-8114
▁ScD	-8115
▁med	-8116
▁put	-8117
cules	-8118
eapta	-8119
egodi	-8120
elkab	-8121
rewer	-8122
thors	-8123
▁"978	-8124
▁100.	-8125
▁1905	-8126
▁1985	-8127
▁3800	-8128
▁4349	-8129
▁737.	-8130
▁Bent	-8131
▁Carn	-8132
▁Gale	-8133
▁Gram	-8134
▁Roch	-8135
▁Seat	-8136
▁Unit	-8137
▁Wars	-8138
▁firm	-8139
▁gets	-8140
▁prim	-8141
▁role	-8142
▁song	-8143
▁tofu	-8144
eoples	-8145
ettuce	-8146
illari	-8147
ternat	-8148
urdish	-8149
writer	-8150
▁1908.	-8151
▁27250	-8152
▁3078.	-8153
▁After	-8154
▁Arrow	-8155
▁Gabor	-8156
▁Other	-8157
▁Point	-8158
▁Print	-8159
▁Sanat	-8160
▁Sedan	-8161
▁compl	-8162
▁dumpl	-8163
▁hotel	-8164
▁saint	-8165
▁still	-8166
▁voice	-8167
afschap	-8168
erlecht	-8169
orghini	-8170
▁1046-8	-8171
▁1299.0	-8172
▁161.54	-8173
▁445895	-8174
▁456448	-8175
▁615591	-8176
▁Brewer	-8177
▁Carrie	-8178
▁Deputy	-8179
▁Dynamo	-8180
▁Fortin	-8181
▁Kerman	-8182
▁Leader	-8183
▁Moench	-8184
▁Norway	-8185
▁Prague	-8186
▁Sesame	-8187
▁Turzii	-8188
esteapta	-8189
▁3202445	-8190
▁Castrov	-8191
▁However	-8192
▁authors	-8193
▁bodhran	-8194
▁bombing	-8195
▁cookies	-8196
▁veteran	-8197
▁1732-242	-8198
▁87000823	-8199
▁Asteroid	-8200
▁Brasilia	-8201
▁Carnival	-8202
▁Dunwoody	-8203
▁François	-8204
▁Havering	-8205
▁Hercules	-8206
▁Kimberly	-8207
▁Pictures	-8208
▁Rochdale	-8209
▁Turkmenb	-8210
▁addition	-8211
▁managing	-8212
▁manufact	-8213
▁minister	-8214
▁provides	-8215
00000000.0	-8216
▁Bentegodi	-8217
▁Papenburg	-8218
▁residence	-8219
▁residents	-8220
▁Anderlecht	-8221
▁Basketball	-8222
▁Graafschap	-8223
▁compliment	-8224
▁condiments	-8225
▁conference	-8226
▁179942000.0	-8227
▁1969-09-01.	-8228
▁611961000.0	-8229
▁Aktieselkab	-8230
▁Lamborghini	-8231
▁Legislative	-8232
▁Originating	-8233
▁135589000.0.	-8234
▁Paleontology	-8235
▁Castrovillari	-8236
▁0-439-17684-0.	-8237
▁124950000000.0.	-8238
▁3997100000000.0	-8239
ET	-8240
HP	-8241
jg	-8242
uo	-8243
/05	-8244
125	-8245
30.	-8246
925	-8247
AAJ	-8248
bol	-8249
erk	-8250
ety	-8251
hez	-8252
lez	-8253
mos	-8254
oms	-8255
ryd	-8256
ski	-8257
ärf	-8258
▁01	-8259
▁36	-8260
▁8'	-8261
▁IV	-8262
▁MS	-8263
▁PC	-8264
▁do	-8265
▁tv	-8266
-26.	-8267
/198	-8268
14.8	-8269
2.2.	-8270
3.95	-8271
39.3	-8272
6.0.	-8273
73.0	-8274
HAAJ	-8275
ISET	-8276
adze	-8277
ahle	-8278
alid	-8279
ancy	-8280
arde	-8281
arin	-8282
ashi	-8283
erez	-8284
ewis	-8285
half	-8286
jgal	-8287
odox	-8288
okes	-8289
olet	-8290
olph	-8291
orrs	-8292
sone	-8293
unde	-8294
with	-8295
ález	-8296
▁08.	-8297
▁153	-8298
▁3,5	-8299
▁371	-8300
▁4.0	-8301
▁4.6	-8302
▁900	-8303
▁Aet	-8304
▁Baj	-8305
▁Bir	-8306
▁Eis	-8307
▁Lit	-8308
▁Rud	-8309
▁Sad	-8310
▁Srl	-8311
▁duo	-8312
▁eat	-8313
▁ego	-8314
▁fac	-8315
▁hom	-8316
▁pal	-8317
145.3	-8318
60-04	-8319
80-63	-8320
Earth	-8321
achin	-8322
apind	-8323
ented	-8324
garde	-8325
ibale	-8326
mosys	-8327
owski	-8328
▁Bush	-8329
▁Gasp	-8330
▁KABI	-8331
▁Maya	-8332
▁Near	-8333
▁Orth	-8334
▁Pryd	-8335
▁RoPS	-8336
▁Sanc	-8337
▁Well	-8338
▁beds	-8339
▁fict	-8340
▁king	-8341
▁kmps	-8342
▁only	-8343
Amster	-8344
apitan	-8345
arinet	-8346
bourne	-8347
▁11/29	-8348
▁1914.	-8349
▁1990.	-8350
▁2014,	-8351
▁24.4.	-8352
▁32.2.	-8353
▁610.0	-8354
▁914.8	-8355
▁Clerk	-8356
▁Erosi	-8357
▁Gates	-8358
▁Harry	-8359
▁Lewis	-8360
▁Perez	-8361
▁Power	-8362
▁Rally	-8363
▁Route	-8364
▁Sahle	-8365
▁Sammy	-8366
▁Study	-8367
▁alter	-8368
▁build	-8369
▁tromb	-8370
helwald	-8371
iations	-8372
okesman	-8373
▁44.125	-8374
▁AMHAAJ	-8375
▁Cesana	-8376
▁Clancy	-8377
▁Futbol	-8378
▁Johnny	-8379
▁Khalid	-8380
▁Lanark	-8381
▁Runway	-8382
▁Schärf	-8383
▁Storrs	-8384
▁Violet	-8385
▁Warton	-8386
▁behalf	-8387
▁comics	-8388
▁fellow	-8389
▁headed	-8390
▁obtain	-8391
▁romane	-8392
achinery	-8393
jgaladze	-8394
▁0269-93	-8395
▁1080-63	-8396
▁62145.3	-8397
▁Catania	-8398
▁Cookies	-8399
▁Kapitan	-8400
▁Mahmood	-8401
▁Orosman	-8402
▁Osmosys	-8403
▁Rudolph	-8404
▁Sanchez	-8405
▁Sansone	-8406
▁Society	-8407
▁college	-8408
▁greater	-8409
▁publish	-8410
▁resided	-8411
Addiction	-8412
Ceallaigh	-8413
apindales	-8414
residency	-8415
▁11473.9.	-8416
▁1588-263	-8417
▁Although	-8418
▁Annibale	-8419
▁Coloured	-8420
▁González	-8421
▁Hardwick	-8422
▁Keystone	-8423
▁Niinistö	-8424
▁Orthodox	-8425
▁clarinet	-8426
▁counties	-8427
▁hardback	-8428
▁invented	-8429
▁original	-8430
▁surfaced	-8431
▁1936-05-2	-8432
▁46451790.	-8433
▁Alvinegro	-8434
▁Melbourne	-8435
▁Prydnikov	-8436
▁Reference	-8437
▁fictional	-8438
ternatively	-8439
▁6155910000	-8440
▁Aethelwald	-8441
▁Chicharrón	-8442
▁Cottingham	-8443
▁Uruguayans	-8444
▁Warnemunde	-8445
▁arrabbiata	-8446
▁foundation	-8447
▁songwriter	-8448
▁0-374-26131	-8449
▁2005-11-26.	-8450
▁Lanarkshire	-8451
▁Manjgaladze	-8452
▁Springfield	-8453
▁manufacture	-8454
Amsterdamsche	-8455
▁142603000.0.	-8456
▁179942000.0,	-8457
▁7715100000.0	-8458
▁Turkmenbashi	-8459
▁41498400000.0	-8460
▁349206000000.0.	-8461
66	-8462
EP	-8463
In	-8464
ua	-8465
uk	-8466
yk	-8467
ád	-8468
ün	-8469
-1,	-8470
-6.	-8471
-8.	-8472
.0.	-8473
/33	-8474
140	-8475
482	-8476
77.	-8477
EPT	-8478
Gre	-8479
Pol	-8480
ada	-8481
ebr	-8482
erg	-8483
fia	-8484
inz	-8485
lam	-8486
mst	-8487
ocu	-8488
ook	-8489
rus	-8490
tis	-8491
uti	-8492
▁7,	-8493
▁Ai	-8494
▁OB	-8495
▁SJ	-8496
▁Ud	-8497
-03.	-8498
1.92	-8499
2.0.	-8500
4509	-8501
5-58	-8502
53-0	-8503
6.66	-8504
8055	-8505
Mary	-8506
Math	-8507
aigh	-8508
burn	-8509
enna	-8510
erce	-8511
erry	-8512
igua	-8513
ilts	-8514
iner	-8515
isan	-8516
mell	-8517
onga	-8518
otes	-8519
oton	-8520
post	-8521
self	-8522
uris	-8523
ádio	-8524
ünde	-8525
▁112	-8526
▁14,	-8527
▁178	-8528
▁360	-8529
▁434	-8530
▁Abe	-8531
▁Bib	-8532
▁Fir	-8533
▁GFC	-8534
▁Mod	-8535
▁Ord	-8536
▁Out	-8537
▁Rox	-8538
▁Scr	-8539
▁Top	-8540
▁aka	-8541
▁fam	-8542
▁ind	-8543
▁opp	-8544
▁pak	-8545
▁pat	-8546
▁plc	-8547
-02-2	-8548
acchi	-8549
arysh	-8550
based	-8551
court	-8552
derzo	-8553
efine	-8554
ianza	-8555
ionne	-8556
itari	-8557
onist	-8558
sists	-8559
▁0-76	-8560
▁168,	-8561
▁168.	-8562
▁1956	-8563
▁258.	-8564
▁5350	-8565
▁9453	-8566
▁AFAS	-8567
▁Aids	-8568
▁Bibb	-8569
▁CEPT	-8570
▁Cocu	-8571
▁Ered	-8572
▁Fire	-8573
▁Horn	-8574
▁Lalb	-8575
▁Lord	-8576
▁Nebr	-8577
▁Polo	-8578
▁Pork	-8579
▁Prod	-8580
▁Runc	-8581
▁Tart	-8582
▁Writ	-8583
▁lmst	-8584
▁palm	-8585
▁soul	-8586
▁them	-8587
▁trip	-8588
633-6.	-8589
ellner	-8590
enosha	-8591
iberal	-8592
ishers	-8593
ivener	-8594
ivisie	-8595
leader	-8596
regano	-8597
▁"1930	-8598
▁1911.	-8599
▁1923,	-8600
▁19255	-8601
▁1972.	-8602
▁1987,	-8603
▁1988.	-8604
▁2002.	-8605
▁2215.	-8606
▁45.97	-8607
▁66063	-8608
▁94509	-8609
▁Bajik	-8610
▁Byron	-8611
▁Chung	-8612
▁Comic	-8613
▁Dilts	-8614
▁Irlam	-8615
▁Jamie	-8616
▁Jerry	-8617
▁Kilom	-8618
▁Rapid	-8619
▁Sofia	-8620
▁Tudyk	-8621
▁banjo	-8622
▁books	-8623
▁cello	-8624
▁finch	-8625
▁juris	-8626
▁prime	-8627
▁solan	-8628
▁texas	-8629
▁vocal	-8630
0025-58	-8631
aration	-8632
dershot	-8633
endable	-8634
▁0.0482	-8635
▁0.0925	-8636
▁121.92	-8637
▁1239.3	-8638
▁498055	-8639
▁703.95	-8640
▁Aiport	-8641
▁Bodley	-8642
▁Calero	-8643
▁Collin	-8644
▁Coming	-8645
▁Curtis	-8646
▁Dimmit	-8647
▁Groton	-8648
▁Having	-8649
▁Narysh	-8650
▁Ordway	-8651
▁Portug	-8652
▁Ramsey	-8653
▁Romano	-8654
▁Samuel	-8655
▁Tories	-8656
▁Uderzo	-8657
▁Varese	-8658
▁Vienna	-8659
▁boasts	-8660
▁dishes	-8661
▁famous	-8662
▁impact	-8663
▁medium	-8664
▁museum	-8665
▁pakora	-8666
ermacchi	-8667
operties	-8668
▁1360-04	-8669
▁1939-01	-8670
▁3310.0.	-8671
▁4349.0.	-8672
▁45000.0	-8673
▁Alianza	-8674
▁Antigua	-8675
▁Asphalt	-8676
▁Barisan	-8677
▁Borough	-8678
▁Cammell	-8679
▁Defense	-8680
▁Estádio	-8681
▁Justice	-8682
▁Kenosha	-8683
▁Kurdish	-8684
▁Lalbhai	-8685
▁Liberal	-8686
▁Milonga	-8687
▁Modling	-8688
▁Peoples	-8689
▁Roxbury	-8690
▁Runcorn	-8691
▁Sadique	-8692
▁Stadion	-8693
▁Stevens	-8694
▁Udinese	-8695
▁Wizards	-8696
▁Written	-8697
▁council	-8698
▁focused	-8699
▁himself	-8700
▁primary	-8701
▁0-7653-0	-8702
▁3992.88.	-8703
▁83646315	-8704
▁Alliance	-8705
▁Computer	-8706
▁Designed	-8707
▁Gasparis	-8708
▁Graduate	-8709
▁Harcourt	-8710
▁Jacobean	-8711
▁Militari	-8712
▁Mobility	-8713
▁Nebraska	-8714
▁Pecorino	-8715
▁Redefine	-8716
▁Vorwärts	-8717
▁citizens	-8718
▁commerce	-8719
▁consists	-8720
▁hometown	-8721
▁0965-2140	-8722
▁57392246.	-8723
▁60040714.	-8724
▁83646315.	-8725
▁Aldershot	-8726
▁Architect	-8727
▁Bibbowski	-8728
▁Democrats	-8729
▁Machinery	-8730
▁Naryshkin	-8731
▁Scrivener	-8732
▁Spokesman	-8733
▁beginning	-8734
▁formation	-8735
▁peninsula	-8736
▁16244700.0	-8737
▁2791420000	-8738
▁7715100000	-8739
▁Argentines	-8740
▁Chicharron	-8741
▁Eredivisie	-8742
▁Kashubians	-8743
▁Kilometers	-8744
▁Marchionne	-8745
▁Properties	-8746
▁Warnemünde	-8747
▁associates	-8748
▁centimetre	-8749
▁expendable	-8750
▁throughout	-8751
▁135589000.0	-8752
▁Turkmenabat	-8753
▁amatriciana	-8754
▁preparation	-8755
▁inauguration	-8756
▁jurisdiction	-8757
▁29919600000.0	-8758
▁manufacturers	-8759
▁0-7653-0633-6.	-8760
▁1-56947-301-3.	-8761
▁283326000000.0	-8762
▁352497000000.0	-8763
▁Transportation	-8764
06	-8765
39	-8766
ih	-8767
sq	-8768
öd	-8769
008	-8770
52.	-8771
907	-8772
BCT	-8773
LCN	-8774
Tud	-8775
aná	-8776
arf	-8777
biz	-8778
gen	-8779
hok	-8780
iki	-8781
inx	-8782
kel	-8783
log	-8784
rel	-8785
rán	-8786
▁6-	-8787
▁Gl	-8788
▁ID	-8789
▁KY	-8790
▁XC	-8791
▁go	-8792
▁vo	-8793
-339	-8794
2.88	-8795
Naft	-8796
Page	-8797
ands	-8798
arge	-8799
arts	-8800
bhai	-8801
biza	-8802
ergh	-8803
ifin	-8804
mund	-8805
omin	-8806
oods	-8807
vert	-8808
▁03.	-8809
▁25.	-8810
▁ATA	-8811
▁Hon	-8812
▁Lim	-8813
▁Möd	-8814
▁Var	-8815
▁bas	-8816
19691	-8817
AIDBI	-8818
Tudor	-8819
affey	-8820
anics	-8821
anyon	-8822
dings	-8823
earch	-8824
ellam	-8825
emons	-8826
erned	-8827
inian	-8828
isode	-8829
named	-8830
riest	-8831
sbury	-8832
state	-8833
▁1,12	-8834
▁1800	-8835
▁1967	-8836
▁24.0	-8837
▁404,	-8838
▁600.	-8839
▁Fair	-8840
▁Four	-8841
▁LLCN	-8842
▁Mech	-8843
▁Nock	-8844
▁Pure	-8845
▁Rick	-8846
▁Ring	-8847
▁Rona	-8848
▁SBCT	-8849
▁Sima	-8850
▁Stra	-8851
▁Teow	-8852
▁acqu	-8853
▁fans	-8854
▁pale	-8855
▁plan	-8856
▁vice	-8857
-02-01	-8858
-10-17	-8859
akaria	-8860
ianist	-8861
ondiss	-8862
▁15/33	-8863
▁173.0	-8864
▁1855.	-8865
▁1856.	-8866
▁1868.	-8867
▁1981,	-8868
▁2004,	-8869
▁2009,	-8870
▁2015,	-8871
▁258.2	-8872
▁265.0	-8873
▁268.0	-8874
▁53502	-8875
▁Aarus	-8876
▁Bibbo	-8877
▁Bones	-8878
▁Built	-8879
▁Duhok	-8880
▁Ibiza	-8881
▁Levan	-8882
▁River	-8883
▁Trade	-8884
▁While	-8885
▁Woods	-8886
▁chanc	-8887
▁honey	-8888
▁hosts	-8889
▁large	-8890
▁roots	-8891
ippines	-8892
omeriki	-8893
▁0.0999	-8894
▁18.52.	-8895
▁3800.0	-8896
▁519691	-8897
▁Ammann	-8898
▁Angela	-8899
▁Arifin	-8900
▁Canyon	-8901
▁Dalpat	-8902
▁DuPage	-8903
▁Edmund	-8904
▁Eisner	-8905
▁Gators	-8906
▁Kellam	-8907
▁Little	-8908
▁Manley	-8909
▁Merkel	-8910
▁Paraná	-8911
▁Roland	-8912
▁Scharf	-8913
▁Southe	-8914
▁crafts	-8915
▁factor	-8916
▁patron	-8917
▁stands	-8918
▁voiced	-8919
,000,000	-8920
/03/1983	-8921
Squeezed	-8922
acoustic	-8923
sociated	-8924
vertible	-8925
▁1930-01	-8926
▁2009-04	-8927
▁3360.12	-8928
▁3500.0.	-8929
▁3746.66	-8930
▁Chorizo	-8931
▁Mödling	-8932
▁Sausage	-8933
▁Tapioca	-8934
▁Virtuti	-8935
▁Zakaria	-8936
▁Zellner	-8937
▁capable	-8938
▁capitol	-8939
▁episode	-8940
▁leading	-8941
▁prequel	-8942
▁trainer	-8943
▁03/04/19	-8944
▁192000.0	-8945
▁Holdings	-8946
▁Nockalls	-8947
▁Pallotta	-8948
▁Portugal	-8949
▁Research	-8950
▁Soldiers	-8951
▁Straight	-8952
▁Vorwarts	-8953
▁airlines	-8954
▁obtained	-8955
▁produces	-8956
▁synthpop	-8957
▁0567-7920	-8958
▁49805501.	-8959
▁523329000	-8960
▁605718000	-8961
▁76798317.	-8962
▁Aermacchi	-8963
▁Blackburn	-8964
▁Cubanelle	-8965
▁Gravesham	-8966
▁Khomeriki	-8967
▁Mechanics	-8968
▁Topklasse	-8969
▁associate	-8970
▁concerned	-8971
▁designers	-8972
ondissement	-8973
▁0001-8392.	-8974
▁10/03/1983	-8975
▁1896-02-01	-8976
▁1980-04-23	-8977
▁Bloomsbury	-8978
▁Cephalopod	-8979
▁Discipline	-8980
▁Frangipane	-8981
▁Kellamergh	-8982
▁Solanaceae	-8983
▁Variations	-8984
▁chancellor	-8985
▁eventually	-8986
manufactured	-8987
▁142603000.0	-8988
▁Argentinian	-8989
▁convertible	-8990
▁distributed	-8991
▁Southeastern	-8992
▁88234300000.0	-8993
▁confectionery	-8994
▁0-374-26131-8.	-8995
▁978-0-15-20477	-8996
▁377016000000.0.	-8997
-5	-8998
87	-8999
TH	-9000
bs	-9001
me	-9002
uv	-9003
-27	-9004
/01	-9005
17,	-9006
23.	-9007
236	-9008
48.	-9009
70,	-9010
70.	-9011
753	-9012
Kov	-9013
She	-9014
ala	-9015
asa	-9016
dod	-9017
itc	-9018
leh	-9019
oni	-9020
row	-9021
six	-9022
ukt	-9023
ult	-9024
war	-9025
zhi	-9026
âmp	-9027
ött	-9028
▁04	-9029
▁80	-9030
▁SS	-9031
▁ft	-9032
▁hp	-9033
▁id	-9034
▁im	-9035
▁si	-9036
▁so	-9037
-529	-9038
/21.	-9039
/26.	-9040
0-2.	-9041
0640	-9042
12.3	-9043
15.0	-9044
9304	-9045
Ohio	-9046
PSTH	-9047
acab	-9048
agnu	-9049
ahan	-9050
ajib	-9051
ante	-9052
azak	-9053
beam	-9054
hell	-9055
inan	-9056
lubu	-9057
made	-9058
main	-9059
rose	-9060
ucky	-9061
▁148	-9062
▁230	-9063
▁233	-9064
▁265	-9065
▁298	-9066
▁7.9	-9067
▁814	-9068
▁ADO	-9069
▁AWD	-9070
▁Asa	-9071
▁Ayr	-9072
▁Bou	-9073
▁Gig	-9074
▁Lic	-9075
▁OAA	-9076
▁Owl	-9077
▁SpA	-9078
▁fig	-9079
88753	-9080
abbrv	-9081
acity	-9082
afoni	-9083
anish	-9084
azing	-9085
ebago	-9086
grade	-9087
ified	-9088
ihito	-9089
inted	-9090
iraca	-9091
iring	-9092
itial	-9093
logne	-9094
oming	-9095
regum	-9096
style	-9097
uzhny	-9098
âmpia	-9099
▁07/2	-9100
▁1947	-9101
▁1982	-9102
▁2,19	-9103
▁2744	-9104
▁4411	-9105
▁657.	-9106
▁Bass	-9107
▁Gött	-9108
▁Haag	-9109
▁Iran	-9110
▁Mitc	-9111
▁Oleh	-9112
▁Sess	-9113
▁Shuv	-9114
▁Vica	-9115
▁Vigo	-9116
▁WWII	-9117
▁Zest	-9118
▁appo	-9119
▁gave	-9120
▁ital	-9121
▁sand	-9122
▁sist	-9123
▁vers	-9124
agamie	-9125
aisand	-9126
astery	-9127
ferred	-9128
former	-9129
iments	-9130
pleted	-9131
▁"1923	-9132
▁1862,	-9133
▁1978.	-9134
▁346.0	-9135
▁37124	-9136
▁77.41	-9137
▁90640	-9138
▁Based	-9139
▁Basim	-9140
▁Batak	-9141
▁EPSTH	-9142
▁Glend	-9143
▁Inukt	-9144
▁Iraqi	-9145
▁Klubu	-9146
▁Minas	-9147
▁Minna	-9148
▁Najib	-9149
▁Pilot	-9150
▁Putin	-9151
▁Qasim	-9152
▁Razak	-9153
▁Tiger	-9154
▁Vigor	-9155
▁avant	-9156
▁bakso	-9157
▁carbs	-9158
▁exact	-9159
▁facts	-9160
▁radio	-9161
▁rooms	-9162
▁spare	-9163
▁teams	-9164
236-529	-9165
English	-9166
agnuolo	-9167
kelvins	-9168
largest	-9169
▁08/26.	-9170
▁1.9304	-9171
▁2215.0	-9172
▁349206	-9173
▁900.0.	-9174
▁Arinan	-9175
▁Ashdod	-9176
▁Banana	-9177
▁Bridge	-9178
▁Campia	-9179
▁Câmpia	-9180
▁Eregum	-9181
▁Guitar	-9182
▁Honour	-9183
▁Luzhny	-9184
▁Navajo	-9185
▁Peanut	-9186
▁Sipilä	-9187
▁Sponge	-9188
▁crewed	-9189
▁ending	-9190
▁reside	-9191
▁siomay	-9192
▁united	-9193
innebago	-9194
▁1533.0.	-9195
▁1998-07	-9196
▁2013-11	-9197
▁2215.0.	-9198
▁2776.0.	-9199
▁3990.0.	-9200
▁8805735	-9201
▁Akihito	-9202
▁Amazing	-9203
▁Ambrose	-9204
▁Astérix	-9205
▁Gigante	-9206
▁Granola	-9207
▁Limited	-9208
▁Manager	-9209
▁defunct	-9210
▁electro	-9211
▁initial	-9212
▁joining	-9213
▁kingdom	-9214
▁lettuce	-9215
▁recipes	-9216
▁sandesh	-9217
▁seconds	-9218
▁senator	-9219
▁sisters	-9220
▁version	-9221
▁working	-9222
President	-9223
▁488160.0	-9224
▁57392246	-9225
▁76798317	-9226
▁Acoustic	-9227
▁Belgrade	-9228
▁Boulogne	-9229
▁Mitchell	-9230
▁Rutaceae	-9231
▁Sessions	-9232
▁acquired	-9233
▁becoming	-9234
▁capacity	-9235
▁landmark	-9236
▁majority	-9237
▁referred	-9238
▁retiring	-9239
▁shipbeam	-9240
▁1907-07-1	-9241
▁2006.12.3	-9242
▁51969173.	-9243
▁87000823.	-9244
▁Arapiraca	-9245
▁Condensed	-9246
▁Ethiopian	-9247
▁Geraisand	-9248
▁Glendower	-9249
▁Guanciale	-9250
▁Göttingen	-9251
▁Inuktitut	-9252
▁Monastery	-9253
▁Outagamie	-9254
▁Paperback	-9255
▁Samarahan	-9256
▁Spagnuolo	-9257
▁Zestafoni	-9258
▁aircrafts	-9259
▁appointed	-9260
▁bodystyle	-9261
▁influence	-9262
▁measuring	-9263
▁recipient	-9264
▁0269-9370.	-9265
▁1080-6377.	-9266
▁1588-2632.	-9267
▁1732-2421.	-9268
▁1907-07-11	-9269
▁1933-10-17	-9270
▁69862200.0	-9271
▁Affiliated	-9272
▁Condiments	-9273
▁Dalpatbhai	-9274
▁Decoration	-9275
▁Originally	-9276
▁helicopter	-9277
▁homeground	-9278
▁linebacker	-9279
▁trombonist	-9280
▁139705000.0	-9281
▁371240000.0	-9282
▁39447000.0.	-9283
▁69862200.0.	-9284
▁Territorial	-9285
▁affiliation	-9286
▁Arinanespace	-9287
▁paleontology	-9288
-1-4165-4253-7	-9289
▁electroacoustic	-9290
.'	-9291
4"	-9292
An	-9293
ba	-9294
kh	-9295
ll	-9296
ww	-9297
-08	-9298
.94	-9299
100	-9300
6.5	-9301
9.9	-9302
AIP	-9303
ASK	-9304
Ham	-9305
Roy	-9306
ady	-9307
aim	-9308
azi	-9309
cre	-9310
edt	-9311
ené	-9312
for	-9313
joy	-9314
omp	-9315
uem	-9316
wal	-9317
zia	-9318
▁-7	-9319
▁46	-9320
▁NY	-9321
▁Pé	-9322
▁nu	-9323
-04,	-9324
1.2.	-9325
12.2	-9326
188.	-9327
Cune	-9328
ISSN	-9329
Roma	-9330
Sham	-9331
Univ	-9332
aces	-9333
achk	-9334
amon	-9335
apod	-9336
berh	-9337
chez	-9338
club	-9339
crap	-9340
deen	-9341
disc	-9342
fino	-9343
full	-9344
iant	-9345
icio	-9346
imir	-9347
inzo	-9348
iyah	-9349
mert	-9350
olut	-9351
onth	-9352
oper	-9353
uila	-9354
vels	-9355
▁155	-9356
▁16,	-9357
▁166	-9358
▁17'	-9359
▁182	-9360
▁248	-9361
▁3,3	-9362
▁324	-9363
▁368	-9364
▁535	-9365
▁678	-9366
▁Aid	-9367
▁BSc	-9368
▁Duc	-9369
▁Get	-9370
▁Hab	-9371
▁Jep	-9372
▁Med	-9373
▁Mus	-9374
▁Now	-9375
▁Pot	-9376
▁Ret	-9377
▁Ski	-9378
▁Sán	-9379
▁WWI	-9380
▁Wee	-9381
▁amb	-9382
▁gem	-9383
▁got	-9384
▁men	-9385
-03-1	-9386
-130.	-9387
158-3	-9388
Baris	-9389
Hambg	-9390
Louis	-9391
Manus	-9392
Royce	-9393
Semin	-9394
achim	-9395
arkey	-9396
avson	-9397
class	-9398
craft	-9399
elvin	-9400
enned	-9401
ersea	-9402
ionov	-9403
jamin	-9404
ockey	-9405
ompoc	-9406
stedt	-9407
uties	-9408
walki	-9409
▁1,98	-9410
▁164'	-9411
▁18.0	-9412
▁1872	-9413
▁1908	-9414
▁1911	-9415
▁1914	-9416
▁1961	-9417
▁2012	-9418
▁214,	-9419
▁23.0	-9420
▁24.4	-9421
▁4.56	-9422
▁682,	-9423
▁770,	-9424
▁817,	-9425
▁9312	-9426
▁Aber	-9427
▁Brut	-9428
▁Dila	-9429
▁Erie	-9430
▁Full	-9431
▁Gerd	-9432
▁Gori	-9433
▁Gust	-9434
▁Kend	-9435
▁Kill	-9436
▁Kota	-9437
▁LASK	-9438
▁Laan	-9439
▁Lame	-9440
▁Link	-9441
▁Linz	-9442
▁Makh	-9443
▁Mans	-9444
▁Maur	-9445
▁Nasa	-9446
▁Nood	-9447
▁Palm	-9448
▁Pesc	-9449
▁Rene	-9450
▁René	-9451
▁Rund	-9452
▁Sazi	-9453
▁clos	-9454
▁hall	-9455
▁nice	-9456
▁numb	-9457
▁unit	-9458
12.200	-9459
Oregon	-9460
Shamal	-9461
church	-9462
ectady	-9463
ellite	-9464
ionary	-9465
ireann	-9466
onesia	-9467
onthly	-9468
orated	-9469
parent	-9470
▁13/31	-9471
▁1856,	-9472
▁19.94	-9473
▁1909.	-9474
▁1913,	-9475
▁1928,	-9476
▁1929.	-9477
▁1930,	-9478
▁1933,	-9479
▁1936.	-9480
▁1948.	-9481
▁1956,	-9482
▁1964.	-9483
▁1965.	-9484
▁1972,	-9485
▁1980.	-9486
▁2016,	-9487
▁21.2.	-9488
▁286.5	-9489
▁29075	-9490
▁429.9	-9491
▁AMAHE	-9492
▁Anzhi	-9493
▁Books	-9494
▁Cantu	-9495
▁Cello	-9496
▁Damon	-9497
▁Eberh	-9498
▁Fruit	-9499
▁Gauck	-9500
▁Giant	-9501
▁Glass	-9502
▁Jacab	-9503
▁Kapod	-9504
▁Macri	-9505
▁Merit	-9506
▁Pavlo	-9507
▁Pérez	-9508
▁Schen	-9509
▁Weber	-9510
▁Wells	-9511
▁Zamba	-9512
▁arros	-9513
▁claim	-9514
▁contr	-9515
▁enjoy	-9516
▁gives	-9517
▁lends	-9518
▁plane	-9519
▁scrap	-9520
Barisan	-9521
achkala	-9522
baniyah	-9523
imeters	-9524
istrian	-9525
mainder	-9526
portant	-9527
▁11/29.	-9528
▁336265	-9529
▁44114.	-9530
▁518.0.	-9531
▁597.0.	-9532
▁Aguila	-9533
▁Barrow	-9534
▁Ducati	-9535
▁Empoli	-9536
▁Forest	-9537
▁Gaffey	-9538
▁Garlic	-9539
▁Jepson	-9540
▁Lompoc	-9541
▁McCune	-9542
▁Musuem	-9543
▁Palace	-9544
▁Persea	-9545
▁Rafael	-9546
▁Shinzo	-9547
▁Triest	-9548
▁Unione	-9549
▁Warsaw	-9550
▁Wayans	-9551
▁failed	-9552
▁figure	-9553
▁novels	-9554
▁penned	-9555
▁places	-9556
▁purple	-9557
▁rivers	-9558
ucceeded	-9559
▁1932-03	-9560
▁2900.0.	-9561
▁3188753	-9562
▁Andreea	-9563
▁Clayton	-9564
▁Delfino	-9565
▁Joachim	-9566
▁Kendall	-9567
▁Lamezia	-9568
▁Lammert	-9569
▁Macmill	-9570
▁McManus	-9571
▁Noodles	-9572
▁Norbert	-9573
▁Pescara	-9574
▁Potenza	-9575
▁Revolut	-9576
▁Solanum	-9577
▁Suwalki	-9578
▁Sánchez	-9579
▁Tractor	-9580
▁ambient	-9581
▁bodhrán	-9582
▁identif	-9583
▁locally	-9584
▁minimum	-9585
▁numbers	-9586
▁ordered	-9587
▁persons	-9588
▁soloist	-9589
▁travels	-9590
▁usually	-9591
▁various	-9592
▁3078.48.	-9593
▁46451790	-9594
▁80002709	-9595
▁Aberdeen	-9596
▁Eberhard	-9597
▁Fairhead	-9598
▁Jamaican	-9599
▁Kentucky	-9600
▁Language	-9601
▁Laurales	-9602
▁Mauricio	-9603
▁Monarchy	-9604
▁Mularkey	-9605
▁Portland	-9606
▁Rodionov	-9607
▁Springer	-9608
▁Vladimir	-9609
▁actually	-9610
▁dumpling	-9611
▁scrapped	-9612
▁suceeded	-9613
affiliated	-9614
▁1473-5571	-9615
▁31.12.200	-9616
▁488160.0.	-9617
▁78771100.	-9618
▁Appletone	-9619
▁Brutalist	-9620
▁Desteapta	-9621
▁Gustavson	-9622
▁Nurturing	-9623
▁Rundstedt	-9624
▁Satellite	-9625
▁Triestina	-9626
▁addiction	-9627
▁craftsman	-9628
▁important	-9629
▁nicknamed	-9630
▁occupying	-9631
▁producing	-9632
▁remainder	-9633
▁youthclub	-9634
▁1046-8188.	-9635
▁1939-01-03	-9636
▁2015-06-27	-9637
▁Habbaniyah	-9638
▁Hornchurch	-9639
▁Presidency	-9640
▁Publishers	-9641
▁Sapindales	-9642
▁basketball	-9643
▁classified	-9644
▁positioned	-9645
▁solanaceae	-9646
▁183309000.0	-9647
▁1936-05-21.	-9648
▁2006-12-31.	-9649
▁Australians	-9650
▁Makhachkala	-9651
▁Schenectady	-9652
▁Universitat	-9653
▁183309000.0,	-9654
▁7729430000.0	-9655
▁Kapodistrian	-9656
▁Pavloopoulos	-9657
▁Phillippines	-9658
▁academically	-9659
▁professional	-9660
▁Administrator	-9661
▁Revolutionary	-9662
▁283326000000.0.	-9663
▁representatives	-9664
")	-9665
);	-9666
/0	-9667
81	-9668
BL	-9669
DL	-9670
Pa	-9671
hb	-9672
sw	-9673
-09	-9674
12.	-9675
200	-9676
71.	-9677
ACM	-9678
Alc	-9679
All	-9680
Alv	-9681
And	-9682
Cal	-9683
Col	-9684
Don	-9685
Duc	-9686
His	-9687
RBL	-9688
ahe	-9689
ali	-9690
aur	-9691
kov	-9692
mad	-9693
ryn	-9694
til	-9695
usb	-9696
was	-9697
zio	-9698
ère	-9699
▁Dc	-9700
▁Oc	-9701
▁Sl	-9702
▁ZF	-9703
▁cu	-9704
-20.	-9705
/185	-9706
/192	-9707
/201	-9708
735.	-9709
840.	-9710
Duch	-9711
Port	-9712
Vern	-9713
alan	-9714
augh	-9715
chsy	-9716
coff	-9717
eeds	-9718
hbaz	-9719
herd	-9720
hero	-9721
hind	-9722
hinx	-9723
hran	-9724
orit	-9725
oted	-9726
resa	-9727
rikh	-9728
uced	-9729
▁07.	-9730
▁1,5	-9731
▁1,8	-9732
▁130	-9733
▁140	-9734
▁184	-9735
▁189	-9736
▁2.4	-9737
▁216	-9738
▁3,8	-9739
▁304	-9740
▁401	-9741
▁404	-9742
▁438	-9743
▁500	-9744
▁541	-9745
▁672	-9746
▁8.0	-9747
▁AKA	-9748
▁Aso	-9749
▁Bef	-9750
▁Hug	-9751
▁Jam	-9752
▁Mao	-9753
▁Nak	-9754
▁Nug	-9755
▁PDL	-9756
▁SSD	-9757
▁ast	-9758
▁ent	-9759
▁equ	-9760
▁saw	-9761
▁tog	-9762
AMAHE	-9763
Above	-9764
Anton	-9765
Asoci	-9766
Disco	-9767
India	-9768
Kovač	-9769
South	-9770
acion	-9771
ación	-9772
adori	-9773
aheer	-9774
edict	-9775
genre	-9776
ipped	-9777
olksw	-9778
olled	-9779
opher	-9780
ordan	-9781
orgos	-9782
ostle	-9783
ranch	-9784
ronic	-9785
ropop	-9786
stems	-9787
▁1023	-9788
▁1533	-9789
▁16/3	-9790
▁1853	-9791
▁1878	-9792
▁1941	-9793
▁1958	-9794
▁34.0	-9795
▁404.	-9796
▁62.0	-9797
▁714.	-9798
▁806.	-9799
▁972.	-9800
▁Asia	-9801
▁Bryn	-9802
▁CRBL	-9803
▁Lane	-9804
▁Made	-9805
▁Owen	-9806
▁Sami	-9807
▁Team	-9808
▁dead	-9809
▁hous	-9810
▁husb	-9811
▁just	-9812
▁larg	-9813
▁said	-9814
▁secs	-9815
▁show	-9816
▁tons	-9817
▁what	-9818
-08-01	-9819
00000.	-9820
Poland	-9821
aminis	-9822
arance	-9823
atotes	-9824
frican	-9825
quires	-9826
uthale	-9827
▁13017	-9828
▁1411.	-9829
▁16.76	-9830
▁1820.	-9831
▁1865-	-9832
▁1904,	-9833
▁1904.	-9834
▁1927,	-9835
▁1983,	-9836
▁1985,	-9837
▁1985.	-9838
▁1988,	-9839
▁2000)	-9840
▁2011,	-9841
▁2013,	-9842
▁535.0	-9843
▁9000.	-9844
▁973.0	-9845
▁Anwar	-9846
▁Anzio	-9847
▁Asoci	-9848
▁Colón	-9849
▁Drake	-9850
▁Negre	-9851
▁Occup	-9852
▁Pound	-9853
▁Saint	-9854
▁Weder	-9855
▁Wärts	-9856
▁arena	-9857
▁field	-9858
▁foods	-9859
▁heads	-9860
▁heard	-9861
▁meter	-9862
▁onion	-9863
▁pound	-9864
▁ruled	-9865
▁stone	-9866
▁takes	-9867
▁until	-9868
Antonio	-9869
Duchere	-9870
Duchère	-9871
ifornia	-9872
irement	-9873
luenced	-9874
oneiche	-9875
written	-9876
▁0.0252	-9877
▁03/21.	-9878
▁1099.0	-9879
▁1121.0	-9880
▁2004-0	-9881
▁2160.0	-9882
▁3,500.	-9883
▁497.0.	-9884
▁600.0.	-9885
▁ATISET	-9886
▁Before	-9887
▁Breman	-9888
▁Bronze	-9889
▁Desoto	-9890
▁Getrag	-9891
▁Inline	-9892
▁Jamali	-9893
▁Jordan	-9894
▁Kelvin	-9895
▁LaVern	-9896
▁Lemper	-9897
▁Oyster	-9898
▁Second	-9899
▁Sphinx	-9900
▁Teague	-9901
▁Techsy	-9902
▁Volksw	-9903
▁Zaheer	-9904
▁attend	-9905
▁behind	-9906
▁branch	-9907
▁create	-9908
▁lemons	-9909
▁orange	-9910
▁placed	-9911
Alcatraz	-9912
Weymouth	-9913
operated	-9914
▁0025-58	-9915
▁1932-07	-9916
▁2702.0.	-9917
▁2744.0.	-9918
▁Alliant	-9919
▁Ambient	-9920
▁Apostle	-9921
▁Capital	-9922
▁Chicken	-9923
▁Created	-9924
▁Giorgos	-9925
▁Kaminis	-9926
▁Koreans	-9927
▁Nugetre	-9928
▁Retired	-9929
▁Ribcoff	-9930
▁Shehbaz	-9931
▁Theresa	-9932
▁colours	-9933
▁husband	-9934
▁largely	-9935
▁pianist	-9936
▁respons	-9937
▁thought	-9938
▁3360.12.	-9939
▁57059226	-9940
▁78771100	-9941
▁88002539	-9942
▁8805735.	-9943
▁Benedict	-9944
▁Deputies	-9945
▁Germania	-9946
▁Jacabian	-9947
▁Nakadori	-9948
▁Petrotin	-9949
▁Romanian	-9950
▁Scottish	-9951
▁Shepherd	-9952
▁Shiitake	-9953
▁Shuvalan	-9954
▁Wärtsilä	-9955
▁equipped	-9956
▁gemstone	-9957
▁requires	-9958
▁shiitake	-9959
▁together	-9960
California	-9961
▁1558-2868	-9962
▁45644811.	-9963
▁60040714,	-9964
▁88002539.	-9965
▁90640840.	-9966
▁Andersson	-9967
▁Commander	-9968
▁Macmillan	-9969
▁Winnebago	-9970
▁astronaut	-9971
▁operators	-9972
▁potatotes	-9973
▁superhero	-9974
▁1473-5571.	-9975
▁1558-2868.	-9976
▁1974-08-01	-9977
▁Matchstick	-9978
▁Production	-9979
▁Schoneiche	-9980
▁Volkswagen	-9981
▁appearance	-9982
▁retirement	-9983
▁rotational	-9984
▁1907-07-11.	-9985
▁1930-01-20.	-9986
▁34920600000	-9987
▁Christopher	-9988
▁Phillipines	-9989
▁Techsystems	-9990
▁183309000.0.	-9991
▁Istanbulspor	-9992
▁0-439-17684-0	-9993
▁7729430000.0.	-9994
▁distinguished	-9995
▁279142000000.0	-9996
▁41498400000.0.	-9997
▁416136000000.0	-9998
▁Arrondissement	-9999
▁445895000000.0.	-10000
,,	-10001
25	-10002
32	-10003
34	-10004
61	-10005
Dr	-10006
Ja	-10007
MI	-10008
PN	-10009
go	-10010
hp	-10011
li	-10012
vá	-10013
ws	-10014
şə	-10015
▁É	-10016
▁×	-10017
▁İ	-10018
-18	-10019
.).	-10020
/31	-10021
28.	-10022
43.	-10023
434	-10024
58.	-10025
6.1	-10026
65.	-10027
878	-10028
92"	-10029
ACY	-10030
Ast	-10031
ajw	-10032
ari	-10033
arō	-10034
asy	-10035
cel	-10036
cer	-10037
eam	-10038
feo	-10039
iep	-10040
ken	-10041
nip	-10042
ohn	-10043
oux	-10044
pre	-10045
ree	-10046
vár	-10047
áil	-10048
▁5-	-10049
▁74	-10050
▁CT	-10051
▁Iv	-10052
▁Mu	-10053
▁NV	-10054
▁Sb	-10055
▁TN	-10056
-02.	-10057
/199	-10058
/33.	-10059
11.0	-10060
20.0	-10061
6110	-10062
7.16	-10063
920.	-10064
953.	-10065
Alan	-10066
Ayam	-10067
Cent	-10068
Mark	-10069
Mich	-10070
OCLC	-10071
abağ	-10072
adao	-10073
aign	-10074
anao	-10075
asko	-10076
ause	-10077
avey	-10078
avia	-10079
cuss	-10080
erst	-10081
flot	-10082
iago	-10083
iens	-10084
iona	-10085
lena	-10086
mini	-10087
nish	-10088
oord	-10089
page	-10090
pena	-10091
reek	-10092
rior	-10093
rone	-10094
site	-10095
ured	-10096
vall	-10097
▁-7.	-10098
▁1.7	-10099
▁163	-10100
▁234	-10101
▁26,	-10102
▁345	-10103
▁36,	-10104
▁469	-10105
▁609	-10106
▁ASD	-10107
▁Asō	-10108
▁CFC	-10109
▁Dek	-10110
▁EMI	-10111
▁Gir	-10112
▁Sov	-10113
▁Sub	-10114
▁You	-10115
▁Yug	-10116
▁Zan	-10117
▁wid	-10118
-10-2	-10119
-130,	-10120
7.14.	-10121
73.0.	-10122
House	-10123
Jaish	-10124
aanst	-10125
aders	-10126
agoas	-10127
aited	-10128
arrar	-10129
ateur	-10130
danao	-10131
eeney	-10132
enner	-10133
illas	-10134
ipsis	-10135
kabau	-10136
occer	-10137
ollab	-10138
oster	-10139
ragia	-10140
raine	-10141
şəkar	-10142
▁1.55	-10143
▁1/19	-10144
▁1472	-10145
▁1873	-10146
▁1891	-10147
▁1948	-10148
▁1978	-10149
▁25.0	-10150
▁25.2	-10151
▁2777	-10152
▁52.0	-10153
▁609.	-10154
▁734.	-10155
▁765.	-10156
▁8.0.	-10157
▁ALVX	-10158
▁Aman	-10159
▁Ando	-10160
▁Bozo	-10161
▁Cake	-10162
▁Dhal	-10163
▁Dnip	-10164
▁Doom	-10165
▁Dáil	-10166
▁Ever	-10167
▁Flet	-10168
▁Here	-10169
▁Iron	-10170
▁KACY	-10171
▁Kate	-10172
▁Nola	-10173
▁Rajw	-10174
▁Vitt	-10175
▁Wink	-10176
▁corn	-10177
▁down	-10178
▁goes	-10179
▁hero	-10180
▁mayo	-10181
▁page	-10182
▁term	-10183
APGPAC	-10184
London	-10185
alliga	-10186
antasy	-10187
celona	-10188
hammad	-10189
ieplay	-10190
ilario	-10191
nesota	-10192
vallis	-10193
városi	-10194
▁-71.0	-10195
▁05/05	-10196
▁1,533	-10197
▁16.54	-10198
▁168.0	-10199
▁170.0	-10200
▁18.09	-10201
▁1907,	-10202
▁1910.	-10203
▁1914,	-10204
▁1932,	-10205
▁1969,	-10206
▁1974,	-10207
▁1995,	-10208
▁2001,	-10209
▁306.0	-10210
▁37.16	-10211
▁37497	-10212
▁3800.	-10213
▁597.0	-10214
▁755.3	-10215
▁Chuck	-10216
▁EISSN	-10217
▁Frans	-10218
▁Ivkov	-10219
▁Josef	-10220
▁Leeds	-10221
▁Malik	-10222
▁Media	-10223
▁Motor	-10224
▁Orfeo	-10225
▁Tabak	-10226
▁Tadao	-10227
▁admin	-10228
▁basis	-10229
▁baths	-10230
▁begun	-10231
▁cover	-10232
▁metre	-10233
▁noted	-10234
▁steam	-10235
▁study	-10236
African	-10237
Astérix	-10238
comflot	-10239
cussion	-10240
derbaan	-10241
forming	-10242
kenhead	-10243
ominent	-10244
oritner	-10245
oslavia	-10246
quirari	-10247
▁13/31.	-10248
▁146110	-10249
▁15/33.	-10250
▁184434	-10251
▁1890.0	-10252
▁192000	-10253
▁2158-3	-10254
▁2989.0	-10255
▁3310.0	-10256
▁8820.0	-10257
▁AAIDBI	-10258
▁Anthem	-10259
▁Aplena	-10260
▁Asians	-10261
▁Baling	-10262
▁Basket	-10263
▁Blanco	-10264
▁Citrus	-10265
▁Cookie	-10266
▁Criona	-10267
▁Dekalb	-10268
▁Farrar	-10269
▁Foster	-10270
▁Giroux	-10271
▁Hardie	-10272
▁Hockey	-10273
▁Indust	-10274
▁Legend	-10275
▁Licita	-10276
▁Luxury	-10277
▁Minang	-10278
▁Pakora	-10279
▁Retrov	-10280
▁Rocket	-10281
▁Romero	-10282
▁Slavey	-10283
▁Straus	-10284
▁Turzil	-10285
▁Within	-10286
▁Zaanst	-10287
▁birthd	-10288
▁collab	-10289
▁dollar	-10290
▁empire	-10291
▁houses	-10292
▁poales	-10293
▁rolled	-10294
▁romano	-10295
▁source	-10296
▁string	-10297
▁styles	-10298
▁weight	-10299
Michigan	-10300
▁13017.0	-10301
▁1800.0.	-10302
▁1923-11	-10303
▁3992.88	-10304
▁4000.0.	-10305
▁Alagoas	-10306
▁Brenner	-10307
▁Bryning	-10308
▁Coconut	-10309
▁Dniprop	-10310
▁Everett	-10311
▁Finnish	-10312
▁Founded	-10313
▁Hilario	-10314
▁Library	-10315
▁Peşəkar	-10316
▁Qarabağ	-10317
▁Rafique	-10318
▁Rajwana	-10319
▁Sbragia	-10320
▁Serving	-10321
▁Sweeney	-10322
▁Winkler	-10323
▁closely	-10324
▁develop	-10325
▁however	-10326
▁oregano	-10327
▁present	-10328
▁rockets	-10329
▁studies	-10330
▁Éireann	-10331
0002-9327	-10332
Alligator	-10333
Alvinegro	-10334
ification	-10335
president	-10336
▁"0001-83	-10337
▁45644811	-10338
▁Aircraft	-10339
▁Albilene	-10340
▁Benjamin	-10341
▁Cantania	-10342
▁Defender	-10343
▁Dhalaigh	-10344
▁Fletcher	-10345
▁Germanic	-10346
▁Mindanao	-10347
▁Muhammad	-10348
▁Regiment	-10349
▁coloured	-10350
▁occupied	-10351
▁pecorino	-10352
▁peripsis	-10353
▁province	-10354
▁republic	-10355
▁İstanbul	-10356
Asociación	-10357
performing	-10358
▁0001-8392	-10359
▁05/05/200	-10360
▁1966-02-2	-10361
▁Barcelona	-10362
▁Benitoite	-10363
▁Blackwell	-10364
▁Completed	-10365
▁Corvallis	-10366
▁Forrester	-10367
▁Gravesend	-10368
▁Haputhale	-10369
▁Hungarian	-10370
▁Matchstix	-10371
▁Minnesota	-10372
▁Movieplay	-10373
▁Succeeded	-10374
▁Taquirari	-10375
▁attending	-10376
▁ethnicity	-10377
▁organized	-10378
▁populated	-10379
▁supermini	-10380
▁0567-7920.	-10381
▁1360-0443.	-10382
▁1932-03-15	-10383
▁2005-11-26	-10384
▁2006-12-31	-10385
▁Asociacion	-10386
▁Birkenhead	-10387
▁Connection	-10388
▁Favoritner	-10389
▁Influenced	-10390
▁Magistrate	-10391
▁Occupation	-10392
▁Retrovirus	-10393
▁Shortcrust	-10394
▁Sovcomflot	-10395
▁Yugoslavia	-10396
▁Zaanstreek	-10397
▁affilaited	-10398
▁literature	-10399
▁profession	-10400
▁"0001-8392"	-10401
▁16244700.0.	-10402
▁1932-07-27.	-10403
▁1939-01-03,	-10404
▁31.12.2006.	-10405
▁Minangkabau	-10406
▁distributor	-10407
alternatively	-10408
▁"0-374-26131	-10409
▁Ferencvárosi	-10410
▁Regionalliga	-10411
▁İstanbulspor	-10412
▁0-439-17685-9	-10413
▁1-4165-2060-0	-10414
▁alternatively	-10415
▁377016000000.0	-10416
▁445895000000.0	-10417
▁Classification	-10418
-1-4165-4253-7".	-10419
,3	-10420
28	-10421
3,	-10422
;"	-10423
AZ	-10424
Ak	-10425
CE	-10426
LK	-10427
OU	-10428
Or	-10429
Sw	-10430
UD	-10431
VI	-10432
ZF	-10433
co	-10434
há	-10435
kn	-10436
ve	-10437
▁z	-10438
,13	-10439
.")	-10440
/1,	-10441
18.	-10442
188	-10443
202	-10444
546	-10445
632	-10446
75.	-10447
ICE	-10448
OUP	-10449
USA	-10450
aak	-10451
aci	-10452
auc	-10453
des	-10454
eik	-10455
emi	-10456
err	-10457
hle	-10458
hon	-10459
hys	-10460
hál	-10461
inb	-10462
irt	-10463
lew	-10464
mil	-10465
now	-10466
oly	-10467
por	-10468
rod	-10469
rum	-10470
▁''	-10471
▁.0	-10472
▁5'	-10473
▁Aa	-10474
▁GR	-10475
▁JP	-10476
▁Ní	-10477
▁Pa	-10478
▁TS	-10479
▁XM	-10480
▁cc	-10481
▁gm	-10482
,749	-10483
-18.	-10484
-21.	-10485
-23.	-10486
226.	-10487
3.26	-10488
487.	-10489
5.42	-10490
524.	-10491
7.00	-10492
Aust	-10493
Ital	-10494
Neil	-10495
Tenn	-10496
VIAG	-10497
aaki	-10498
adeh	-10499
alph	-10500
alry	-10501
anas	-10502
anen	-10503
ayne	-10504
bler	-10505
crib	-10506
days	-10507
enic	-10508
hews	-10509
inae	-10510
inar	-10511
izes	-10512
kaus	-10513
look	-10514
meer	-10515
nard	-10516
nick	-10517
oorn	-10518
ousi	-10519
uire	-10520
ustr	-10521
xton	-10522
íona	-10523
▁"03	-10524
▁"05	-10525
▁"87	-10526
▁121	-10527
▁179	-10528
▁2.5	-10529
▁2/2	-10530
▁25'	-10531
▁30,	-10532
▁38.	-10533
▁39.	-10534
▁395	-10535
▁63.	-10536
▁64,	-10537
▁64.	-10538
▁7/2	-10539
▁714	-10540
▁734	-10541
▁83.	-10542
▁ABI	-10543
▁ASB	-10544
▁ATW	-10545
▁AUD	-10546
▁Cav	-10547
▁Dos	-10548
▁FSV	-10549
▁Fri	-10550
▁Gem	-10551
▁Has	-10552
▁Jes	-10553
▁MBA	-10554
▁Mug	-10555
▁PAS	-10556
▁Rup	-10557
▁SLK	-10558
▁Sen	-10559
▁Tal	-10560
▁Vin	-10561
▁Von	-10562
▁Yam	-10563
▁mov	-10564
▁mus	-10565
▁pad	-10566
▁ter	-10567
▁way	-10568
-07-1	-10569
0153.	-10570
13/31	-10571
5466.	-10572
8784.	-10573
Drake	-10574
Engle	-10575
Green	-10576
North	-10577
acios	-10578
adian	-10579
ample	-10580
arhus	-10581
arlem	-10582
entiv	-10583
errle	-10584
idney	-10585
ionos	-10586
known	-10587
liiga	-10588
obile	-10589
peror	-10590
relly	-10591
respi	-10592
total	-10593
uster	-10594
▁11/0	-10595
▁1793	-10596
▁1855	-10597
▁1875	-10598
▁1960	-10599
▁1972	-10600
▁28.0	-10601
▁2900	-10602
▁330.	-10603
▁334.	-10604
▁3711	-10605
▁458.	-10606
▁657,	-10607
▁737,	-10608
▁82.8	-10609
▁925.	-10610
▁96.1	-10611
▁Bank	-10612
▁Cels	-10613
▁Code	-10614
▁Dhál	-10615
▁Enge	-10616
▁Exch	-10617
▁Guis	-10618
▁Hell	-10619
▁Hugo	-10620
▁Peña	-10621
▁Tarō	-10622
▁Tory	-10623
▁Veik	-10624
▁Wang	-10625
▁Wirt	-10626
▁Year	-10627
▁Yemi	-10628
▁Zwan	-10629
▁bean	-10630
▁deer	-10631
▁does	-10632
▁flew	-10633
▁laid	-10634
▁meal	-10635
▁mode	-10636
▁onto	-10637
▁phys	-10638
▁proj	-10639
▁star	-10640
▁wasp	-10641
▁wide	-10642
/01/19	-10643
/1989.	-10644
000823	-10645
ATISET	-10646
Andrew	-10647
Brazil	-10648
Greece	-10649
cribed	-10650
engine	-10651
iating	-10652
inbajo	-10653
irinae	-10654
origin	-10655
ritory	-10656
rolled	-10657
singer	-10658
thored	-10659
wickau	-10660
▁07/23	-10661
▁07/25	-10662
▁09/27	-10663
▁1,982	-10664
▁12/30	-10665
▁168".	-10666
▁17.73	-10667
▁17.99	-10668
▁184.0	-10669
▁1857,	-10670
▁1873.	-10671
▁1932)	-10672
▁1968.	-10673
▁1976,	-10674
▁19880	-10675
▁1994.	-10676
▁1999.	-10677
▁2.032	-10678
▁214.0	-10679
▁3,990	-10680
▁686.0	-10681
▁746.0	-10682
▁8.33.	-10683
▁9953.	-10684
▁Ahora	-10685
▁Arepa	-10686
▁Basko	-10687
▁Bruce	-10688
▁Cantù	-10689
▁Cubic	-10690
▁Elkin	-10691
▁Fland	-10692
▁Forth	-10693
▁Frews	-10694
▁GROUP	-10695
▁Gerst	-10696
▁Laugh	-10697
▁Payne	-10698
▁Pedas	-10699
▁Quinn	-10700
▁Ralph	-10701
▁Ricky	-10702
▁Simon	-10703
▁Texan	-10704
▁Valor	-10705
▁Water	-10706
▁coupé	-10707
▁dinar	-10708
▁finds	-10709
▁india	-10710
▁knows	-10711
▁lulia	-10712
▁minor	-10713
▁padeh	-10714
▁press	-10715
▁prior	-10716
▁venue	-10717
▁whole	-10718
-10-28.	-10719
Centrum	-10720
England	-10721
Tennant	-10722
aurales	-10723
etrovsk	-10724
mermeer	-10725
postela	-10726
related	-10727
▁1,121.	-10728
▁1.524.	-10729
▁140000	-10730
▁185.42	-10731
▁2014.0	-10732
▁253.26	-10733
▁2900.0	-10734
▁3,800.	-10735
▁4000.0	-10736
▁47487.	-10737
▁64,008	-10738
▁64.008	-10739
▁85466.	-10740
▁94531.	-10741
▁Barney	-10742
▁Buxton	-10743
▁Crespi	-10744
▁Críona	-10745
▁Easter	-10746
▁Lentiv	-10747
▁Mughan	-10748
▁Romani	-10749
▁String	-10750
▁Tanaka	-10751
▁Vinoly	-10752
▁around	-10753
▁bombed	-10754
▁citrus	-10755
▁commem	-10756
▁fourth	-10757
▁french	-10758
▁planes	-10759
▁planet	-10760
▁recipe	-10761
▁speaks	-10762
gressive	-10763
preceded	-10764
ustrator	-10765
▁1219.0.	-10766
▁2777.0.	-10767
▁288,749	-10768
▁3078.48	-10769
▁4100.0.	-10770
▁4387.00	-10771
▁96.1632	-10772
▁Andreas	-10773
▁Bernard	-10774
▁Cavalry	-10775
▁Celsius	-10776
▁Emperor	-10777
▁Gemmill	-10778
▁Haarlem	-10779
▁Kelvins	-10780
▁Leaders	-10781
▁Maguire	-10782
▁Marousi	-10783
▁Marriot	-10784
▁Masaaki	-10785
▁Mathews	-10786
▁Musical	-10787
▁Oregano	-10788
▁Pudding	-10789
▁Rambler	-10790
▁Reality	-10791
▁Senator	-10792
▁Sperrle	-10793
▁Ukraine	-10794
▁Weaving	-10795
▁Zwickau	-10796
▁bananas	-10797
▁because	-10798
▁degrees	-10799
▁enjoyed	-10800
▁example	-10801
▁granted	-10802
▁guitars	-10803
▁partial	-10804
▁physics	-10805
▁product	-10806
▁ranking	-10807
▁spanish	-10808
▁special	-10809
Desteapta	-10810
kausliiga	-10811
municipal	-10812
thoretrov	-10813
▁0236-529	-10814
▁1480153.	-10815
▁69862200	-10816
▁93645978	-10817
▁Admisham	-10818
▁Borrelly	-10819
▁Campaign	-10820
▁Casillas	-10821
▁Dhálaigh	-10822
▁Exchange	-10823
▁Flanders	-10824
▁Gerstman	-10825
▁Guiseppe	-10826
▁Hellenic	-10827
▁Laughlin	-10828
▁Osinbajo	-10829
▁Palacios	-10830
▁Santiago	-10831
▁Schuster	-10832
▁Valencia	-10833
▁Wirtanen	-10834
▁canadian	-10835
▁chicharr	-10836
▁complete	-10837
▁comprise	-10838
▁diametre	-10839
▁failures	-10840
▁featured	-10841
▁formally	-10842
▁governor	-10843
▁monarchy	-10844
▁neighbor	-10845
Greenville	-10846
enburgbaan	-10847
icebreaker	-10848
▁"87000823	-10849
▁07/23/192	-10850
▁1046-8188	-10851
▁1360-0443	-10852
▁142603000	-10853
▁1989-02-2	-10854
▁3,992.88.	-10855
▁318875313	-10856
▁32024459.	-10857
▁39447000,	-10858
▁39447000.	-10859
▁Canadiens	-10860
▁Ceallaigh	-10861
▁Fransisco	-10862
▁Kashubian	-10863
▁Matchstik	-10864
▁Represent	-10865
▁Submarine	-10866
▁administr	-10867
▁authority	-10868
▁comprised	-10869
▁contained	-10870
▁described	-10871
▁dumplings	-10872
▁exponents	-10873
▁prominent	-10874
▁territory	-10875
Switzerland	-10876
▁"0002-9327	-10877
▁0025-5858.	-10878
▁1865-8784.	-10879
▁2158-3226.	-10880
▁39447000.0	-10881
▁4458950000	-10882
▁8788850000	-10883
▁Associated	-10884
▁Compostela	-10885
▁Cuttlefish	-10886
▁Englishman	-10887
▁Lentivirus	-10888
▁Linebacker	-10889
▁Previously	-10890
▁Vermicelli	-10891
▁automobile	-10892
▁completion	-10893
▁identified	-10894
▁influences	-10895
▁millimetre	-10896
▁neighbours	-10897
abbreviating	-10898
▁05/05/2005.	-10899
▁1896-02-01,	-10900
▁1907-07-11)	-10901
▁1974-08-01.	-10902
▁1980-04-23.	-10903
▁1998-07-21.	-10904
▁2004-07.14.	-10905
▁2009-04-04.	-10906
▁2013-11-04.	-10907
▁2014-10-28.	-10908
▁41498400000	-10909
▁69862200.0,	-10910
▁Academicals	-10911
▁headquarter	-10912
▁information	-10913
▁instruments	-10914
▁responsible	-10915
▁collaborated	-10916
▁specifically	-10917
▁0-7156-3648-0	-10918
▁279142000000.	-10919
▁8788850000.0,	-10920
▁Veikkausliiga	-10921
▁stylistically	-10922
▁undergraduate	-10923
thoretrovirinae	-10924
▁"0-374-26131-8	-10925
▁124950000000.0	-10926
▁Dnipropetrovsk	-10927
▁Haarlemmermeer	-10928
▁Zwanenburgbaan	-10929
▁279142000000.0.	-10930
"-	-10931
#:	-10932
/.	-10933
//	-10934
17	-10935
36	-10936
44	-10937
86	-10938
Ch	-10939
GT	-10940
OB	-10941
On	-10942
bb	-10943
cm	-10944
hi	-10945
ko	-10946
lk	-10947
oß	-10948
tı	-10949
ăl	-10950
▁~	-10951
▁Ş	-10952
'),	-10953
-22	-10954
/09	-10955
/10	-10956
/17	-10957
0-2	-10958
10.	-10959
160	-10960
199	-10961
4".	-10962
4-0	-10963
504	-10964
66.	-10965
678	-10966
7.7	-10967
73,	-10968
9".	-10969
939	-10970
94.	-10971
://	-10972
;",	-10973
Ajo	-10974
Art	-10975
Can	-10976
EAT	-10977
Mad	-10978
Mer	-10979
One	-10980
Par	-10981
Sci	-10982
als	-10983
atr	-10984
bod	-10985
ced	-10986
eda	-10987
edy	-10988
etr	-10989
gov	-10990
ici	-10991
ifl	-10992
ily	-10993
jam	-10994
loo	-10995
ofd	-10996
oze	-10997
ttp	-10998
viy	-10999
wał	-11000
www	-11001
yed	-11002
yrs	-11003
ıtı	-11004
šan	-11005
▁"2	-11006
▁32	-11007
▁69	-11008
▁CF	-11009
▁Ec	-11010
▁Gá	-11011
▁IN	-11012
▁Mk	-11013
▁PR	-11014
▁VW	-11015
▁WI	-11016
▁bi	-11017
▁os	-11018
▁pf	-11019
▁ph	-11020
▁ru	-11021
▁ut	-11022
▁wa	-11023
▁ws	-11024
-22.	-11025
/22.	-11026
015.	-11027
0153	-11028
1.0.	-11029
140.	-11030
332.	-11031
349.	-11032
42,3	-11033
5800	-11034
80-4	-11035
867.	-11036
AZAL	-11037
Book	-11038
ISBN	-11039
Türk	-11040
asia	-11041
atre	-11042
ayed	-11043
bbie	-11044
buil	-11045
chie	-11046
comp	-11047
died	-11048
elev	-11049
enko	-11050
ents	-11051
gham	-11052
ilos	-11053
odon	-11054
oßku	-11055
pris	-11056
publ	-11057
sila	-11058
town	-11059
ultz	-11060
vers	-11061
wber	-11062
ălan	-11063
▁"15	-11064
▁(19	-11065
▁-7,	-11066
▁1.0	-11067
▁10,	-11068
▁11'	-11069
▁181	-11070
▁214	-11071
▁497	-11072
▁50.	-11073
▁505	-11074
▁524	-11075
▁618	-11076
▁763	-11077
▁925	-11078
▁Aus	-11079
▁Ave	-11080
▁Ill	-11081
▁Jun	-11082
▁Las	-11083
▁Mck	-11084
▁Tac	-11085
▁Was	-11086
▁alm	-11087
▁bim	-11088
▁bor	-11089
▁day	-11090
▁did	-11091
▁ear	-11092
▁lie	-11093
▁obv	-11094
▁que	-11095
▁see	-11096
▁six	-11097
▁wal	-11098
▁web	-11099
▁win	-11100
,000,	-11101
,136,	-11102
0,000	-11103
0-2".	-11104
0-439	-11105
7.76.	-11106
Aaron	-11107
Akron	-11108
Artin	-11109
Fylde	-11110
allon	-11111
aneer	-11112
aries	-11113
built	-11114
drive	-11115
force	-11116
honse	-11117
ingly	-11118
ossil	-11119
sized	-11120
tures	-11121
ummit	-11122
wałki	-11123
▁12.0	-11124
▁1200	-11125
▁1411	-11126
▁168"	-11127
▁1818	-11128
▁1964	-11129
▁1973	-11130
▁2002	-11131
▁2439	-11132
▁2953	-11133
▁3301	-11134
▁3678	-11135
▁4/22	-11136
▁470.	-11137
▁575.	-11138
▁6.81	-11139
▁77.4	-11140
▁8002	-11141
▁8820	-11142
▁9504	-11143
▁Ages	-11144
▁Balg	-11145
▁Bapt	-11146
▁CDTE	-11147
▁Coat	-11148
▁Dark	-11149
▁Eyed	-11150
▁Left	-11151
▁Lesh	-11152
▁Many	-11153
▁Nael	-11154
▁Peas	-11155
▁Rico	-11156
▁SEAT	-11157
▁Sage	-11158
▁Smil	-11159
▁Türk	-11160
▁Wass	-11161
▁When	-11162
▁caul	-11163
▁dict	-11164
▁dies	-11165
▁flav	-11166
▁frit	-11167
▁gang	-11168
▁inch	-11169
▁kind	-11170
▁life	-11171
▁link	-11172
▁luso	-11173
▁mart	-11174
▁temp	-11175
▁util	-11176
▁very	-11177
▁zero	-11178
-03-04	-11179
-07-23	-11180
/1986.	-11181
/1987.	-11182
/2013.	-11183
AAIDBI	-11184
Canada	-11185
Donald	-11186
German	-11187
Rhythm	-11188
county	-11189
eleine	-11190
iously	-11191
overer	-11192
ucture	-11193
▁04/22	-11194
▁09/22	-11195
▁1080.	-11196
▁11/08	-11197
▁12077	-11198
▁1418.	-11199
▁16/34	-11200
▁171.0	-11201
▁179.0	-11202
▁1793,	-11203
▁1872.	-11204
▁1878.	-11205
▁1911,	-11206
▁1921.	-11207
▁1925.	-11208
▁1936,	-11209
▁1955,	-11210
▁1959,	-11211
▁1971,	-11212
▁20,19	-11213
▁3,500	-11214
▁30/05	-11215
▁3990.	-11216
▁4/22.	-11217
▁733.0	-11218
▁911.0	-11219
▁Anıtı	-11220
▁Apium	-11221
▁Bakou	-11222
▁Balan	-11223
▁Banjo	-11224
▁Booze	-11225
▁Bălan	-11226
▁Champ	-11227
▁Doshi	-11228
▁Dušan	-11229
▁Gábor	-11230
▁Hogao	-11231
▁Honey	-11232
▁Hoofd	-11233
▁Lucky	-11234
▁Syria	-11235
▁Voßku	-11236
▁Wever	-11237
▁abrev	-11238
▁barny	-11239
▁below	-11240
▁coden	-11241
▁drums	-11242
▁dying	-11243
▁fight	-11244
▁fresh	-11245
▁funct	-11246
▁italy	-11247
▁kilos	-11248
▁kinds	-11249
▁loyal	-11250
▁maker	-11251
▁modes	-11252
▁queen	-11253
▁rules	-11254
▁three	-11255
▁voted	-11256
▁votes	-11257
▁wheat	-11258
▁width	-11259
67-7920	-11260
Capital	-11261
Livorno	-11262
Merrikh	-11263
Poaceae	-11264
amateur	-11265
bodhran	-11266
icially	-11267
iflower	-11268
manager	-11269
monthly	-11270
ominant	-11271
ostbaan	-11272
serving	-11273
viyenko	-11274
▁"13/31	-11275
▁1,873.	-11276
▁102372	-11277
▁1142,3	-11278
▁125800	-11279
▁18.52,	-11280
▁1800.0	-11281
▁2,195.	-11282
▁2194.0	-11283
▁2744.0	-11284
▁3,990.	-11285
▁3.3528	-11286
▁3048.0	-11287
▁39332.	-11288
▁733.0.	-11289
▁Artist	-11290
▁Debbie	-11291
▁Hunter	-11292
▁Instit	-11293
▁MArtin	-11294
▁Talaba	-11295
▁Tallon	-11296
▁Wilkes	-11297
▁adding	-11298
▁amount	-11299
▁counts	-11300
▁derive	-11301
▁fossil	-11302
▁inside	-11303
▁kidney	-11304
▁mainly	-11305
▁paneer	-11306
▁preced	-11307
▁soccer	-11308
▁walked	-11309
-17684-0	-11310
Amateurs	-11311
Maryland	-11312
Trinidad	-11313
ghampara	-11314
postcode	-11315
previous	-11316
quarters	-11317
▁1121.0.	-11318
▁1480153	-11319
▁1510.0.	-11320
▁1856-09	-11321
▁1873.0.	-11322
▁2004-12	-11323
▁336265,	-11324
▁3400.0.	-11325
▁3453.0.	-11326
▁Baptist	-11327
▁Chopped	-11328
▁Donnell	-11329
▁Ecology	-11330
▁Friends	-11331
▁Ivković	-11332
▁Kennedy	-11333
▁Lasalle	-11334
▁Lettuce	-11335
▁Natives	-11336
▁Schultz	-11337
▁Suwałki	-11338
▁academy	-11339
▁amongst	-11340
▁artiste	-11341
▁central	-11342
▁crewman	-11343
▁editors	-11344
▁failure	-11345
▁forward	-11346
▁gangsta	-11347
▁italian	-11348
▁martyrs	-11349
▁outlook	-11350
▁produce	-11351
▁provide	-11352
▁speaker	-11353
▁tempore	-11354
▁theatre	-11355
▁website	-11356
0025-5858	-11357
Indonesia	-11358
▁16244700	-11359
▁2014–15.	-11360
▁3,992.88	-11361
▁32024459	-11362
▁39447000	-11363
▁416,136,	-11364
▁560090."	-11365
▁7637.76.	-11366
▁7877110.	-11367
▁Alphonse	-11368
▁Barbetti	-11369
▁Formerly	-11370
▁Keyboard	-11371
▁Mckenzie	-11372
▁Mendriso	-11373
▁Produced	-11374
▁Smilodon	-11375
▁Strawber	-11376
▁Voßkuhle	-11377
▁Wartsila	-11378
▁Waterloo	-11379
▁airports	-11380
▁covering	-11381
▁enrolled	-11382
▁fritters	-11383
▁function	-11384
▁laurales	-11385
▁parented	-11386
associated	-11387
discovered	-11388
originated	-11389
percussion	-11390
▁"0236-529	-11391
▁16244700,	-11392
▁1947-03-1	-11393
▁198803.0.	-11394
▁30/05/199	-11395
▁32024459,	-11396
▁Assembled	-11397
▁Available	-11398
▁Balgalore	-11399
▁Calallero	-11400
▁Champions	-11401
▁Governing	-11402
▁Guitarist	-11403
▁MacDonald	-11404
▁Madeleine	-11405
▁Valentina	-11406
▁Wasserman	-11407
▁bimonthly	-11408
▁birthdate	-11409
▁commender	-11410
▁component	-11411
▁garrisons	-11412
▁indonesia	-11413
▁obviously	-11414
▁psychedel	-11415
▁structure	-11416
▁Şehitleri	-11417
alternative	-11418
▁"0025-5858	-11419
▁0236-5294.	-11420
▁03/04/1901	-11421
▁0567-7920,	-11422
▁0965-2140.	-11423
▁142603000.	-11424
▁1923-11-18	-11425
▁1998-07-21	-11426
▁2006.12.31	-11427
▁2014-2015.	-11428
▁Coatbridge	-11429
▁Electropop	-11430
▁Ethnically	-11431
▁Icebreaker	-11432
▁Matviyenko	-11433
▁Polderbaan	-11434
▁Scriptures	-11435
▁Vegetables	-11436
▁Wellington	-11437
▁chicharron	-11438
▁electronic	-11439
▁management	-11440
▁officially	-11441
▁presidency	-11442
▁sapindales	-11443
abbreviation	-11444
▁"0002-9327"	-11445
▁1857-03-03.	-11446
▁1932-03-15)	-11447
▁2006.12.31.	-11448
▁Hoofdklasse	-11449
▁Illustrator	-11450
▁cauliflower	-11451
▁centimeters	-11452
▁keyboardist	-11453
▁legislative	-11454
▁millimeters	-11455
▁neighboring	-11456
0-439-17684-0	-11457
▁135589000.0,	-11458
▁139705000.0,	-11459
▁41498400000.	-11460
▁Manufactured	-11461
▁participants	-11462
▁subsidiaries	-11463
▁0-439-92550-9	-11464
▁0-670-03380-4	-11465
▁8788850000.0.	-11466
▁Konstantionos	-11467
▁0-670-03380-4,	-11468
▁349206000000.0	-11469
▁Representative	-11470
-0-15-204770-2".	-11471
▁184434000000.0.	-11472
▁288,749,000,000	-11473
▁288749000000.0,	-11474
▁6155910000000.0	-11475
!.	-11476
/4	-11477
/>	-11478
5"	-11479
62	-11480
9"	-11481
CQ	-11482
Fr	-11483
Le	-11484
QB	-11485
Tr	-11486
US	-11487
Wh	-11488
ga	-11489
▁:	-11490
▁<	-11491
!".	-11492
"),	-11493
-1;	-11494
05.	-11495
123	-11496
13.	-11497
170	-11498
226	-11499
4",	-11500
467	-11501
513	-11502
776	-11503
78,	-11504
792	-11505
892	-11506
Abh	-11507
Ana	-11508
BLT	-11509
Bar	-11510
Dav	-11511
Den	-11512
Hou	-11513
Kub	-11514
Mil	-11515
Sar	-11516
Sph	-11517
Ste	-11518
Tab	-11519
Uab	-11520
aeL	-11521
amd	-11522
bas	-11523
bro	-11524
buy	-11525
cap	-11526
dad	-11527
hro	-11528
idg	-11529
ief	-11530
inu	-11531
ism	-11532
itt	-11533
mod	-11534
nad	-11535
non	-11536
nov	-11537
ply	-11538
sac	-11539
sga	-11540
spe	-11541
taw	-11542
ype	-11543
▁),	-11544
▁-8	-11545
▁06	-11546
▁9-	-11547
▁Gt	-11548
▁MO	-11549
▁TX	-11550
▁cr	-11551
▁ha	-11552
▁ia	-11553
▁ne	-11554
-2).	-11555
-4-2	-11556
/30.	-11557
0.74	-11558
100.	-11559
5.0.	-11560
533.	-11561
70".	-11562
892.	-11563
99.0	-11564
Arem	-11565
Brit	-11566
CQAG	-11567
Fort	-11568
Into	-11569
John	-11570
Mont	-11571
They	-11572
Turk	-11573
Wolf	-11574
adly	-11575
asil	-11576
asol	-11577
away	-11578
boun	-11579
comm	-11580
cont	-11581
esqu	-11582
etit	-11583
eton	-11584
evin	-11585
hich	-11586
http	-11587
icer	-11588
ieti	-11589
ikul	-11590
inzō	-11591
iten	-11592
itin	-11593
itor	-11594
loys	-11595
ners	-11596
oace	-11597
okar	-11598
opia	-11599
oval	-11600
rock	-11601
sand	-11602
sown	-11603
ting	-11604
unos	-11605
uria	-11606
uses	-11607
ñoly	-11608
▁"09	-11609
▁"10	-11610
▁"18	-11611
▁-8,	-11612
▁.02	-11613
▁.88	-11614
▁07,	-11615
▁08,	-11616
▁12'	-11617
▁13.	-11618
▁165	-11619
▁20.	-11620
▁229	-11621
▁306	-11622
▁309	-11623
▁34,	-11624
▁362	-11625
▁45,	-11626
▁597	-11627
▁638	-11628
▁686	-11629
▁7.0	-11630
▁733	-11631
▁765	-11632
▁9.7	-11633
▁AIT	-11634
▁APN	-11635
▁Beg	-11636
▁Che	-11637
▁Eeh	-11638
▁Joh	-11639
▁Kin	-11640
▁Law	-11641
▁Oak	-11642
▁SqK	-11643
▁Tap	-11644
▁ajo	-11645
▁mex	-11646
▁oft	-11647
▁set	-11648
▁von	-11649
-09-0	-11650
/1856	-11651
7,100	-11652
Admin	-11653
Aluna	-11654
Assoc	-11655
Bacon	-11656
Dodge	-11657
Latin	-11658
Milan	-11659
Noord	-11660
Syria	-11661
White	-11662
aches	-11663
alays	-11664
alsme	-11665
anded	-11666
anged	-11667
antry	-11668
astin	-11669
boune	-11670
brook	-11671
certs	-11672
chiev	-11673
count	-11674
crete	-11675
ently	-11676
etrol	-11677
gradu	-11678
icana	-11679
icans	-11680
ident	-11681
ionis	-11682
islaw	-11683
ities	-11684
itled	-11685
later	-11686
ludes	-11687
ludge	-11688
nings	-11689
novel	-11690
onian	-11691
owned	-11692
plays	-11693
rsity	-11694
uphol	-11695
water	-11696
zzard	-11697
▁"173	-11698
▁1,20	-11699
▁1.33	-11700
▁100,	-11701
▁14.2	-11702
▁1635	-11703
▁168)	-11704
▁1773	-11705
▁1921	-11706
▁1929	-11707
▁1937	-11708
▁2/20	-11709
▁2195	-11710
▁2215	-11711
▁2702	-11712
▁2939	-11713
▁2988	-11714
▁2989	-11715
▁3/17	-11716
▁3048	-11717
▁3090	-11718
▁373,	-11719
▁3990	-11720
▁4,01	-11721
▁48.0	-11722
▁500.	-11723
▁512.	-11724
▁6573	-11725
▁678,	-11726
▁678.	-11727
▁7202	-11728
▁Anne	-11729
▁Auck	-11730
▁Birr	-11731
▁Body	-11732
▁Dess	-11733
▁Drew	-11734
▁Happ	-11735
▁Like	-11736
▁Mahé	-11737
▁NRQB	-11738
▁NaeL	-11739
▁Once	-11740
▁Rale	-11741
▁Raye	-11742
▁Ribb	-11743
▁Rice	-11744
▁Sony	-11745
▁Till	-11746
▁Trin	-11747
▁UTAA	-11748
▁birr	-11749
▁circ	-11750
▁doom	-11751
▁educ	-11752
▁five	-11753
▁hear	-11754
▁help	-11755
▁john	-11756
▁jour	-11757
▁loca	-11758
▁look	-11759
▁port	-11760
▁poss	-11761
▁rule	-11762
▁runs	-11763
▁seal	-11764
▁sent	-11765
▁theA	-11766
▁waas	-11767
▁whom	-11768
▁whos	-11769
/1857.	-11770
/21/19	-11771
/30/19	-11772
0.744.	-11773
2-2421	-11774
Alfred	-11775
Austin	-11776
Barack	-11777
Donnel	-11778
French	-11779
Indian	-11780
League	-11781
Punjab	-11782
Sphinx	-11783
Summit	-11784
aining	-11785
cessor	-11786
encing	-11787
enders	-11788
erbaan	-11789
ertype	-11790
esquin	-11791
hentaw	-11792
hrooms	-11793
ikulov	-11794
ipping	-11795
member	-11796
modern	-11797
ombian	-11798
orates	-11799
rocket	-11800
sgaard	-11801
spouse	-11802
terest	-11803
urated	-11804
▁"1999	-11805
▁.0068	-11806
▁01/01	-11807
▁03/03	-11808
▁1,121	-11809
▁120.0	-11810
▁12467	-11811
▁154.0	-11812
▁156.0	-11813
▁164.0	-11814
▁166.0	-11815
▁168",	-11816
▁1793.	-11817
▁18.44	-11818
▁1901,	-11819
▁1910,	-11820
▁1931,	-11821
▁1937,	-11822
▁1937.	-11823
▁1944.	-11824
▁1947,	-11825
▁1950.	-11826
▁1953,	-11827
▁1958,	-11828
▁1961,	-11829
▁1961.	-11830
▁1964,	-11831
▁1966,	-11832
▁1979,	-11833
▁1982,	-11834
▁1990,	-11835
▁2,776	-11836
▁2003,	-11837
▁258.0	-11838
▁27/09	-11839
▁3,310	-11840
▁362.0	-11841
▁4000.	-11842
▁45000	-11843
▁600.0	-11844
▁7.66.	-11845
▁7/25.	-11846
▁900.0	-11847
▁9000,	-11848
▁94531	-11849
▁ADICE	-11850
▁Adbul	-11851
▁Addid	-11852
▁Akeen	-11853
▁Albel	-11854
▁Alley	-11855
▁Along	-11856
▁Amatr	-11857
▁Arist	-11858
▁Avant	-11859
▁Bajji	-11860
▁Basil	-11861
▁Danes	-11862
▁Drone	-11863
▁Finch	-11864
▁Gover	-11865
▁Halls	-11866
▁Horns	-11867
▁Issac	-11868
▁Jaish	-11869
▁Jesus	-11870
▁Johan	-11871
▁Kevin	-11872
▁Langu	-11873
▁Metro	-11874
▁Noord	-11875
▁Owned	-11876
▁Pando	-11877
▁Polit	-11878
▁Princ	-11879
▁Prior	-11880
▁Puidg	-11881
▁Rayal	-11882
▁Start	-11883
▁Swamp	-11884
▁Where	-11885
▁apple	-11886
▁areas	-11887
▁arròs	-11888
▁bhaji	-11889
▁calls	-11890
▁child	-11891
▁chose	-11892
▁civil	-11893
▁craft	-11894
▁drone	-11895
▁flows	-11896
▁fused	-11897
▁going	-11898
▁great	-11899
▁lpena	-11900
▁march	-11901
▁metro	-11902
▁minus	-11903
▁money	-11904
▁movie	-11905
▁payed	-11906
▁penet	-11907
▁sadly	-11908
▁spain	-11909
▁spend	-11910
▁sytle	-11911
▁tarts	-11912
▁those	-11913
▁virus	-11914
-03-16.	-11915
-05-20.	-11916
-07-03.	-11917
-07-197	-11918
-09-27.	-11919
-11-02.	-11920
000,000	-11921
513,000	-11922
88-2632	-11923
Anaheim	-11924
British	-11925
Denmark	-11926
Germany	-11927
Houston	-11928
Italian	-11929
Ontario	-11930
Spanish	-11931
Turkmen	-11932
Uruguay	-11933
capable	-11934
coached	-11935
country	-11936
created	-11937
edients	-11938
erature	-11939
ginated	-11940
itenvel	-11941
iveness	-11942
minutes	-11943
ristian	-11944
roduced	-11945
usiness	-11946
variant	-11947
▁07/25.	-11948
▁1,533.	-11949
▁11/29,	-11950
▁12/30.	-11951
▁1533.0	-11952
▁17.28.	-11953
▁1873.0	-11954
▁2702.0	-11955
▁296521	-11956
▁3,310.	-11957
▁3400.0	-11958
▁374976	-11959
▁3990.0	-11960
▁4,100.	-11961
▁4,349.	-11962
▁488160	-11963
▁511592	-11964
▁8.334.	-11965
▁877.0.	-11966
▁94531,	-11967
▁99.792	-11968
▁Airpor	-11969
▁Americ	-11970
▁Beunos	-11971
▁Cannon	-11972
▁Chieti	-11973
▁Daggat	-11974
▁Fusion	-11975
▁Geared	-11976
▁Junior	-11977
▁Legacy	-11978
▁Lemons	-11979
▁Licata	-11980
▁Mastin	-11981
▁Period	-11982
▁Peters	-11983
▁Rupiah	-11984
▁Shinzō	-11985
▁Syrian	-11986
▁Tacoma	-11987
▁Tehran	-11988
▁Univer	-11989
▁Vicent	-11990
▁Viñoly	-11991
▁Warner	-11992
▁Worker	-11993
▁Yamamd	-11994
▁achiev	-11995
▁alaska	-11996
▁almost	-11997
▁colors	-11998
▁desert	-11999
▁earned	-12000
▁format	-12001
▁formed	-12002
▁geared	-12003
▁hosted	-12004
▁inline	-12005
▁island	-12006
▁labour	-12007
▁legisl	-12008
▁linked	-12009
▁locals	-12010
▁manged	-12011
▁occupy	-12012
▁orders	-12013
▁others	-12014
▁persea	-12015
▁petrol	-12016
▁ranked	-12017
▁rocker	-12018
▁senior	-12019
▁showed	-12020
▁simply	-12021
▁sister	-12022
▁street	-12023
▁stroke	-12024
▁taking	-12025
▁though	-12026
▁winner	-12027
▁wizard	-12028
designed	-12029
includes	-12030
nickname	-12031
official	-12032
speaking	-12033
structed	-12034
▁102372,	-12035
▁102372.	-12036
▁11473.9	-12037
▁1982.0.	-12038
▁1988-11	-12039
▁2003.0.	-12040
▁2009-10	-12041
▁2014.0.	-12042
▁2194.0.	-12043
▁2195.0.	-12044
▁3048.0.	-12045
▁3090.0.	-12046
▁38.892.	-12047
▁39599.0	-12048
▁40.744.	-12049
▁95040.0	-12050
▁Aaarhus	-12051
▁Abubaka	-12052
▁Ausitin	-12053
▁Colonel	-12054
▁Cooking	-12055
▁Dillian	-12056
▁Eastman	-12057
▁Eehoorn	-12058
▁Ethiopa	-12059
▁Ethopia	-12060
▁Fantasy	-12061
▁Hazzard	-12062
▁LaSelle	-12063
▁Lesquin	-12064
▁Malasia	-12065
▁Married	-12066
▁Merrikh	-12067
▁Mikulov	-12068
▁Officer	-12069
▁Parasol	-12070
▁Permier	-12071
▁Pesokar	-12072
▁Pianist	-12073
▁Raleigh	-12074
▁Tappara	-12075
▁Tillich	-12076
▁Trindad	-12077
▁Turkeys	-12078
▁adviser	-12079
▁carrier	-12080
▁coaches	-12081
▁consist	-12082
▁control	-12083
▁fantasy	-12084
▁follows	-12085
▁lasting	-12086
▁matador	-12087
▁possess	-12088
▁project	-12089
▁resting	-12090
▁runaway	-12091
▁runways	-12092
▁surpris	-12093
▁winning	-12094
,000,000.	-12095
completed	-12096
identally	-12097
reference	-12098
▁"0269-93	-12099
▁"13/31".	-12100
▁05/21/19	-12101
▁120770.0	-12102
▁1461102.	-12103
▁1480153)	-12104
▁20,1930.	-12105
▁33012.0.	-12106
▁37116.0.	-12107
▁374976.0	-12108
▁39332.9.	-12109
▁47487.6.	-12110
▁85466.9.	-12111
▁8805735,	-12112
▁9953.28.	-12113
▁Abubaker	-12114
▁AidAluna	-12115
▁Alexsand	-12116
▁Auckland	-12117
▁Authored	-12118
▁Balingan	-12119
▁Competit	-12120
▁Concerts	-12121
▁Concrete	-12122
▁Heinrich	-12123
▁Industry	-12124
▁Kingston	-12125
▁Melboune	-12126
▁Milionis	-12127
▁Military	-12128
▁Sandoval	-12129
▁Schuphol	-12130
▁Shipping	-12131
▁Sumatran	-12132
▁Zitarros	-12133
▁airforce	-12134
▁amateurs	-12135
▁assigned	-12136
▁baseball	-12137
▁creation	-12138
▁dictates	-12139
▁employed	-12140
▁entitled	-12141
▁examiner	-12142
▁facility	-12143
▁fighters	-12144
▁founding	-12145
▁hospital	-12146
▁interest	-12147
▁involves	-12148
▁memberrs	-12149
▁mobility	-12150
▁prepared	-12151
▁spending	-12152
▁standard	-12153
▁subgenre	-12154
▁trombone	-12155
Montevideo	-12156
discoverer	-12157
ocotyledon	-12158
previously	-12159
publishers	-12160
▁01-07-197	-12161
▁03/04/185	-12162
▁1,202.846	-12163
▁1080-6377	-12164
▁16244700.	-12165
▁1995-09-0	-12166
▁3,997,100	-12167
▁45644811,	-12168
▁488160.0,	-12169
▁Alcobenda	-12170
▁Antioquio	-12171
▁Balingian	-12172
▁Beginning	-12173
▁Buitenvel	-12174
▁Esteghial	-12175
▁Happiness	-12176
▁Jennnings	-12177
▁Languages	-12178
▁Ministers	-12179
▁Princeton	-12180
▁Stanislaw	-12181
▁Washentaw	-12182
▁developed	-12183
▁involving	-12184
▁mushrooms	-12185
▁powertype	-12186
▁solanales	-12187
▁subsidary	-12188
▁unrelated	-12189
Mississippi	-12190
alsmeerbaan	-12191
constructed	-12192
▁"1588-2632	-12193
▁"1732-2421	-12194
▁"87000823"	-12195
▁09/22/1856	-12196
▁1360-0443,	-12197
▁139705000,	-12198
▁1473-5571,	-12199
▁1857-03-03	-12200
▁1927-07-23	-12201
▁1930-01-20	-12202
▁1966-02-28	-12203
▁2013-11-04	-12204
▁318875313.	-12205
▁Amatricana	-12206
▁Andalusian	-12207
▁Bundsgaard	-12208
▁Catalonian	-12209
▁Considered	-12210
▁Electronic	-12211
▁Glastonbuy	-12212
▁Industries	-12213
▁Northbrook	-12214
▁Politician	-12215
▁Postmodern	-12216
▁Puidgemont	-12217
▁electropop	-12218
▁ethnically	-12219
▁represents	-12220
▁stylistics	-12221
Indianapolis	-12222
▁"0025-5858"	-12223
▁01/01/1989.	-12224
▁03/03/1857.	-12225
▁03/04/1905.	-12226
▁07/23/1927.	-12227
▁11/08/1986.	-12228
▁1857-03-04,	-12229
▁1891-05-20.	-12230
▁1896-02-01.	-12231
▁1933-10-17)	-12232
▁1939-01-03.	-12233
▁1941-07-03.	-12234
▁1947-03-13.	-12235
▁1958-11-02.	-12236
▁1966-02-28.	-12237
▁1998-03-16.	-12238
▁2003-09-27.	-12239
▁2004-12-18.	-12240
▁2006-12-31,	-12241
▁2009-04-04,	-12242
▁373,513,000	-12243
▁39447000.0,	-12244
▁7729430000,	-12245
▁Progressive	-12246
▁Univerrsity	-12247
▁abreviation	-12248
▁battlefield	-12249
▁competition	-12250
▁influencing	-12251
▁participant	-12252
▁predominant	-12253
▁"0269-9370".	-12254
▁142603000.0,	-12255
▁279142000000	-12256
▁broadcasting	-12257
▁commemorated	-12258
▁publications	-12259
▁representing	-12260
▁transporting	-12261
▁1-56947-301-3	-12262
▁279142000000,	-12263
▁Architectural	-12264
▁Architetturia	-12265
▁PremierLeague	-12266
▁Undergraduate	-12267
▁championships	-12268
▁participating	-12269
▁"0-439-17684-0	-12270
▁3997100000000,	-12271
▁Kinightsbridge	-12272
▁administrative	-12273
▁arrondissement	-12274
▁416,136,000,000	-12275
▁Competitiveness	-12276
!"	-12277
"(	-12278
''	-12279
')	-12280
))	-12281
,4	-12282
,8	-12283
.;	-12284
1(	-12285
35	-12286
37	-12287
4)	-12288
5)	-12289
6)	-12290
8'	-12291
8;	-12292
:"	-12293
:-	-12294
AD	-12295
Ae	-12296
Az	-12297
BA	-12298
Bl	-12299
Bo	-12300
De	-12301
FL	-12302
GA	-12303
HQ	-12304
KY	-12305
Kg	-12306
NR	-12307
Ph	-12308
Pr	-12309
QE	-12310
RM	-12311
Sh	-12312
Sy	-12313
br	-12314
ca	-12315
cy	-12316
fk	-12317
hm	-12318
lc	-12319
mn	-12320
nu	-12321
oi	-12322
rn	-12323
we	-12324
xM	-12325
zm	-12326
ús	-12327
▁!	-12328
▁x	-12329
▁|	-12330
,23	-12331
,24	-12332
,43	-12333
,89	-12334
,95	-12335
-05	-12336
-3;	-12337
-7,	-12338
-88	-12339
.",	-12340
.'.	-12341
/11	-12342
/16	-12343
/39	-12344
/>.	-12345
001	-12346
05,	-12347
09.	-12348
103	-12349
14,	-12350
2,3	-12351
215	-12352
253	-12353
305	-12354
309	-12355
331	-12356
447	-12357
573	-12358
69.	-12359
7,0	-12360
79.	-12361
83,	-12362
840	-12363
9,9	-12364
ACF	-12365
AeL	-12366
Air	-12367
Aur	-12368
Com	-12369
Dun	-12370
For	-12371
Har	-12372
Hip	-12373
Lam	-12374
Leg	-12375
Los	-12376
May	-12377
Pak	-12378
Que	-12379
Sal	-12380
aag	-12381
adm	-12382
app	-12383
avy	-12384
bir	-12385
but	-12386
cal	-12387
erd	-12388
iar	-12389
inf	-12390
jos	-12391
omy	-12392
pah	-12393
ruo	-12394
shr	-12395
tes	-12396
ued	-12397
wad	-12398
▁).	-12399
APN	-12400
MBA	-12401
▁02	-12402
▁Dw	-12403
▁Fc	-12404
▁Ff	-12405
▁KM	-12406
▁PA	-12407
▁PS	-12408
▁Sk	-12409
▁UN	-12410
▁Ur	-12411
▁Us	-12412
▁ay	-12413
▁ba	-12414
▁hq	-12415
▁ir	-12416
▁no	-12417
▁od	-12418
▁og	-12419
▁sn	-12420
,600	-12421
,895	-12422
-09.	-12423
-17.	-12424
-189	-12425
-192	-12426
-2),	-12427
-31.	-12428
/01.	-12429
/21,	-12430
/32.	-12431
002.	-12432
1,58	-12433
1872	-12434
1999	-12435
2.1.	-12436
2/19	-12437
2009	-12438
219.	-12439
3500	-12440
411.	-12441
439.	-12442
500.	-12443
5040	-12444
6000	-12445
6031	-12446
7.14	-12447
715,	-12448
72.0	-12449
8784	-12450
Alex	-12451
Alph	-12452
Amer	-12453
Comm	-12454
Cook	-12455
Jong	-12456
Laur	-12457
NRBQ	-12458
Oper	-12459
Vice	-12460
aena	-12461
aila	-12462
alnd	-12463
amrk	-12464
anat	-12465
andú	-12466
area	-12467
areo	-12468
arft	-12469
bien	-12470
both	-12471
cent	-12472
cian	-12473
cond	-12474
dean	-12475
dece	-12476
dert	-12477
doll	-12478
east	-12479
eech	-12480
elic	-12481
emen	-12482
ened	-12483
erch	-12484
esor	-12485
ethe	-12486
eths	-12487
film	-12488
flow	-12489
hrán	-12490
icof	-12491
icts	-12492
idge	-12493
iety	-12494
ievo	-12495
ifth	-12496
igen	-12497
igit	-12498
iies	-12499
,238	-12500
,497	-12501
,850	-12502
3671	-12503
ikow	-12504
ilas	-12505
imat	-12506
inic	-12507
ipad	-12508
iple	-12509
kway	-12510
lion	-12511
mity	-12512
ocol	-12513
oron	-12514
ouza	-12515
pite	-12516
pred	-12517
rect	-12518
reys	-12519
rons	-12520
tona	-12521
trin	-12522
ucia	-12523
ulan	-12524
umer	-12525
urat	-12526
usan	-12527
went	-12528
work	-12529
xMTU	-12530
▁(05	-12531
▁.21	-12532
▁0.9	-12533
▁03,	-12534
▁1,2	-12535
▁102	-12536
▁154	-12537
▁160	-12538
▁171	-12539
▁2,9	-12540
▁205	-12541
▁24,	-12542
▁243	-12543
▁258	-12544
▁268	-12545
▁325	-12546
▁334	-12547
▁346	-12548
▁352	-12549
▁39,	-12550
▁4/4	-12551
▁458	-12552
▁470	-12553
▁972	-12554
▁AIr	-12555
▁Adr	-12556
▁Agr	-12557
▁AlP	-12558
▁Ald	-12559
▁Api	-12560
▁BCC	-12561
▁Dup	-12562
▁INf	-12563
▁Izm	-12564
▁MAT	-12565
▁NWS	-12566
▁Pfk	-12567
▁Por	-12568
▁RSC	-12569
▁Rel	-12570
▁Tah	-12571
▁Ten	-12572
▁Thr	-12573
▁VFL	-12574
▁Wic	-12575
▁Zel	-12576
▁adv	-12577
▁aff	-12578
▁alt	-12579
▁ans	-12580
▁any	-12581
▁bay	-12582
▁cop	-12583
▁cul	-12584
▁cur	-12585
▁det	-12586
▁dev	-12587
▁eas	-12588
▁fav	-12589
▁few	-12590
▁fly	-12591
▁fun	-12592
▁fur	-12593
▁hon	-12594
▁inA	-12595
▁int	-12596
▁isP	-12597
▁isT	-12598
▁lab	-12599
▁lik	-12600
▁lot	-12601
▁mak	-12602
▁old	-12603
▁son	-12604
▁tal	-12605
▁tot	-12606
▁yet	-12607
-130'	-12608
-23".	-12609
/1980	-12610
/2009	-12611
1966.	-12612
226".	-12613
25326	-12614
3,309	-12615
3523.	-12616
5-20,	-12617
7,170	-12618
77.41	-12619
80-04	-12620
9,705	-12621
9,942	-12622
ADICE	-12623
Adams	-12624
Armin	-12625
Asian	-12626
Death	-12627
Essex	-12628
Force	-12629
Fried	-12630
James	-12631
Kovac	-12632
Mayor	-12633
Print	-12634
Queen	-12635
Salem	-12636
Solan	-12637
acted	-12638
admia	-12639
adors	-12640
adrid	-12641
aenau	-12642
agana	-12643
ained	-12644
alone	-12645
andom	-12646
antis	-12647
araya	-12648
arily	-12649
asian	-12650
auces	-12651
awned	-12652
aying	-12653
ayler	-12654
bases	-12655
birth	-12656
bread	-12657
breiv	-12658
ctore	-12659
dered	-12660
disco	-12661
dwell	-12662
einto	-12663
enada	-12664
entia	-12665
eryth	-12666
genus	-12667
group	-12668
heria	-12669
iates	-12670
ictas	-12671
inton	-12672
ipine	-12673
ision	-12674
itaba	-12675
mance	-12676
metre	-12677
motto	-12678
oacea	-12679
orpor	-12680
orthy	-12681
outis	-12682
polit	-12683
ports	-12684
rnell	-12685
south	-12686
vocal	-12687
wadan	-12688
▁"101	-12689
▁0,54	-12690
▁0.54	-12691
▁0.88	-12692
▁06/2	-12693
▁1,62	-12694
▁1080	-12695
▁127"	-12696
▁1600	-12697
▁164.	-12698
▁1935	-12699
▁1969	-12700
▁1979	-12701
▁2010	-12702
▁214.	-12703
▁2194	-12704
▁229.	-12705
▁3/10	-12706
▁3/16	-12707
▁3/21	-12708
▁320-	-12709
▁3331	-12710
▁3684	-12711
▁388-	-12712
▁4019	-12713
▁4100	-12714
▁43.0	-12715
▁4387	-12716
▁469,	-12717
▁476.	-12718
▁512,	-12719
▁6,81	-12720
▁714,	-12721
▁806,	-12722
▁877.	-12723
▁896.	-12724
▁9.7.	-12725
▁9/27	-12726
▁929.	-12727
▁Aida	-12728
▁Amir	-12729
▁Azal	-12730
▁Baad	-12731
▁Batt	-12732
▁Bian	-12733
▁Bini	-12734
▁Bolf	-12735
▁Char	-12736
▁Curr	-12737
▁Dail	-12738
▁Econ	-12739
▁Eenh	-12740
▁Garn	-12741
▁HARM	-12742
▁Home	-12743
▁Hugh	-12744
▁Infr	-12745
▁Kaag	-12746
▁Kirk	-12747
▁Moor	-12748
▁NAeL	-12749
▁Peso	-12750
▁Tour	-12751
▁Vint	-12752
▁WIld	-12753
▁Weft	-12754
▁Werf	-12755
▁Xial	-12756
▁bron	-12757
▁even	-12758
▁fact	-12759
▁fort	-12760
▁happ	-12761
▁inag	-12762
▁insp	-12763
▁keyp	-12764
▁late	-12765
▁list	-12766
▁lost	-12767
▁math	-12768
▁mini	-12769
▁mult	-12770
▁park	-12771
▁phil	-12772
▁rele	-12773
▁saus	-12774
▁soci	-12775
▁sqkm	-12776
▁stra	-12777
▁theM	-12778
▁thee	-12779
▁whet	-12780
▁winn	-12781
-07-01	-12782
-1891.	-12783
/2004.	-12784
09.01.	-12785
6031.0	-12786
729,43	-12787
ASCQAG	-12788
Alpena	-12789
Boeing	-12790
Chievo	-12791
Collin	-12792
County	-12793
Davuto	-12794
Donell	-12795
Gaffey	-12796
Hungar	-12797
Legion	-12798
Luanda	-12799
Madrid	-12800
Maiden	-12801
Malays	-12802
Nether	-12803
Orange	-12804
Parana	-12805
Pogson	-12806
Stöger	-12807
annock	-12808
aretta	-12809
arians	-12810
assemb	-12811
attack	-12812
compan	-12813
edicts	-12814
elinid	-12815
ements	-12816
ethnic	-12817
iciana	-12818
inigit	-12819
ippine	-12820
ippino	-12821
iville	-12822
lusdes	-12823
mander	-12824
oteles	-12825
partly	-12826
postal	-12827
predec	-12828
runway	-12829
sander	-12830
spoken	-12831
sponge	-12832
unders	-12833
urally	-12834
within	-12835
worked	-12836
▁"1967	-12837
▁(1872	-12838
▁.0252	-12839
▁05-20	-12840
▁09/05	-12841
▁102,3	-12842
▁11/39	-12843
▁1500.	-12844
▁16.37	-12845
▁1634,	-12846
▁1635:	-12847
▁168),	-12848
▁17.92	-12849
▁17/03	-12850
▁1901.	-12851
▁1904)	-12852
▁1907)	-12853
▁1908,	-12854
▁1921,	-12855
▁1928)	-12856
▁1929,	-12857
▁1939.	-12858
▁1947.	-12859
▁1948,	-12860
▁1949.	-12861
▁1953.	-12862
▁1973.	-12863
▁2,195	-12864
▁2,215	-12865
▁2/20.	-12866
▁2000;	-12867
▁2007.	-12868
▁2008,	-12869
▁2010.	-12870
▁211.0	-12871
▁22.1.	-12872
▁24.0,	-12873
▁2744.	-12874
▁2776.	-12875
▁2900.	-12876
▁3,800	-12877
▁3/21.	-12878
▁324.0	-12879
▁3310.	-12880
▁3500,	-12881
▁3684.	-12882
▁39599	-12883
▁4,000	-12884
▁4,100	-12885
▁4100.	-12886
▁490.0	-12887
▁500.0	-12888
▁518.0	-12889
▁524.0	-12890
▁6,573	-12891
▁63800	-12892
▁7,202	-12893
▁7.08,	-12894
▁8,788	-12895
▁9001.	-12896
▁95040	-12897
▁Aarhu	-12898
▁Allam	-12899
▁Arhus	-12900
▁Aries	-12901
▁Bakew	-12902
▁Barak	-12903
▁Being	-12904
▁Beths	-12905
▁Birth	-12906
▁Clubs	-12907
▁Cream	-12908
▁Deers	-12909
▁Didge	-12910
▁Dusan	-12911
▁Eliot	-12912
▁Jesús	-12913
▁Julie	-12914
▁Kaila	-12915
▁Kings	-12916
▁Mayer	-12917
▁Money	-12918
▁Onion	-12919
▁Parts	-12920
▁Piano	-12921
▁Plays	-12922
▁Sates	-12923
▁Since	-12924
▁Souza	-12925
▁Tripp	-12926
▁Vilas	-12927
▁Which	-12928
▁actor	-12929
▁alumn	-12930
▁apium	-12931
▁baade	-12932
▁basil	-12933
▁bengo	-12934
▁carry	-12935
▁chief	-12936
▁chute	-12937
▁circa	-12938
▁coinc	-12939
▁could	-12940
▁dales	-12941
▁daugh	-12942
▁exist	-12943
▁fifth	-12944
▁flown	-12945
▁lasts	-12946
▁looks	-12947
▁louis	-12948
▁manor	-12949
▁media	-12950
▁month	-12951
▁numer	-12952
▁outer	-12953
▁overs	-12954
▁pasta	-12955
▁singe	-12956
▁snack	-12957
▁sound	-12958
▁stret	-12959
▁techn	-12960
▁telev	-12961
▁times	-12962
▁would	-12963
▁~500.	-12964
,951,58	-12965
-03-04.	-12966
-05-20,	-12967
-07-13.	-12968
/03/194	-12969
000000,	-12970
100,000	-12971
367194.	-12972
447,000	-12973
5739224	-12974
920,600	-12975
Adisham	-12976
Alabama	-12977
Alfredo	-12978
Atlanta	-12979
Austria	-12980
Bhangra	-12981
Harriet	-12982
Journal	-12983
Lambien	-12984
Madison	-12985
Steuben	-12986
Trenton	-12987
akewell	-12988
anataka	-12989
ariants	-12990
astella	-12991
dollars	-12992
enhower	-12993
ericans	-12994
ibility	-12995
imately	-12996
inaugur	-12997
ization	-12998
medabad	-12999
nesburg	-13000
ocolate	-13001
retired	-13002
versity	-13003
▁"1-4-2	-13004
▁(77.41	-13005
▁08/26,	-13006
▁1,121,	-13007
▁1,219.	-13008
▁1,411.	-13009
▁1,982,	-13010
▁1.337.	-13011
▁1.524,	-13012
▁13,123	-13013
▁14/32.	-13014
▁1411.0	-13015
▁1472.0	-13016
▁1510.0	-13017
▁16/34.	-13018
▁16000,	-13019
▁17,000	-13020
▁1773.0	-13021
▁19,238	-13022
▁1962,.	-13023
▁1966..	-13024
▁2,194.	-13025
▁2,439.	-13026
▁2009".	-13027
▁2009..	-13028
▁252000	-13029
▁253260	-13030
▁268.0.	-13031
▁3453.0	-13032
▁347.1)	-13033
▁3684.0	-13034
▁371,24	-13035
▁38.892	-13036
▁4,019.	-13037
▁4019.0	-13038
▁4100.0	-13039
▁4387.0	-13040
▁497.0,	-13041
▁7,715,	-13042
▁929.0.	-13043
▁Aaoron	-13044
▁Abrahm	-13045
▁Airpot	-13046
▁Akrons	-13047
▁Altona	-13048
▁Antare	-13049
▁Atlass	-13050
▁Barboz	-13051
▁Beinto	-13052
▁Billie	-13053
▁Colman	-13054
▁Diemen	-13055
▁Dupage	-13056
▁Dwight	-13057
▁Europe	-13058
▁Julius	-13059
▁Jwadan	-13060
▁Kheria	-13061
▁Metres	-13062
▁Millar	-13063
▁Moline	-13064
▁Poacea	-13065
▁Porius	-13066
▁Rappah	-13067
▁Ribbon	-13068
▁Romane	-13069
▁Sarwak	-13070
▁Signed	-13071
▁Sludge	-13072
▁Tahran	-13073
▁Unites	-13074
▁Vermon	-13075
▁Voutis	-13076
▁Wakrah	-13077
▁Wiliam	-13078
▁Zeland	-13079
▁airing	-13080
▁banjos	-13081
▁better	-13082
▁builds	-13083
▁comman	-13084
▁crisis	-13085
▁entity	-13086
▁hockey	-13087
▁indian	-13088
▁jersey	-13089
▁lasted	-13090
▁little	-13091
▁makers	-13092
▁manage	-13093
▁mashed	-13094
▁mexico	-13095
▁mostly	-13096
▁musics	-13097
▁nearby	-13098
▁needed	-13099
▁opened	-13100
▁owners	-13101
▁perfor	-13102
▁random	-13103
▁result	-13104
▁sauces	-13105
▁stared	-13106
▁studio	-13107
▁styled	-13108
▁traced	-13109
▁turned	-13110
▁versus	-13111
▁widely	-13112
▁worker	-13113
,850,000	-13114
/01/1989	-13115
Aurakles	-13116
Business	-13117
Columbus	-13118
Dunwoody	-13119
Pakistan	-13120
Paraguay	-13121
aircraft	-13122
aucasian	-13123
authored	-13124
deceased	-13125
dertbaan	-13126
division	-13127
erything	-13128
formally	-13129
ombonist	-13130
produced	-13131
riestown	-13132
stitutes	-13133
▁"2158-3	-13134
▁100,305	-13135
▁13017,0	-13136
▁139,705	-13137
▁1411.0.	-13138
▁1461102	-13139
▁167.94.	-13140
▁1773.0.	-13141
▁179,942	-13142
▁1818.0.	-13143
▁183,309	-13144
▁2002-12	-13145
▁3300.0.	-13146
▁3310.0,	-13147
▁336265.	-13148
▁352,497	-13149
▁3684.0.	-13150
▁37116.0	-13151
▁4000.0,	-13152
▁4019.0.	-13153
▁410777)	-13154
▁437,170	-13155
▁445,895	-13156
▁488160.	-13157
▁85466.9	-13158
▁9953.28	-13159
▁Abradad	-13160
▁Aderson	-13161
▁Advance	-13162
▁Aleksay	-13163
▁Bakwell	-13164
▁Banaman	-13165
▁Battles	-13166
▁Blaenau	-13167
▁Bodhrán	-13168
▁Current	-13169
▁Denamrk	-13170
▁Dessert	-13171
▁Economy	-13172
▁Eireann	-13173
▁Ffestin	-13174
▁Finalnd	-13175
▁Gujurat	-13176
▁Heinlen	-13177
▁Helipad	-13178
▁Ivkovic	-13179
▁Jwayden	-13180
▁Kuttitt	-13181
▁Machine	-13182
▁Mariott	-13183
▁Mississ	-13184
▁Playing	-13185
▁Reserch	-13186
▁Ribicof	-13187
▁Singing	-13188
▁Summity	-13189
▁Tourism	-13190
▁Turners	-13191
▁Uraguay	-13192
▁Vintage	-13193
▁Washing	-13194
▁Willian	-13195
▁Xialong	-13196
▁Yamamdú	-13197
▁Yamandú	-13198
▁abbreiv	-13199
▁aircaft	-13200
▁amateur	-13201
▁appears	-13202
▁borough	-13203
▁carried	-13204
▁claimed	-13205
▁closest	-13206
▁collect	-13207
▁continu	-13208
▁covered	-13209
▁cruises	-13210
▁culture	-13211
▁defence	-13212
▁details	-13213
▁devoted	-13214
▁employs	-13215
▁ethinic	-13216
▁exactly	-13217
▁flavour	-13218
▁focuses	-13219
▁further	-13220
▁happens	-13221
▁indigen	-13222
▁journey	-13223
▁nations	-13224
▁passing	-13225
▁peoples	-13226
▁periodd	-13227
▁players	-13228
▁premier	-13229
▁serverd	-13230
▁spawned	-13231
▁stopped	-13232
▁systems	-13233
▁tarrant	-13234
▁variety	-13235
▁weights	-13236
▁winners	-13237
/01/1969.	-13238
/30/1979.	-13239
Blackpool	-13240
Davutoğlu	-13241
Friedrich	-13242
Lauraceae	-13243
Manhattan	-13244
Nashville	-13245
Operation	-13246
Winnebago	-13247
assembled	-13248
christian	-13249
commanded	-13250
condensed	-13251
flowering	-13252
nicknamed	-13253
orporates	-13254
succeeded	-13255
ufacturer	-13256
▁"1980-04	-13257
▁11473.9,	-13258
▁28,1966.	-13259
▁4/4/2009	-13260
▁47487.6,	-13261
▁7,729,43	-13262
▁90640840	-13263
▁Accadmia	-13264
▁Alcharya	-13265
▁Americas	-13266
▁Amirillo	-13267
▁Apiaceae	-13268
▁Attached	-13269
▁Bethseda	-13270
▁Caldwell	-13271
▁Chirikow	-13272
▁Conrnell	-13273
▁Curitaba	-13274
▁Eenhoorn	-13275
▁Felictas	-13276
▁Governer	-13277
▁Infrareo	-13278
▁Kaagbaan	-13279
▁Karnatka	-13280
▁Matadors	-13281
▁McDonnel	-13282
▁Mexicans	-13283
▁Mountain	-13284
▁Oostbaan	-13285
▁Plantain	-13286
▁Preceded	-13287
▁Rubicoff	-13288
▁Services	-13289
▁Shuvulan	-13290
▁Spaniard	-13291
▁Students	-13292
▁Telagana	-13293
▁Thunders	-13294
▁Wiconsin	-13295
▁accompan	-13296
▁advances	-13297
▁aircarft	-13298
▁assemble	-13299
▁birthday	-13300
▁bordered	-13301
▁compares	-13302
▁congress	-13303
▁daughter	-13304
▁employee	-13305
▁fighting	-13306
▁fortress	-13307
▁infantry	-13308
▁kilogram	-13309
▁launches	-13310
▁locaated	-13311
▁movement	-13312
▁multiple	-13313
▁numerous	-13314
▁occupies	-13315
▁overseen	-13316
▁powering	-13317
▁preserve	-13318
▁products	-13319
▁projects	-13320
▁recently	-13321
▁released	-13322
▁retained	-13323
▁sausages	-13324
▁senators	-13325
▁shipyard	-13326
▁studiies	-13327
▁utilizes	-13328
▁variants	-13329
6031.0867.	-13330
Azerbaijan	-13331
Derbyshire	-13332
Georgetown	-13333
Sarvapalli	-13334
breviation	-13335
politician	-13336
▁0002-9327	-13337
▁0269-9370	-13338
▁1,622.213	-13339
▁1732-2421	-13340
▁1865-8784	-13341
▁1999-05-2	-13342
▁27367194.	-13343
▁511592000	-13344
▁560090.".	-13345
▁57392246,	-13346
▁69862200,	-13347
▁69862200.	-13348
▁76798317,	-13349
▁AIDstella	-13350
▁Airportis	-13351
▁Alexsandr	-13352
▁Bartalone	-13353
▁Beintoite	-13354
▁Benedicts	-13355
▁Clemantis	-13356
▁Defenders	-13357
▁Deryshire	-13358
▁Ethelwald	-13359
▁Filippino	-13360
▁Fiorentia	-13361
▁Frenchman	-13362
▁Humphreys	-13363
▁Institude	-13364
▁Lufthaven	-13365
▁Monuments	-13366
▁Oldendort	-13367
▁Unversity	-13368
▁WIldweeds	-13369
▁Washinton	-13370
▁chocolate	-13371
▁colombian	-13372
▁commenced	-13373
▁conflicts	-13374
▁discipine	-13375
▁flavoured	-13376
▁inclusdes	-13377
▁keyperson	-13378
▁launching	-13379
▁nationals	-13380
▁obtaining	-13381
▁organised	-13382
▁orginated	-13383
▁origintes	-13384
▁possesses	-13385
▁preceeded	-13386
▁primarily	-13387
▁sandwhich	-13388
▁socialist	-13389
Blockbuster	-13390
Commelinids	-13391
Netherlands	-13392
inaugurated	-13393
predecessor	-13394
▁"0567-7920	-13395
▁(0567-7920	-13396
▁01/01/1989	-13397
▁05/21/1936	-13398
▁100305.0"(	-13399
▁1080-6377,	-13400
▁135589000,	-13401
▁142603000,	-13402
▁1558-2868,	-13403
▁1588-2632,	-13404
▁1732-2421,	-13405
▁1853-03-04	-13406
▁1856-09-22	-13407
▁1857-03-04	-13408
▁1875-03-04	-13409
▁1936-05-21	-13410
▁1989-02-24	-13411
▁2004-07.14	-13412
▁2009-04-04	-13413
▁3/17/2013.	-13414
▁30/05/1996	-13415
▁34,920,600	-13416
▁39,447,000	-13417
▁523,951,58	-13418
▁523329000,	-13419
▁AEthelwald	-13420
▁Aidastella	-13421
▁Birthplace	-13422
▁Commelinid	-13423
▁Compressed	-13424
▁Eisenhower	-13425
▁Foundation	-13426
▁Karanataka	-13427
▁Literature	-13428
▁Rebelllion	-13429
▁Strawberry	-13430
▁Zamboangan	-13431
▁attendance	-13432
▁banyumasan	-13433
▁commmander	-13434
▁competitor	-13435
▁components	-13436
▁comprising	-13437
▁controlled	-13438
▁developers	-13439
▁everything	-13440
▁graduation	-13441
▁inagurated	-13442
▁inhabiting	-13443
▁launchsite	-13444
▁legislated	-13445
▁membership	-13446
▁operationg	-13447
▁percussion	-13448
▁performers	-13449
▁publishers	-13450
▁recordings	-13451
▁republican	-13452
▁succcessor	-13453
▁television	-13454
Turkmenistan	-13455
headquarters	-13456
▁"0236-5294"	-13457
▁01-07-1976,	-13458
▁03/04/1853.	-13459
▁03/04/1905,	-13460
▁03/30/1979.	-13461
▁05-20-1891.	-13462
▁09/01/1969.	-13463
▁09/05/1989.	-13464
▁09/27/1987.	-13465
▁10/03/1983,	-13466
▁139,705,000	-13467
▁17/03/2013.	-13468
▁179,942,000	-13469
▁1856-09-22.	-13470
▁1857-03-04.	-13471
▁1891-05-20,	-13472
▁1907-07-11,	-13473
▁1923-11-18.	-13474
▁1927-07-23)	-13475
▁1930-01-20)	-13476
▁1932-03-15.	-13477
▁1936-05-21,	-13478
▁1969.09.01.	-13479
▁1988-11-22.	-13480
▁1989-02-24,	-13481
▁1995-09-02.	-13482
▁2009-10-02.	-13483
▁2014-07-13.	-13484
▁27/09/1987.	-13485
▁30/05/1996.	-13486
▁31.12.2006,	-13487
▁371,240,000	-13488
▁437,170,000	-13489
▁Aristoteles	-13490
▁Harriestown	-13491
▁Harrietsown	-13492
▁Inhabitants	-13493
▁PeterStöger	-13494
▁Phillippine	-13495
▁Visvesaraya	-13496
▁abbreivated	-13497
▁commelinids	-13498
▁constitutes	-13499
▁educational	-13500
▁identifiers	-13501
▁performance	-13502
▁philippines	-13503
▁progressive	-13504
▁psychedelia	-13505
▁psychedelic	-13506
▁specialised	-13507
▁specializes	-13508
▁"0236-5294".	-13509
▁"1588-2632".	-13510
▁"1732-2421".	-13511
▁"2158-3226".	-13512
▁34920600000,	-13513
▁34920600000.	-13514
▁41498400000,	-13515
▁445895000000	-13516
▁Aalsmeerbaan	-13517
▁Johannesburg	-13518
▁Metropolitan	-13519
▁Postgraduate	-13520
▁Rappahannock	-13521
▁Retroviruses	-13522
▁Strawberries	-13523
▁achievements	-13524
▁additionally	-13525
▁affiliations	-13526
▁commemorates	-13527
▁distributing	-13528
▁distribution	-13529
▁incidentally	-13530
▁incorporates	-13531
▁surprisingly	-13532
▁"1980-04-23".	-13533
▁0-374-26131-8	-13534
▁445895000000.	-13535
▁7,715,100,000	-13536
▁7,729,430,000	-13537
▁7729430000.0,	-13538
▁8,788,850,000	-13539
▁Kuttittattoor	-13540
▁monocotyledon	-13541
▁parliamentary	-13542
▁predominantly	-13543
Friedrichshafen	-13544
▁0-439-17685-9,	-13545
▁0-439-92550-9,	-13546
▁0-7156-3648-0,	-13547
▁41498400000.0,	-13548
▁88234300000.0,	-13549
▁categorization	-13550
▁responsibility	-13551
-1-4165-4253-7",	-13552
▁124950000000.0,	-13553
▁352,497,000,000	-13554
▁352497000000.0,	-13555
▁445,895,000,000	-13556
▁445895000000.0,	-13557
!)	-13558
(.	-13559
,'	-13560
,)	-13561
,0	-13562
,2	-13563
,9	-13564
.(	-13565
./	-13566
/7	-13567
08	-13568
1)	-13569
1-	-13570
1;	-13571
2;	-13572
38	-13573
7)	-13574
82	-13575
85	-13576
9)	-13577
:,	-13578
:1	-13579
Ac	-13580
Ah	-13581
Ap	-13582
Bu	-13583
CD	-13584
Eg	-13585
Gr	-13586
HU	-13587
Jo	-13588
KW	-13589
NN	-13590
NZ	-13591
Th	-13592
To	-13593
WI	-13594
ao	-13595
aq	-13596
gd	-13597
gi	-13598
gm	-13599
Id	-13600
Il	-13601
No	-13602
gn	-13603
gé	-13604
hd	-13605
hr	-13606
ht	-13607
kl	-13608
la	-13609
lf	-13610
nt	-13611
oh	-13612
oo	-13613
pt	-13614
rr	-13615
rt	-13616
sa	-13617
td	-13618
tr	-13619
uS	-13620
wi	-13621
|.	-13622
▁#	-13623
▁;	-13624
▁]	-13625
''.	-13626
,90	-13627
.,.	-13628
/04	-13629
106	-13630
25-	-13631
3.2	-13632
30,	-13633
36.	-13634
448	-13635
453	-13636
464	-13637
5"-	-13638
55,	-13639
65-	-13640
66,	-13641
941	-13642
993	-13643
:13	-13644
;")	-13645
;".	-13646
;19	-13647
Alb	-13648
Amp	-13649
Att	-13650
Bal	-13651
Bat	-13652
Ben	-13653
Ber	-13654
Bob	-13655
Bol	-13656
Bre	-13657
Bur	-13658
Car	-13659
Ces	-13660
Dem	-13661
Fel	-13662
Fen	-13663
Fer	-13664
Hap	-13665
Her	-13666
Jon	-13667
Lar	-13668
Lit	-13669
Lub	-13670
Mag	-13671
Met	-13672
Min	-13673
San	-13674
Sri	-13675
Tal	-13676
Taz	-13677
Vir	-13678
Wat	-13679
ads	-13680
ani	-13681
anw	-13682
asi	-13683
bed	-13684
bel	-13685
bia	-13686
boh	-13687
can	-13688
ces	-13689
cis	-13690
col	-13691
cto	-13692
del	-13693
din	-13694
don	-13695
ead	-13696
eas	-13697
edo	-13698
eer	-13699
-2,	-13700
400	-13701
971	-13702
Nov	-13703
day	-13704
ext	-13705
fil	-13706
fin	-13707
flo	-13708
ged	-13709
gom	-13710
had	-13711
hat	-13712
het	-13713
his	-13714
hom	-13715
ias	-13716
ibe	-13717
ibr	-13718
iko	-13719
ild	-13720
inp	-13721
iog	-13722
ipi	-13723
ips	-13724
iry	-13725
jis	-13726
kem	-13727
ker	-13728
kms	-13729
lom	-13730
may	-13731
mis	-13732
mon	-13733
nay	-13734
new	-13735
nin	-13736
nit	-13737
oan	-13738
oce	-13739
oco	-13740
oer	-13741
olg	-13742
ool	-13743
oom	-13744
osv	-13745
otn	-13746
pes	-13747
pro	-13748
pse	-13749
ren	-13750
rol	-13751
rom	-13752
ser	-13753
sur	-13754
tal	-13755
ted	-13756
tit	-13757
tiz	-13758
tmn	-13759
try	-13760
uba	-13761
uim	-13762
unl	-13763
vas	-13764
ven	-13765
vir	-13766
wam	-13767
wat	-13768
▁((	-13769
▁(3	-13770
▁2-	-13771
▁54	-13772
▁AA	-13773
▁AN	-13774
▁AX	-13775
▁Ax	-13776
▁BV	-13777
▁CH	-13778
▁Ca	-13779
▁GD	-13780
▁HP	-13781
▁HU	-13782
▁IT	-13783
▁Ic	-13784
▁If	-13785
▁Ig	-13786
▁Je	-13787
▁MP	-13788
▁Oh	-13789
▁Oo	-13790
▁Pt	-13791
▁RN	-13792
▁Rc	-13793
▁Rm	-13794
▁Ry	-13795
▁TA	-13796
▁Tz	-13797
▁UL	-13798
▁Ut	-13799
Eth	-13800
Tur	-13801
agp	-13802
epr	-13803
gem	-13804
hth	-13805
ivo	-13806
ivs	-13807
ogr	-13808
vle	-13809
▁JV	-13810
▁LI	-13811
▁NE	-13812
▁WV	-13813
▁Wa	-13814
▁bt	-13815
▁ca	-13816
▁ew	-13817
▁fC	-13818
▁ho	-13819
▁hs	-13820
▁hu	-13821
▁ig	-13822
▁ii	-13823
▁jo	-13824
▁ll	-13825
▁lo	-13826
▁om	-13827
▁pu	-13828
▁qu	-13829
▁sc	-13830
▁sm	-13831
▁sr	-13832
▁wi	-13833
-02)	-13834
-05.	-13835
005,	-13836
091.	-13837
1000	-13838
123.	-13839
1932	-13840
1967	-13841
2.0,	-13842
3.88	-13843
4-19	-13844
453.	-13845
682,	-13846
89),	-13847
Beef	-13848
Carr	-13849
City	-13850
Corn	-13851
Cour	-13852
Head	-13853
Hong	-13854
Jeff	-13855
King	-13856
Main	-13857
Mold	-13858
Rand	-13859
Ring	-13860
Rock	-13861
Syst	-13862
aben	-13863
abic	-13864
abit	-13865
adam	-13866
aded	-13867
ades	-13868
agan	-13869
ager	-13870
agra	-13871
aing	-13872
alor	-13873
anci	-13874
anne	-13875
apor	-13876
aret	-13877
aror	-13878
aser	-13879
asis	-13880
atun	-13881
aves	-13882
awas	-13883
ayam	-13884
ayer	-13885
ayes	-13886
bero	-13887
bers	-13888
bird	-13889
chte	-13890
cook	-13891
date	-13892
dess	-13893
ebur	-13894
edem	-13895
eers	-13896
egum	-13897
embe	-13898
enet	-13899
Mex	-13900
Nik	-13901
Pop	-13902
igt	-13903
iun	-13904
lle	-13905
rap	-13906
rst	-13907
155,	-13908
Best	-13909
anst	-13910
ceed	-13911
chad	-13912
egat	-13913
eorg	-13914
erel	-13915
erib	-13916
erof	-13917
erro	-13918
erse	-13919
eted	-13920
etth	-13921
evel	-13922
ewas	-13923
exia	-13924
firm	-13925
gran	-13926
grit	-13927
have	-13928
icle	-13929
icns	-13930
iefs	-13931
ifet	-13932
ighl	-13933
igun	-13934
iita	-13935
iity	-13936
ilia	-13937
ille	-13938
ilor	-13939
inct	-13940
ingr	-13941
isap	-13942
isit	-13943
itia	-13944
itif	-13945
iyed	-13946
jobk	-13947
leon	-13948
less	-13949
ligh	-13950
loin	-13951
lush	-13952
navy	-13953
neal	-13954
nest	-13955
olos	-13956
olov	-13957
olul	-13958
omes	-13959
onse	-13960
ored	-13961
orts	-13962
osel	-13963
otab	-13964
otar	-13965
ouce	-13966
oung	-13967
ounr	-13968
ouns	-13969
path	-13970
pork	-13971
reer	-13972
rein	-13973
rele	-13974
rina	-13975
rite	-13976
rman	-13977
rods	-13978
rric	-13979
shaf	-13980
shub	-13981
sico	-13982
sour	-13983
stow	-13984
that	-13985
tion	-13986
tles	-13987
tura	-13988
uiut	-13989
ulam	-13990
umed	-13991
umms	-13992
uron	-13993
ways	-13994
▁07)	-13995
▁07;	-13996
▁105	-13997
▁143	-13998
▁28.	-13999
6).	-14000
680	-14001
Cop	-14002
Ros	-14003
idb	-14004
lip	-14005
oso	-14006
,103	-14007
-196	-14008
-22"	-14009
/31,	-14010
1928	-14011
Iraq	-14012
Rick	-14013
akew	-14014
alex	-14015
auts	-14016
ided	-14017
ider	-14018
itea	-14019
jeda	-14020
osow	-14021
owas	-14022
shio	-14023
skab	-14024
stud	-14025
ulic	-14026
ulit	-14027
▁29,	-14028
▁4,3	-14029
▁4/7	-14030
▁453	-14031
▁604	-14032
▁8,.	-14033
▁806	-14034
▁833	-14035
▁AGM	-14036
▁Aas	-14037
▁Ach	-14038
▁Alk	-14039
▁Alt	-14040
▁Amc	-14041
▁Bad	-14042
▁Bhn	-14043
▁Chc	-14044
▁Civ	-14045
▁Clu	-14046
▁Cod	-14047
▁Dad	-14048
▁Div	-14049
▁Fas	-14050
▁Fun	-14051
▁Gay	-14052
▁Gla	-14053
▁Gol	-14054
▁Hok	-14055
▁Jap	-14056
▁Lun	-14057
▁NAt	-14058
▁Nat	-14059
▁Nig	-14060
▁Odd	-14061
▁Oil	-14062
▁Pas	-14063
▁Ped	-14064
▁Plc	-14065
▁Pos	-14066
▁SKA	-14067
▁Sep	-14068
▁Sic	-14069
▁Str	-14070
▁Sun	-14071
▁Tod	-14072
▁VIc	-14073
▁Vos	-14074
▁Whe	-14075
▁Who	-14076
▁abd	-14077
▁ace	-14078
▁ahd	-14079
▁amd	-14080
▁ant	-14081
▁asA	-14082
▁asp	-14083
▁bac	-14084
▁bah	-14085
▁ben	-14086
▁bit	-14087
▁bra	-14088
▁byA	-14089
▁byy	-14090
▁dal	-14091
▁dec	-14092
▁dic	-14093
▁dra	-14094
▁esp	-14095
▁est	-14096
▁far	-14097
▁feb	-14098
▁fer	-14099
14)	-14100
42.	-14101
Flo	-14102
afi	-14103
ava	-14104
iut	-14105
0155	-14106
603,	-14107
7.1)	-14108
9,77	-14109
:1.0	-14110
Lira	-14111
ains	-14112
bors	-14113
ceae	-14114
cord	-14115
icky	-14116
iero	-14117
illl	-14118
isty	-14119
okov	-14120
ours	-14121
quia	-14122
shed	-14123
stra	-14124
stut	-14125
utal	-14126
▁FOr	-14127
▁alc	-14128
▁deg	-14129
▁die	-14130
▁flw	-14131
▁fri	-14132
▁fro	-14133
▁fus	-14134
▁har	-14135
▁igr	-14136
▁iin	-14137
▁ing	-14138
▁isS	-14139
▁isa	-14140
▁jet	-14141
▁ked	-14142
▁lan	-14143
▁let	-14144
▁mel	-14145
▁mem	-14146
▁mer	-14147
▁mom	-14148
▁mun	-14149
▁nad	-14150
▁nat	-14151
▁nut	-14152
▁oir	-14153
▁par	-14154
▁pay	-14155
▁pey	-14156
▁ran	-14157
▁raq	-14158
▁rea	-14159
▁ref	-14160
▁ros	-14161
▁say	-14162
▁spp	-14163
▁sty	-14164
▁tem	-14165
▁ton	-14166
▁tor	-14167
▁vir	-14168
▁voc	-14169
▁wag	-14170
▁||.	-14171
"1928	-14172
,000-	-14173
-02".	-14174
/1933	-14175
/2003	-14176
/33".	-14177
00.0,	-14178
0000,	-14179
17,21	-14180
7/01.	-14181
75426	-14182
777),	-14183
88-11	-14184
976.0	-14185
Akita	-14186
Among	-14187
Breaz	-14188
Brian	-14189
Charl	-14190
Davut	-14191
Dutch	-14192
Inger	-14193
Lucky	-14194
Penns	-14195
Steel	-14196
Weeds	-14197
acacy	-14198
achoy	-14199
209	-14200
33.	-14201
jey	-14202
nph	-14203
ugh	-14204
56-1	-14205
Hugh	-14206
Verm	-14207
Work	-14208
atio	-14209
cept	-14210
esso	-14211
evid	-14212
fact	-14213
ioay	-14214
lage	-14215
long	-14216
olio	-14217
onio	-14218
▁634	-14219
▁Rhy	-14220
▁tep	-14221
abbia	-14222
adash	-14223
affil	-14224
after	-14225
ahore	-14226
along	-14227
andam	-14228
andre	-14229
anyet	-14230
atest	-14231
atian	-14232
atica	-14233
attal	-14234
baker	-14235
bertg	-14236
ching	-14237
deral	-14238
earas	-14239
einir	-14240
eline	-14241
ellas	-14242
elled	-14243
eller	-14244
enand	-14245
enure	-14246
eoing	-14247
epoch	-14248
erich	-14249
erses	-14250
essel	-14251
essen	-14252
ewall	-14253
fffer	-14254
final	-14255
frend	-14256
front	-14257
gland	-14258
hajis	-14259
hamai	-14260
icing	-14261
iding	-14262
ilian	-14263
ilipp	-14264
ingue	-14265
inhab	-14266
ining	-14267
iopia	-14268
isted	-14269
janos	-14270
laore	-14271
lcude	-14272
liner	-14273
music	-14274
ngola	-14275
oball	-14276
ocier	-14277
oerge	-14278
onsia	-14279
oring	-14280
ously	-14281
pines	-14282
polis	-14283
rated	-14284
resen	-14285
rlian	-14286
sburn	-14287
stars	-14288
stian	-14289
tated	-14290
teles	-14291
their	-14292
trans	-14293
tyard	-14294
ubbed	-14295
ucted	-14296
ullit	-14297
▁"200	-14298
▁1,51	-14299
014	-14300
58,	-14301
aho	-14302
lck	-14303
pri	-14304
1998	-14305
4,46	-14306
ampl	-14307
clin	-14308
erbi	-14309
erhs	-14310
harj	-14311
iary	-14312
ject	-14313
loit	-14314
mont	-14315
riag	-14316
tary	-14317
vary	-14318
▁104	-14319
▁117	-14320
▁AgM	-14321
▁Bah	-14322
▁Prl	-14323
▁glo	-14324
10000	-14325
4,469	-14326
73993	-14327
853.8	-14328
attor	-14329
cubic	-14330
mitra	-14331
onese	-14332
▁105.	-14333
▁117.	-14334
▁1300	-14335
▁292-	-14336
▁3310	-14337
▁3400	-14338
▁476)	-14339
▁518,	-14340
▁518.	-14341
▁6.38	-14342
▁746.	-14343
▁Aand	-14344
▁Aaro	-14345
▁Addd	-14346
▁Airy	-14347
▁Alab	-14348
▁Alak	-14349
▁Amad	-14350
▁Amap	-14351
▁Atar	-14352
▁Avac	-14353
▁Avis	-14354
▁Ayem	-14355
▁Baid	-14356
▁Baju	-14357
▁Bhaj	-14358
▁Bing	-14359
▁Bion	-14360
▁Burs	-14361
▁Chri	-14362
▁Doge	-14363
▁Eruo	-14364
▁Farm	-14365
▁Fish	-14366
▁Flub	-14367
▁Gray	-14368
▁Heed	-14369
▁ISNN	-14370
▁Ince	-14371
▁Ingr	-14372
▁Itis	-14373
▁KCCN	-14374
▁Kear	-14375
▁Kels	-14376
▁Kont	-14377
▁Koto	-14378
▁LIbr	-14379
▁Lion	-14380
▁Lond	-14381
▁Mije	-14382
▁Mile	-14383
▁Nash	-14384
▁NewJ	-14385
▁Nove	-14386
▁Pard	-14387
▁Pell	-14388
▁Prun	-14389
▁Pter	-14390
▁Rais	-14391
▁Rank	-14392
▁Rust	-14393
▁Sarc	-14394
▁Song	-14395
▁Ster	-14396
▁Syth	-14397
▁TheA	-14398
▁Then	-14399
,,.	-14400
-14	-14401
32.	-14402
:70	-14403
ATW	-14404
eau	-14405
eve	-14406
▁".	-14407
▁Qr	-14408
,978	-14409
-08.	-14410
3.15	-14411
Bolt	-14412
Doug	-14413
Gett	-14414
Rome	-14415
alue	-14416
augr	-14417
iree	-14418
kson	-14419
lyee	-14420
maek	-14421
mass	-14422
sequ	-14423
sons	-14424
ufat	-14425
▁eff	-14426
▁syl	-14427
,906,	-14428
-339.	-14429
/01/1	-14430
03.15	-14431
Aston	-14432
acons	-14433
annel	-14434
apons	-14435
araja	-14436
color	-14437
eanwh	-14438
elson	-14439
izing	-14440
lanta	-14441
▁1055	-14442
▁11-1	-14443
▁250,	-14444
▁Kark	-14445
▁Ulia	-14446
▁adul	-14447
▁affl	-14448
▁agra	-14449
▁ajob	-14450
▁alos	-14451
▁amar	-14452
▁ares	-14453
▁atat	-14454
▁bank	-14455
▁best	-14456
▁boen	-14457
▁bord	-14458
▁boss	-14459
▁brit	-14460
▁caip	-14461
▁cell	-14462
▁cels	-14463
▁ciry	-14464
▁copy	-14465
▁crow	-14466
▁deal	-14467
▁doug	-14468
▁earl	-14469
▁ethn	-14470
▁fron	-14471
▁gone	-14472
▁grad	-14473
▁grop	-14474
▁heav	-14475
▁hone	-14476
▁http	-14477
▁incl	-14478
▁inst	-14479
▁isAG	-14480
▁jets	-14481
▁lauc	-14482
▁lays	-14483
▁leds	-14484
▁love	-14485
▁merg	-14486
▁mile	-14487
▁miss	-14488
▁next	-14489
▁ohio	-14490
▁oven	-14491
▁peda	-14492
▁purs	-14493
▁rece	-14494
▁repl	-14495
▁requ	-14496
▁rich	-14497
▁roch	-14498
▁rome	-14499
,42	-14500
07.	-14501
17.	-14502
49.	-14503
85.	-14504
▁0;	-14505
▁72	-14506
▁uS	-14507
-11.	-14508
2000	-14509
Liga	-14510
asty	-14511
vile	-14512
▁(11	-14513
▁34.	-14514
▁6".	-14515
▁62.	-14516
▁877	-14517
▁Cru	-14518
▁sup	-14519
/1947	-14520
941),	-14521
Andra	-14522
Their	-14523
Turin	-14524
black	-14525
inica	-14526
ioach	-14527
izens	-14528
nered	-14529
pollo	-14530
riott	-14531
risio	-14532
▁1650	-14533
▁229,	-14534
▁283,	-14535
▁360-	-14536
▁Alla	-14537
▁Bron	-14538
▁Flor	-14539
▁Nach	-14540
▁Nert	-14541
▁Parl	-14542
▁Pens	-14543
▁Viel	-14544
▁pais	-14545
▁root	-14546
▁sanw	-14547
▁scre	-14548
▁seed	-14549
▁sits	-14550
▁spin	-14551
▁spir	-14552
▁stri	-14553
▁take	-14554
▁teat	-14555
▁teos	-14556
▁theB	-14557
▁thei	-14558
▁thge	-14559
▁thst	-14560
▁turk	-14561
▁vary	-14562
▁wads	-14563
▁want	-14564
▁wasa	-14565
▁wash	-14566
▁whee	-14567
▁wher	-14568
▁whic	-14569
▁whoa	-14570
▁word	-14571
-10-23	-14572
-10-28	-14573
-1964.	-14574
/1933.	-14575
/1949.	-14576
/2013,	-14577
/28/19	-14578
000.00	-14579
00000,	-14580
07.14.	-14581
10.17.	-14582
10000.	-14583
13/31)	-14584
155,91	-14585
16/199	-14586
2.372.	-14587
253260	-14588
475426	-14589
6.02.2	-14590
6.11.2	-14591
Aarhus	-14592
Aldrin	-14593
Ampara	-14594
Bobina	-14595
Fulton	-14596
Native	-14597
Noords	-14598
Poales	-14599
').	-14600
),.	-14601
,16	-14602
ajj	-14603
▁97	-14604
,329	-14605
700.	-14606
Paul	-14607
ieth	-14608
ogly	-14609
ogor	-14610
rase	-14611
rhan	-14612
▁14'	-14613
▁242	-14614
▁88.	-14615
▁IBN	-14616
,164,	-14617
-1964	-14618
Grant	-14619
ction	-14620
ethup	-14621
hance	-14622
prior	-14623
▁"110	-14624
▁1925	-14625
▁1938	-14626
▁1939	-14627
▁210.	-14628
▁700.	-14629
▁Drag	-14630
▁bajj	-14631
▁case	-14632
▁gulf	-14633
▁hmad	-14634
▁need	-14635
▁owed	-14636
▁prev	-14637
▁shop	-14638
▁stae	-14639
-1964)	-14640
Assaul	-14641
Polish	-14642
Rosids	-14643
Shumai	-14644
Sylvia	-14645
Tayler	-14646
Tejano	-14647
Thakur	-14648
Travis	-14649
abiata	-14650
ablish	-14651
action	-14652
aional	-14653
alevel	-14654
anding	-14655
antake	-14656
ashing	-14657
asions	-14658
atered	-14659
dhoven	-14660
dranda	-14661
eaking	-14662
ebated	-14663
edburg	-14664
elinds	-14665
elston	-14666
emburg	-14667
emeber	-14668
engana	-14669
erhsam	-14670
estown	-14671
ettura	-14672
everal	-14673
eville	-14674
garlic	-14675
harett	-14676
hatten	-14677
iatons	-14678
ibuted	-14679
ically	-14680
icting	-14681
idient	-14682
ilarly	-14683
illais	-14684
ilvano	-14685
imeter	-14686
ioquia	-14687
iraist	-14688
isards	-14689
ishnan	-14690
ithish	-14691
itoite	-14692
kilogr	-14693
lantic	-14694
merick	-14695
metres	-14696
native	-14697
nphrys	-14698
onesca	-14699
)".	-14700
455	-14701
5".	-14702
kyk	-14703
265.	-14704
7110	-14705
Lars	-14706
funk	-14707
iraf	-14708
rete	-14709
uhle	-14710
▁156	-14711
▁Diy	-14712
▁Mcl	-14713
-2015	-14714
142.3	-14715
1995.	-14716
4.722	-14717
Paisa	-14718
first	-14719
lfman	-14720
ombia	-14721
sippi	-14722
ussed	-14723
▁1510	-14724
▁497.	-14725
▁500,	-14726
▁Acrr	-14727
▁Buss	-14728
▁Harn	-14729
▁Loco	-14730
▁Reps	-14731
▁Said	-14732
▁Scne	-14733
▁dept	-14734
▁earn	-14735
▁hail	-14736
▁mars	-14737
▁ries	-14738
▁sept	-14739
/2005,	-14740
6,265.	-14741
Auburn	-14742
minham	-14743
onging	-14744
onnica	-14745
ooking	-14746
ooquia	-14747
oughly	-14748
ounded	-14749
ourite	-14750
player	-14751
rapper	-14752
rected	-14753
rother	-14754
rotrin	-14755
ruited	-14756
rypnyk	-14757
season	-14758
signed	-14759
singhe	-14760
skuhle	-14761
stance	-14762
stanul	-14763
ummsen	-14764
undred	-14765
urency	-14766
virons	-14767
waydan	-14768
ylania	-14769
óteles	-14770
▁"1634	-14771
▁"1971	-14772
▁"2009	-14773
▁(1982	-14774
▁(28.0	-14775
▁(3500	-14776
▁.0155	-14777
▁.0455	-14778
▁03/13	-14779
▁04/11	-14780
▁1,219	-14781
▁1015.	-14782
▁1033,	-14783
▁1036.	-14784
▁11364	-14785
▁12/10	-14786
▁160.0	-14787
▁1634.	-14788
▁1634;	-14789
▁1700.	-14790
▁1800.	-14791
▁1820'	-14792
▁1862)	-14793
▁1885.	-14794
▁1891,	-14795
▁1923)	-14796
▁1955)	-14797
▁1957;	-14798
▁1960.	-14799
.03	-14800
/38	-14801
324	-14802
343	-14803
773	-14804
0.17	-14805
Neal	-14806
uese	-14807
▁.99	-14808
▁20-	-14809
▁473	-14810
▁Psy	-14811
▁adn	-14812
▁aug	-14813
▁mix	-14814
2009.	-14815
5,324	-14816
9,343	-14817
Carlo	-14818
nadon	-14819
▁1219	-14820
▁1580	-14821
▁164(	-14822
▁164;	-14823
▁1977	-14824
▁2099	-14825
▁2743	-14826
▁Aabb	-14827
▁Ajaz	-14828
▁Bone	-14829
▁Fink	-14830
▁Gadh	-14831
▁Plaa	-14832
▁Sabi	-14833
▁adop	-14834
▁alph	-14835
▁good	-14836
▁turf	-14837
.03/21	-14838
0.1793	-14839
Potter	-14840
▁1.773	-14841
▁10/28	-14842
▁1981)	-14843
▁1984.	-14844
▁19963	-14845
▁2001)	-14846
▁20055	-14847
▁23.0.	-14848
▁2953.	-14849
▁3,300	-14850
▁3048.	-14851
▁32.2,	-14852
▁3300.	-14853
▁334),	-14854
▁3990,	-14855
▁44114	-14856
▁722.0	-14857
▁Aabba	-14858
▁Aarom	-14859
▁Abert	-14860
▁Abiba	-14861
▁Adaba	-14862
▁Addic	-14863
▁Ahmas	-14864
▁Airop	-14865
▁Ajobk	-14866
▁Akkem	-14867
▁Alber	-14868
▁Alred	-14869
▁Amdra	-14870
▁Amker	-14871
▁Andal	-14872
▁Andul	-14873
▁Anrew	-14874
▁Anyan	-14875
▁Appro	-14876
▁Archi	-14877
▁Arman	-14878
▁Asilm	-14879
▁Assoc	-14880
▁Astom	-14881
▁Ayamp	-14882
▁Bakes	-14883
▁Barth	-14884
▁Billi	-14885
▁Buren	-14886
▁Calio	-14887
▁Calla	-14888
▁Close	-14889
▁Cover	-14890
▁Craid	-14891
▁Denmn	-14892
▁Distr	-14893
▁Ellit	-14894
▁Españ	-14895
▁Gradu	-14896
▁Guina	-14897
▁Haase	-14898
▁Igoro	-14899
130	-14900
:40	-14901
CCn	-14902
300,	-14903
498,	-14904
68.6	-14905
939.	-14906
Jano	-14907
Reid	-14908
book	-14909
door	-14910
eggs	-14911
eghs	-14912
oids	-14913
pino	-14914
▁240	-14915
▁88,	-14916
/1987	-14917
:404)	-14918
Amman	-14919
edals	-14920
iccal	-14921
ilids	-14922
loved	-14923
nberg	-14924
tains	-14925
▁1868	-14926
▁1949	-14927
▁296,	-14928
▁925,	-14929
▁LCCn	-14930
▁sami	-14931
1,498,	-14932
4,300,	-14933
Bhajji	-14934
France	-14935
Ithaca	-14936
antino	-14937
ocracy	-14938
ysbury	-14939
▁11/18	-14940
▁1918,	-14941
▁1998,	-14942
▁20-14	-14943
▁2939.	-14944
▁88,23	-14945
▁Coper	-14946
▁Illin	-14947
▁Jerse	-14948
▁Jusef	-14949
▁Karat	-14950
▁Known	-14951
▁Label	-14952
▁Lader	-14953
▁Lahor	-14954
▁Lakew	-14955
▁LarsL	-14956
▁Later	-14957
▁Local	-14958
▁Madum	-14959
▁Magic	-14960
▁Malas	-14961
▁Marcy	-14962
▁Marke	-14963
▁Marth	-14964
▁Marti	-14965
▁Maths	-14966
▁Mexio	-14967
▁Miler	-14968
▁Minis	-14969
▁Monum	-14970
▁Mosow	-14971
▁Night	-14972
▁Nolan	-14973
▁Novel	-14974
▁Palsa	-14975
▁Parks	-14976
▁Plaid	-14977
▁Prudn	-14978
▁Raham	-14979
▁Rodgr	-14980
▁Rodri	-14981
▁Rupee	-14982
▁Sabah	-14983
▁Sauce	-14984
▁Sergi	-14985
▁Seria	-14986
▁Sidup	-14987
▁Singe	-14988
▁Sioay	-14989
▁Susan	-14990
▁Talib	-14991
▁Those	-14992
▁Today	-14993
▁Trist	-14994
▁Tukyk	-14995
▁Turks	-14996
▁Twill	-14997
▁Undia	-14998
▁Valis	-14999
/13	-15000
47,	-15001
521	-15002
HAL	-15003
404,	-15004
6,70	-15005
896,	-15006
Asad	-15007
Galt	-15008
When	-15009
atrz	-15010
ehen	-15011
ilva	-15012
like	-15013
when	-15014
▁44,	-15015
▁Kms	-15016
Uttar	-15017
gnoli	-15018
outry	-15019
▁0.0,	-15020
▁1264	-15021
▁2776	-15022
▁734,	-15023
▁Aidi	-15024
▁Jesp	-15025
▁Pete	-15026
▁apop	-15027
▁suce	-15028
▁tidb	-15029
Galtob	-15030
alusia	-15031
kmaair	-15032
▁1,873	-15033
▁16,00	-15034
▁1896.	-15035
▁1910'	-15036
▁1910)	-15037
▁1994,	-15038
▁3/21,	-15039
▁3090.	-15040
▁BLTis	-15041
▁Groom	-15042
▁Kocis	-15043
▁Medic	-15044
▁Paula	-15045
▁Petro	-15046
▁Titan	-15047
▁Vises	-15048
▁Watch	-15049
▁Weigh	-15050
▁Werst	-15051
▁YongK	-15052
▁aircf	-15053
▁alike	-15054
▁andis	-15055
▁asian	-15056
▁auron	-15057
▁bears	-15058
▁begre	-15059
▁board	-15060
▁borni	-15061
▁cames	-15062
▁chair	-15063
▁chool	-15064
▁commn	-15065
▁cones	-15066
▁crowd	-15067
▁delic	-15068
▁disoc	-15069
▁doors	-15070
▁dutch	-15071
▁edger	-15072
▁emper	-15073
▁etron	-15074
▁fired	-15075
▁fourt	-15076
▁frang	-15077
▁gloom	-15078
▁guard	-15079
▁helps	-15080
▁honda	-15081
▁javan	-15082
▁labor	-15083
▁lanka	-15084
▁lcolo	-15085
▁lifet	-15086
▁light	-15087
▁liver	-15088
▁lqbal	-15089
▁lying	-15090
▁maine	-15091
▁match	-15092
▁meber	-15093
▁metes	-15094
▁might	-15095
▁munuf	-15096
▁notew	-15097
▁offer	-15098
▁patry	-15099
(11	-15100
(18	-15101
,18	-15102
411	-15103
Ell	-15104
202.	-15105
7.23	-15106
Linn	-15107
keep	-15108
▁(23	-15109
▁518	-15110
▁Doi	-15111
(11/2	-15112
1923.	-15113
Aenir	-15114
chema	-15115
itsse	-15116
▁02-2	-15117
▁111,	-15118
▁280.	-15119
▁334,	-15120
▁AEth	-15121
▁Jodo	-15122
▁Kind	-15123
▁Only	-15124
▁Tyro	-15125
▁capt	-15126
▁tops	-15127
Elliot	-15128
elhand	-15129
nthony	-15130
oaceas	-15131
taylor	-15132
▁1,411	-15133
▁1/19,	-15134
▁18.00	-15135
▁1927)	-15136
▁21940	-15137
▁7202.	-15138
▁AMrys	-15139
▁Genus	-15140
▁Kotta	-15141
▁Tabre	-15142
▁Vehic	-15143
▁edits	-15144
▁pesos	-15145
▁peter	-15146
▁phase	-15147
▁plack	-15148
▁plaus	-15149
▁point	-15150
▁polul	-15151
▁purch	-15152
▁rated	-15153
▁reach	-15154
▁recor	-15155
▁rents	-15156
▁rocke	-15157
▁ruway	-15158
▁scene	-15159
▁serie	-15160
▁shows	-15161
▁sitte	-15162
▁sizes	-15163
▁spoke	-15164
▁sroke	-15165
▁stage	-15166
▁strip	-15167
▁stylr	-15168
▁tasty	-15169
▁thats	-15170
▁theAd	-15171
▁theam	-15172
▁today	-15173
▁twent	-15174
▁units	-15175
▁unsur	-15176
▁worth	-15177
(11/29)	-15178
(1856-1	-15179
(253260	-15180
-03-04,	-15181
-03-09.	-15182
-04-03.	-15183
-05-09.	-15184
-07-01.	-15185
-10-17)	-15186
-10-17.	-15187
-18-192	-15188
/4/1980	-15189
1060.0.	-15190
16/1998	-15191
2-2002.	-15192
2/1966.	-15193
400,000	-15194
426,000	-15195
521,000	-15196
60-0443	-15197
6000.0.	-15198
60000.0	-15199
Two	-15200
/1,.	-15201
1914	-15202
Also	-15203
Clay	-15204
USAF	-15205
feat	-15206
▁63,	-15207
▁703	-15208
▁TIt	-15209
▁VKB	-15210
-130"	-15211
Idcup	-15212
Reddy	-15213
Tyrol	-15214
asked	-15215
local	-15216
ready	-15217
safen	-15218
▁475,	-15219
▁Been	-15220
▁Soul	-15221
▁leve	-15222
▁poul	-15223
▁tghe	-15224
Alison	-15225
Mexico	-15226
Pierce	-15227
coming	-15228
dalene	-15229
having	-15230
▁1933)	-15231
▁1980,	-15232
▁2,989	-15233
▁27-06	-15234
▁Achar	-15235
▁Butty	-15236
▁Getts	-15237
▁Naran	-15238
▁Stree	-15239
▁amkar	-15240
▁color	-15241
▁legue	-15242
▁luxur	-15243
603000.	-15244
8875313	-15245
:703.95	-15246
Alkmaar	-15247
Astella	-15248
Batagor	-15249
Central	-15250
Charles	-15251
[...]
