<unk>	0
<s>	0
</s>	0
er	-0
▁i	-1
an	-2
▁A	-3
he	-4
en	-5
on	-6
ar	-7
in	-8
at	-9
▁is	-10
▁t	-11
▁S	-12
▁w	-13
as	-14
es	-15
or	-16
▁в	-17
▁in	-18
▁the	-19
▁и	-20
▁d	-21
ic	-22
ed	-23
al	-24
it	-25
ан	-26
is	-27
and	-28
▁o	-29
un	-30
ко	-31
▁of	-32
на	-33
ро	-34
▁1	-35
▁T	-36
▁C	-37
▁M	-38
ет	-39
▁B	-40
ст	-41
▁b	-42
ер	-43
▁s	-44
▁D	-45
ен	-46
▁a	-47
et	-48
▁and	-49
ра	-50
то	-51
▁I	-52
ie	-53
▁с	-54
ch	-55
▁г	-56
00	-57
ди	-58
▁P	-59
▁п	-60
▁"	-61
am	-62
ли	-63
il	-64
ся	-65
▁А	-66
▁-	-67
us	-68
▁R	-69
▁F	-70
▁l	-71
▁p	-72
та	-73
ad	-74
el	-75
om	-76
▁f	-77
▁c	-78
ur	-79
ion	-80
ль	-81
▁G	-82
ol	-83
ir	-84
▁на	-85
▁Al	-86
▁H	-87
und	-88
▁U	-89
но	-90
▁L	-91
▁m	-92
▁h	-93
▁б	-94
ich	-95
em	-96
▁wh	-97
▁The	-98
▁ist	-99
▁E	-100
▁С	-101
ре	-102
▁der	-103
▁ко	-104
▁2	-105
▁v	-106
▁N	-107
▁St	-108
▁g	-109
ны	-110
▁was	-111
▁а	-112
ля	-113
ло	-114
oc	-115
ac	-116
▁19	-117
ни	-118
▁о	-119
де	-120
re	-121
▁W	-122
▁J	-123
ay	-124
ка	-125
ent	-126
по	-127
▁und	-128
ers	-129
▁м	-130
ing	-131
ки	-132
ig	-133
▁го	-134
st	-135
ру	-136
ia	-137
ла	-138
▁In	-139
ein	-140
ри	-141
▁Un	-142
iv	-143
до	-144
art	-145
го	-146
да	-147
▁V	-148
▁von	-149
вля	-150
ation	-151
ro	-152
▁K	-153
▁кото	-154
▁я	-155
unt	-156
ort	-157
ated	-158
ва	-159
ut	-160
ag	-161
▁К	-162
▁М	-163
ount	-164
▁э	-165
вляет	-166
ot	-167
ity	-168
le	-169
хо	-170
▁бы	-171
are	-172
um	-173
те	-174
во	-175
▁со	-176
ter	-177
ber	-178
ес	-179
▁has	-180
▁по	-181
hn	-182
▁О	-183
▁из	-184
▁die	-185
▁(	-186
up	-187
ra	-188
ian	-189
che	-190
ти	-191
id	-192
▁by	-193
ар	-194
ме	-195
ани	-196
▁An	-197
▁Sp	-198
orn	-199
он	-200
▁ро	-201
ле	-202
ce	-203
▁В	-204
▁be	-205
▁к	-206
си	-207
▁ein	-208
▁Am	-209
de	-210
lu	-211
▁Б	-212
▁which	-213
ak	-214
▁Д	-215
зы	-216
▁3	-217
ited	-218
ates	-219
▁Te	-220
ind	-221
▁O	-222
мер	-223
ec	-224
▁United	-225
дит	-226
ный	-227
не	-228
за	-229
вляется	-230
ый	-231
▁ч	-232
all	-233
▁Count	-234
▁П	-235
ere	-236
ap	-237
ско	-238
hr	-239
port	-240
ор	-241
▁an	-242
ew	-243
ци	-244
io	-245
▁County	-246
ходит	-247
ab	-248
ip	-249
▁име	-250
▁является	-251
▁был	-252
▁States	-253
▁у	-254
eg	-255
▁И	-256
ow	-257
rom	-258
ell	-259
▁Air	-260
▁are	-261
ША	-262
▁США	-263
▁le	-264
os	-265
▁loc	-266
▁n	-267
▁имеет	-268
ду	-269
ien	-270
res	-271
▁ра	-272
лу	-273
ве	-274
са	-275
▁Ar	-276
▁k	-277
li	-278
▁ст	-279
▁Ad	-280
▁котор	-281
▁Р	-282
чес	-283
▁from	-284
ational	-285
▁Т	-286
▁As	-287
▁Н	-288
ican	-289
▁pl	-290
лся	-291
лен	-292
ische	-293
▁находит	-294
нг	-295
▁находится	-296
ей	-297
th	-298
ish	-299
est	-300
▁Г	-301
▁за	-302
дер	-303
гра	-304
▁ш	-305
ov	-306
ран	-307
000	-308
▁Ab	-309
eb	-310
▁on	-311
▁r	-312
▁where	-313
▁as	-314
▁Amer	-315
ant	-316
▁located	-317
ма	-318
▁st	-319
ми	-320
▁где	-321
▁for	-322
ul	-323
▁Ind	-324
▁wur	-325
▁шта	-326
ски	-327
спо	-328
ви	-329
кан	-330
".	-331
ub	-332
▁play	-333
ang	-334
▁Die	-335
▁который	-336
▁wurde	-337
po	-338
сть	-339
▁di	-340
ivers	-341
▁al	-342
ром	-343
же	-344
▁lead	-345
▁New	-346
▁роди	-347
",	-348
руп	-349
▁It	-350
зи	-351
▁born	-352
ton	-353
ом	-354
жи	-355
ri	-356
▁Ф	-357
▁д	-358
av	-359
▁Ch	-360
▁игра	-361
ard	-362
ith	-363
ey	-364
▁Airport	-365
▁American	-366
SA	-367
ess	-368
ng	-369
▁Univers	-370
▁ли	-371
ха	-372
ши	-373
ist	-374
usic	-375
▁Mar	-376
op	-377
▁Der	-378
63	-379
ем	-380
ста	-381
▁den	-382
tern	-383
▁music	-384
▁во	-385
▁with	-386
▁gro	-387
▁года	-388
te	-389
▁et	-390
▁it	-391
▁ка	-392
▁Ш	-393
ден	-394
мери	-395
▁sich	-396
▁ethn	-397
01	-398
ack	-399
ain	-400
af	-401
▁leader	-402
ку	-403
▁bef	-404
▁to	-405
▁hat	-406
ud	-407
узы	-408
▁это	-409
мерикан	-410
indet	-411
ной	-412
ба	-413
ана	-414
вер	-415
жен	-416
▁груп	-417
би	-418
0.	-419
▁Л	-420
кон	-421
▁fo	-422
ry	-423
га	-424
▁родился	-425
▁е	-426
▁befindet	-427
ong	-428
па	-429
лю	-430
end	-431
▁als	-432
▁or	-433
▁And	-434
▁4	-435
▁part	-436
▁200	-437
со	-438
род	-439
▁5	-440
ital	-441
▁Tex	-442
ternational	-443
og	-444
▁eine	-445
od	-446
▁at	-447
ird	-448
▁У	-449
▁штат	-450
лан	-451
▁10	-452
qu	-453
▁At	-454
lo	-455
▁University	-456
ча	-457
▁aus	-458
land	-459
споло	-460
ung	-461
▁com	-462
ühr	-463
ran	-464
▁wird	-465
gh	-466
red	-467
сти	-468
▁Texas	-469
▁Eng	-470
се	-471
дин	-472
ест	-473
▁располо	-474
▁He	-475
ке	-476
▁году	-477
ца	-478
тни	-479
ff	-480
пи	-481
▁Он	-482
▁Ak	-483
ров	-484
▁11	-485
▁бе	-486
ust	-487
ная	-488
▁who	-489
▁per	-490
im	-491
ги	-492
▁Gr	-493
ate	-494
▁Z	-495
ge	-496
lin	-497
ember	-498
ский	-499
-1	-500
▁Jo	-501
ik	-502
пу	-503
▁Rom	-504
▁International	-505
▁Ма	-506
▁пре	-507
▁Ap	-508
ace	-509
ря	-510
▁Со	-511
бо	-512
uf	-513
ive	-514
▁Э	-515
ью	-516
ore	-517
▁Alan	-518
▁group	-519
енны	-520
▁Sch	-521
ine	-522
▁Aar	-523
▁ethnic	-524
▁des	-525
▁das	-526
ock	-527
тничес	-528
пор	-529
▁Wil	-530
ент	-531
▁im	-532
ten	-533
цы	-534
sis	-535
ba	-536
▁этничес	-537
льный	-538
пани	-539
▁Аль	-540
ert	-541
▁FC	-542
▁та	-543
ür	-544
▁city	-545
eng	-546
▁язы	-547
age	-548
erv	-549
hen	-550
ington	-551
▁Дж	-552
lub	-553
эро	-554
эропор	-555
▁бекон	-556
▁об	-557
▁Ин	-558
▁американ	-559
way	-560
▁Ан	-561
ork	-562
ус	-563
▁Ver	-564
▁wo	-565
if	-566
▁ком	-567
adt	-568
чи	-569
▁играет	-570
ührer	-571
▁Americans	-572
ex	-573
тов	-574
▁музы	-575
ции	-576
▁ф	-577
▁sp	-578
ash	-579
ah	-580
ут	-581
ary	-582
▁its	-583
▁6	-584
ib	-585
▁соста	-586
кс	-587
▁Reg	-588
apital	-589
,0	-590
ется	-591
rie	-592
▁201	-593
лет	-594
▁Ac	-595
она	-596
▁вы	-597
isc	-598
ame	-599
ann	-600
ischen	-601
▁count	-602
дом	-603
▁пер	-604
▁Er	-605
▁Те	-606
uch	-607
pl	-608
etres	-609
един	-610
own	-611
ill	-612
▁sind	-613
ond	-614
rew	-615
▁capital	-616
▁расположен	-617
oci	-618
ek	-619
ord	-620
icht	-621
sh	-622
iel	-623
rit	-624
anc	-625
▁Соедин	-626
▁USA	-627
▁Se	-628
ют	-629
ones	-630
isch	-631
tur	-632
att	-633
olog	-634
▁lang	-635
der	-636
▁18	-637
▁Bak	-638
uc	-639
ал	-640
▁Х	-641
ubl	-642
▁Ко	-643
▁Cal	-644
ipp	-645
▁man	-646
том	-647
▁Das	-648
ign	-649
ту	-650
▁как	-651
▁plays	-652
▁про	-653
ilom	-654
▁лидер	-655
▁Engl	-656
ам	-657
afen	-658
▁Y	-659
ну	-660
ark	-661
ena	-662
▁II	-663
ком	-664
▁De	-665
aten	-666
chn	-667
ris	-668
▁dem	-669
▁ча	-670
zz	-671
mer	-672
▁serv	-673
▁Mart	-674
жа	-675
igh	-676
кая	-677
ской	-678
▁re	-679
▁country	-680
▁Führer	-681
ly	-682
▁была	-683
ico	-684
▁/	-685
enn	-686
сит	-687
▁Aust	-688
▁так	-689
▁0	-690
hed	-691
ams	-692
▁член	-693
▁Шта	-694
ons	-695
▁которо	-696
amp	-697
ия	-698
0000	-699
ском	-700
▁Techn	-701
▁Sc	-702
ient	-703
оли	-704
▁аэропор	-705
▁ок	-706
▁Нью	-707
▁Ro	-708
ken	-709
urn	-710
▁City	-711
au	-712
▁Е	-713
rin	-714
▁часть	-715
▁Mad	-716
▁Ва	-717
▁195	-718
lugh	-719
ama	-720
▁Wash	-721
lughafen	-722
634	-723
▁Соединенны	-724
▁Land	-725
▁198	-726
нивер	-727
adem	-728
▁12	-729
▁Теха	-730
▁Ass	-731
▁Col	-732
▁ver	-733
▁langu	-734
.0	-735
man	-736
▁AI	-737
▁John	-738
▁Region	-739
mt	-740
igin	-741
▁блю	-742
▁th	-743
▁found	-744
▁Ha	-745
▁Ка	-746
▁Gre	-747
▁ges	-748
▁Washington	-749
lant	-750
ative	-751
ситет	-752
ниверситет	-753
ja	-754
iana	-755
▁8	-756
▁199	-757
eter	-758
рая	-759
▁7	-760
▁Anders	-761
▁столи	-762
ire	-763
ном	-764
ue	-765
▁которая	-766
▁Ger	-767
ara	-768
▁mit	-769
▁war	-770
ier	-771
▁origin	-772
▁также	-773
▁e	-774
▁AC	-775
ков	-776
ob	-777
per	-778
▁Man	-779
▁Technolog	-780
ев	-781
сто	-782
▁де	-783
ta	-784
тель	-785
▁also	-786
▁стран	-787
ens	-788
▁am	-789
▁Bu	-790
реди	-791
ек	-792
▁member	-793
eck	-794
▁сво	-795
▁ре	-796
рон	-797
▁IS	-798
ил	-799
вани	-800
ного	-801
▁ab	-802
ена	-803
ok	-804
ont	-805
▁25	-806
ished	-807
bur	-808
ean	-809
ect	-810
мет	-811
vil	-812
▁до	-813
▁Ital	-814
oy	-815
ща	-816
▁Speck	-817
▁geb	-818
▁Martin	-819
▁но	-820
uth	-821
chit	-822
ур	-823
bert	-824
▁Mat	-825
▁193	-826
ты	-827
▁окру	-828
▁Alf	-829
▁Flughafen	-830
дером	-831
upt	-832
▁его	-833
ston	-834
iforn	-835
▁run	-836
▁ch	-837
ass	-838
▁died	-839
▁родом	-840
▁spo	-841
▁played	-842
▁горо	-843
▁от	-844
▁Mon	-845
ute	-846
▁1634	-847
▁Инди	-848
▁language	-849
▁club	-850
▁Co	-851
▁Haupt	-852
yl	-853
рит	-854
▁Ба	-855
ollo	-856
▁Apollo	-857
▁York	-858
son	-859
onn	-860
▁spoken	-861
ис	-862
gred	-863
▁runway	-864
▁Ро	-865
▁ingred	-866
▁ingredient	-867
▁воз	-868
emb	-869
злет	-870
▁Fran	-871
доч	-872
поса	-873
злетно	-874
посадоч	-875
лос	-876
over	-877
нгреди	-878
ef	-879
▁16	-880
vel	-881
ais	-882
ident	-883
сон	-884
▁групп	-885
),	-886
rad	-887
▁17	-888
ahr	-889
▁Le	-890
ASA	-891
▁one	-892
ice	-893
ное	-894
ин	-895
луб	-896
▁NASA	-897
use	-898
ham	-899
▁Willi	-900
▁ингреди	-901
acon	-902
lack	-903
▁se	-904
▁he	-905
rieb	-906
ica	-907
▁192	-908
ilot	-909
▁при	-910
).	-911
umber	-912
▁Mend	-913
▁Austin	-914
▁гра	-915
анг	-916
pr	-917
oren	-918
stit	-919
▁составляет	-920
arya	-921
charya	-922
org	-923
анд	-924
ня	-925
ным	-926
нгто	-927
ай	-928
▁Acharya	-929
▁Atlant	-930
hus	-931
▁под	-932
▁гово	-933
▁gen	-934
лий	-935
ball	-936
▁English	-937
any	-938
▁Instit	-939
▁пери	-940
▁Аб	-941
тер	-942
▁взлетно	-943
▁компани	-944
▁14	-945
▁город	-946
▁Af	-947
▁Ag	-948
▁Aarhus	-949
nd	-950
ays	-951
▁Ant	-952
▁Aston	-953
▁Соединенных	-954
ka	-955
▁умер	-956
▁z	-957
ose	-958
▁air	-959
▁manag	-960
▁für	-961
лекс	-962
ие	-963
ieg	-964
▁'	-965
▁9	-966
▁All	-967
arb	-968
ов	-969
лужи	-970
▁196	-971
вает	-972
▁AF	-973
iz	-974
▁Indones	-975
drin	-976
▁играл	-977
ou	-978
▁27	-979
▁мо	-980
▁Verein	-981
▁geboren	-982
▁мет	-983
▁З	-984
▁Grup	-985
ma	-986
ene	-987
ersey	-988
ший	-989
зд	-990
ott	-991
▁Jersey	-992
дж	-993
ade	-994
▁15	-995
▁пло	-996
▁rock	-997
тор	-998
▁Institute	-999
▁группа	-1000
ast	-1001
бер	-1002
▁Aaron	-1003
хи	-1004
▁Aldrin	-1005
▁Br	-1006
▁для	-1007
▁ж	-1008
▁Pres	-1009
-2	-1010
10	-1011
шингто	-1012
3.	-1013
▁университет	-1014
ред	-1015
▁столица	-1016
▁Span	-1017
gest	-1018
▁членом	-1019
▁он	-1020
ater	-1021
lied	-1022
▁US	-1023
cadem	-1024
ft	-1025
itg	-1026
▁La	-1027
itglied	-1028
пра	-1029
▁Rec	-1030
▁dish	-1031
▁говоря	-1032
ании	-1033
plet	-1034
pe	-1035
▁Record	-1036
▁Inf	-1037
rieben	-1038
▁AID	-1039
ную	-1040
▁Es	-1041
нов	-1042
▁leng	-1043
▁пред	-1044
eem	-1045
▁Gro	-1046
▁1963	-1047
англий	-1048
▁Mal	-1049
руется	-1050
ких	-1051
▁городе	-1052
▁Вашингто	-1053
rid	-1054
▁Ho	-1055
stadt	-1056
▁американцы	-1057
sch	-1058
▁Ph	-1059
eh	-1060
▁Q	-1061
chen	-1062
▁2014	-1063
urk	-1064
▁км	-1065
ат	-1066
Аль	-1067
▁язык	-1068
▁Mendris	-1069
мен	-1070
6.	-1071
▁Mary	-1072
otball	-1073
▁Bat	-1074
▁bet	-1075
arac	-1076
▁клуб	-1077
▁Akeem	-1078
▁El	-1079
▁Re	-1080
▁Technology	-1081
жно	-1082
▁spiel	-1083
▁Californ	-1084
▁Mendrisio	-1085
▁te	-1086
▁Ли	-1087
▁Ge	-1088
ae	-1089
▁говорят	-1090
ument	-1091
▁stam	-1092
ron	-1093
вал	-1094
▁length	-1095
ел	-1096
зии	-1097
shire	-1098
▁genre	-1099
▁number	-1100
бли	-1101
▁oper	-1102
▁California	-1103
щад	-1104
▁ма	-1105
ella	-1106
-0	-1107
92	-1108
▁She	-1109
▁Andrew	-1110
van	-1111
ссо	-1112
oll	-1113
ric	-1114
фор	-1115
▁най	-1116
▁Stadt	-1117
eit	-1118
ett	-1119
▁се	-1120
arn	-1121
burg	-1122
▁Hall	-1123
▁Buzz	-1124
▁По	-1125
▁ass	-1126
ight	-1127
ove	-1128
rac	-1129
▁Zut	-1130
▁kilom	-1131
▁Records	-1132
ding	-1133
▁т	-1134
itz	-1135
▁stammt	-1136
ublic	-1137
▁Pr	-1138
▁од	-1139
▁ор	-1140
ippin	-1141
▁ground	-1142
▁Алекс	-1143
▁Hauptstadt	-1144
▁103	-1145
▁«	-1146
жена	-1147
▁лидером	-1148
щи	-1149
▁ки	-1150
бря	-1151
8.	-1152
арти	-1153
фи	-1154
▁Ра	-1155
▁мест	-1156
▁groups	-1157
жден	-1158
су	-1159
гла	-1160
▁William	-1161
ite	-1162
ool	-1163
▁испо	-1164
ель	-1165
▁Indiana	-1166
ные	-1167
▁Turk	-1168
eren	-1169
теле	-1170
▁Archit	-1171
rü	-1172
▁31	-1173
ison	-1174
▁led	-1175
▁этническая	-1176
▁auch	-1177
▁Alb	-1178
▁Me	-1179
▁дли	-1180
утбо	-1181
ru	-1182
LC	-1183
aj	-1184
▁Gericht	-1185
циа	-1186
ского	-1187
▁Madrid	-1188
▁Техас	-1189
▁англий	-1190
▁полос	-1191
ство	-1192
▁Com	-1193
outh	-1194
звани	-1195
▁Sprac	-1196
▁National	-1197
▁Vereinig	-1198
her	-1199
▁уров	-1200
▁band	-1201
ins	-1202
▁whose	-1203
ville	-1204
▁Adams	-1205
вя	-1206
нем	-1207
ера	-1208
iet	-1209
▁Her	-1210
quare	-1211
дуна	-1212
▁eng	-1213
пол	-1214
ach	-1215
▁которого	-1216
пис	-1217
▁For	-1218
▁Alex	-1219
▁пост	-1220
▁частью	-1221
ikan	-1222
▁name	-1223
вет	-1224
arl	-1225
еж	-1226
for	-1227
▁23	-1228
лифор	-1229
лифорни	-1230
ales	-1231
ые	-1232
aw	-1233
чески	-1234
рем	-1235
arian	-1236
▁his	-1237
▁Vereinigten	-1238
еждуна	-1239
еждународ	-1240
las	-1241
auce	-1242
ister	-1243
▁аэропорт	-1244
bahn	-1245
▁reg	-1246
▁возгла	-1247
▁Scien	-1248
▁Штатов	-1249
lt	-1250
we	-1251
9.	-1252
▁ингредиент	-1253
лии	-1254
▁жан	-1255
▁Калифорни	-1256
ster	-1257
▁Black	-1258
▁AFC	-1259
▁Pro	-1260
вой	-1261
▁Ay	-1262
▁музыка	-1263
▁Sport	-1264
2.	-1265
ческо	-1266
▁School	-1267
ick	-1268
▁те	-1269
▁1634:	-1270
▁metres	-1271
liot	-1272
▁comes	-1273
лья	-1274
ave	-1275
lues	-1276
▁area	-1277
▁Atlantic	-1278
▁disc	-1279
▁auf	-1280
▁Си	-1281
ху	-1282
ies	-1283
▁Georg	-1284
▁Elliot	-1285
▁national	-1286
igned	-1287
ед	-1288
arth	-1289
▁площад	-1290
▁Teil	-1291
▁Ис	-1292
eded	-1293
▁Afr	-1294
▁ent	-1295
▁з	-1296
▁Regional	-1297
▁Town	-1298
lä	-1299
more	-1300
снов	-1301
ели	-1302
▁ar	-1303
▁Ang	-1304
од	-1305
ochen	-1306
-3	-1307
60	-1308
жд	-1309
▁suc	-1310
ita	-1311
▁See	-1312
prochen	-1313
71	-1314
▁Па	-1315
▁Mex	-1316
▁Shep	-1317
ys	-1318
▁Sta	-1319
▁India	-1320
▁Malays	-1321
▁gesprochen	-1322
▁Phil	-1323
▁Albert	-1324
▁Ser	-1325
▁Ар	-1326
доне	-1327
▁location	-1328
ных	-1329
▁Public	-1330
▁этнических	-1331
▁1.	-1332
▁de	-1333
▁Аа	-1334
▁served	-1335
▁Sh	-1336
чест	-1337
rans	-1338
ans	-1339
ial	-1340
poch	-1341
▁epoch	-1342
udi	-1343
▁футбо	-1344
▁2000	-1345
▁Sprache	-1346
ne	-1347
▁geg	-1348
▁sein	-1349
▁perfor	-1350
▁входит	-1351
▁Вашингтон	-1352
eks	-1353
тив	-1354
▁ФК	-1355
зиден	-1356
▁Александ	-1357
▁Part	-1358
▁соус	-1359
▁region	-1360
BN	-1361
ome	-1362
ical	-1363
▁Ви	-1364
пе	-1365
az	-1366
▁level	-1367
бор	-1368
музы	-1369
cio	-1370
raz	-1371
ются	-1372
▁publ	-1373
▁Shepard	-1374
▁Monument	-1375
4.	-1376
▁ар	-1377
▁Ram	-1378
▁Aleks	-1379
aus	-1380
än	-1381
orth	-1382
▁мор	-1383
▁ISBN	-1384
▁Jav	-1385
▁Pol	-1386
▁Roman	-1387
▁номер	-1388
▁компанией	-1389
от	-1390
▁km	-1391
▁sea	-1392
unden	-1393
attle	-1394
▁kn	-1395
5.	-1396
из	-1397
▁airport	-1398
▁названи	-1399
uil	-1400
коб	-1401
лас	-1402
▁Calcio	-1403
olf	-1404
▁Sum	-1405
▁Ara	-1406
▁that	-1407
▁кило	-1408
ship	-1409
,0.	-1410
▁есть	-1411
▁Av	-1412
▁AIDA	-1413
▁созд	-1414
cademia	-1415
▁off	-1416
▁above	-1417
▁Ч	-1418
▁нача	-1419
▁Ри	-1420
▁моря	-1421
▁kom	-1422
▁Bean	-1423
▁На	-1424
гу	-1425
jax	-1426
ät	-1427
ago	-1428
▁known	-1429
▁kilometres	-1430
ndet	-1431
ründet	-1432
▁Ajax	-1433
▁Alfred	-1434
▁Accademia	-1435
▁упра	-1436
вест	-1437
▁inc	-1438
aracter	-1439
ondon	-1440
aya	-1441
▁Th	-1442
▁buil	-1443
▁Space	-1444
▁Pal	-1445
▁извест	-1446
7.	-1447
▁блюдо	-1448
▁ба	-1449
▁London	-1450
55	-1451
лли	-1452
арта	-1453
▁Андер	-1454
влен	-1455
istan	-1456
udent	-1457
▁African	-1458
или	-1459
▁Mis	-1460
iated	-1461
▁made	-1462
▁Alc	-1463
▁Rome	-1464
▁Spain	-1465
▁inclu	-1466
▁Township	-1467
▁обс	-1468
▁Испани	-1469
ман	-1470
▁Vir	-1471
▁Meter	-1472
▁Аарон	-1473
que	-1474
▁рабо	-1475
▁явля	-1476
▁Alp	-1477
▁sing	-1478
▁Gu	-1479
pleton	-1480
our	-1481
▁call	-1482
▁engine	-1483
▁Appleton	-1484
▁Long	-1485
▁обслужи	-1486
посадочной	-1487
nge	-1488
▁Альф	-1489
▁Джон	-1490
abl	-1491
лес	-1492
▁Wh	-1493
siss	-1494
▁парти	-1495
▁Mitglied	-1496
дри	-1497
ippi	-1498
ungs	-1499
ummer	-1500
SN	-1501
▁21	-1502
▁Mississ	-1503
ile	-1504
▁Bo	-1505
▁Del	-1506
▁pop	-1507
onf	-1508
публи	-1509
aisa	-1510
tura	-1511
▁Car	-1512
▁Akita	-1513
▁полосы	-1514
▁Mississippi	-1515
▁Ми	-1516
ewell	-1517
▁called	-1518
var	-1519
вший	-1520
64	-1521
▁Са	-1522
стве	-1523
pen	-1524
▁es	-1525
entl	-1526
честве	-1527
мо	-1528
ver	-1529
▁gegründet	-1530
▁расположена	-1531
ilene	-1532
▁качестве	-1533
ina	-1534
▁Sing	-1535
▁Universit	-1536
99	-1537
Йор	-1538
жит	-1539
▁возглавляет	-1540
ase	-1541
hem	-1542
ьер	-1543
▁ав	-1544
ffentl	-1545
▁коман	-1546
ague	-1547
▁округ	-1548
tion	-1549
▁Sol	-1550
▁Infant	-1551
ese	-1552
▁Club	-1553
lanc	-1554
▁Ein	-1555
▁Ex	-1556
▁team	-1557
▁километ	-1558
вига	-1559
▁ISSN	-1560
дам	-1561
iness	-1562
öffentl	-1563
ть	-1564
aka	-1565
▁реги	-1566
▁Abilene	-1567
▁Ah	-1568
▁Bar	-1569
▁врем	-1570
▁период	-1571
▁Ав	-1572
▁cre	-1573
ikaner	-1574
ahrbahn	-1575
▁Fahrbahn	-1576
alt	-1577
▁football	-1578
американ	-1579
88	-1580
eop	-1581
ei	-1582
▁Dec	-1583
▁двига	-1584
▁языке	-1585
▁191	-1586
▁met	-1587
▁date	-1588
оне	-1589
▁Bus	-1590
▁Battle	-1591
▁can	-1592
aceae	-1593
▁Malaysia	-1594
▁20	-1595
essert	-1596
▁Ju	-1597
▁ис	-1598
▁вой	-1599
ность	-1600
▁Алан	-1601
▁Singap	-1602
▁то	-1603
lanco	-1604
▁ingredients	-1605
▁er	-1606
ren	-1607
дни	-1608
eople	-1609
▁operated	-1610
.,	-1611
▁Can	-1612
▁main	-1613
▁ü	-1614
фро	-1615
▁War	-1616
▁пи	-1617
▁gef	-1618
▁эпо	-1619
dul	-1620
▁Aleksand	-1621
фроамерикан	-1622
erence	-1623
▁Abdul	-1624
▁штате	-1625
▁страны	-1626
eba	-1627
▁над	-1628
▁Infantry	-1629
▁published	-1630
▁zu	-1631
▁musical	-1632
дя	-1633
▁perform	-1634
▁singer	-1635
▁Athen	-1636
ерси	-1637
▁über	-1638
зу	-1639
ost	-1640
▁пе	-1641
andw	-1642
▁Frank	-1643
▁округа	-1644
radu	-1645
Апол	-1646
Аполло	-1647
▁associ	-1648
▁уровнем	-1649
ane	-1650
▁Amerikaner	-1651
ves	-1652
den	-1653
▁Add	-1654
▁время	-1655
▁состав	-1656
ры	-1657
▁граф	-1658
▁Native	-1659
97	-1660
▁ию	-1661
eral	-1662
▁cur	-1663
▁Ита	-1664
ner	-1665
▁Brit	-1666
iod	-1667
▁Dr	-1668
▁state	-1669
▁работа	-1670
▁250	-1671
▁Staaten	-1672
▁жи	-1673
uss	-1674
ческий	-1675
▁period	-1676
евый	-1677
bital	-1678
iva	-1679
mit	-1680
▁Bacon	-1681
▁соевый	-1682
ук	-1683
▁la	-1684
▁Его	-1685
▁Meer	-1686
000,0	-1687
▁House	-1688
▁являются	-1689
000.0	-1690
еликоб	-1691
▁pilot	-1692
еликобрит	-1693
▁bacon	-1694
фе	-1695
▁associated	-1696
▁Force	-1697
ola	-1698
ские	-1699
▁Jul	-1700
▁Bakewell	-1701
ым	-1702
▁gesch	-1703
▁people	-1704
ze	-1705
рес	-1706
дился	-1707
1.	-1708
68	-1709
▁одна	-1710
jo	-1711
ково	-1712
лай	-1713
▁blues	-1714
ehö	-1715
unc	-1716
▁manager	-1717
ол	-1718
eja	-1719
еждународный	-1720
43	-1721
▁Ahm	-1722
тором	-1723
▁Penn	-1724
▁Абду	-1725
▁Italy	-1726
бе	-1727
syl	-1728
vania	-1729
▁ассо	-1730
▁Qu	-1731
udding	-1732
▁Pennsyl	-1733
▁Испании	-1734
▁Business	-1735
aff	-1736
▁Pennsylvania	-1737
▁Den	-1738
▁Адам	-1739
▁paisa	-1740
▁Ob	-1741
▁Mexico	-1742
ее	-1743
ona	-1744
дис	-1745
ering	-1746
▁writ	-1747
ilomar	-1748
▁предста	-1749
▁Asilomar	-1750
iat	-1751
ней	-1752
бита	-1753
▁Eur	-1754
ug	-1755
ook	-1756
ors	-1757
▁свя	-1758
▁Великобрит	-1759
▁Sri	-1760
▁home	-1761
▁Indien	-1762
ник	-1763
▁Philippin	-1764
hio	-1765
rat	-1766
min	-1767
pres	-1768
▁197	-1769
▁Akron	-1770
▁постро	-1771
дра	-1772
ceeded	-1773
ros	-1774
▁us	-1775
▁Anderson	-1776
ura	-1777
Donn	-1778
essp	-1779
▁Pri	-1780
iegel	-1781
▁Asian	-1782
esspiegel	-1783
▁Meeresspiegel	-1784
iation	-1785
olo	-1786
▁apo	-1787
▁рай	-1788
onsin	-1789
▁Vers	-1790
▁square	-1791
▁laun	-1792
над	-1793
▁apoap	-1794
▁President	-1795
▁13	-1796
▁Min	-1797
▁Vis	-1798
нес	-1799
▁Ohio	-1800
Donnell	-1801
isconsin	-1802
▁apoapsis	-1803
▁президен	-1804
ори	-1805
pool	-1806
▁Ban	-1807
▁kommt	-1808
▁190	-1809
atraz	-1810
Дж	-1811
▁Bes	-1812
▁written	-1813
▁Sportiva	-1814
екси	-1815
▁King	-1816
mand	-1817
▁Arian	-1818
ств	-1819
ября	-1820
▁Blackpool	-1821
rem	-1822
▁Bod	-1823
▁Soci	-1824
▁жанр	-1825
▁связ	-1826
77	-1827
äs	-1828
▁succeeded	-1829
▁X	-1830
gan	-1831
ürk	-1832
andwich	-1833
ars	-1834
▁Versus	-1835
varaya	-1836
▁North	-1837
оз	-1838
ffil	-1839
▁Serie	-1840
▁стране	-1841
jas	-1842
ело	-1843
▁orbital	-1844
vesvaraya	-1845
▁veröffentl	-1846
▁Par	-1847
job	-1848
ignit	-1849
▁Java	-1850
▁Road	-1851
▁Englisch	-1852
80	-1853
ати	-1854
Джерси	-1855
▁DC	-1856
▁Pl	-1857
▁2006	-1858
33	-1859
rt	-1860
ит	-1861
писан	-1862
inignit	-1863
▁ассоции	-1864
еп	-1865
▁affil	-1866
▁sauce	-1867
▁найден	-1868
▁ethnische	-1869
▁600	-1870
joblanco	-1871
битальный	-1872
▁Мэ	-1873
ональ	-1874
▁Stre	-1875
▁Social	-1876
▁discover	-1877
so	-1878
вар	-1879
▁Is	-1880
▁comp	-1881
▁опубли	-1882
▁Великобритании	-1883
чил	-1884
пофе	-1885
▁раз	-1886
▁рок	-1887
▁Baku	-1888
щен	-1889
▁сп	-1890
▁2009	-1891
виа	-1892
ксп	-1893
▁dient	-1894
▁Street	-1895
Ан	-1896
ксплу	-1897
надле	-1898
▁ин	-1899
▁lieg	-1900
ociation	-1901
onference	-1902
▁которой	-1903
▁Sy	-1904
reich	-1905
wer	-1906
▁гражд	-1907
▁Wisconsin	-1908
hy	-1909
ics	-1910
▁ру	-1911
▁Jones	-1912
▁liegt	-1913
ador	-1914
▁Italien	-1915
ide	-1916
▁ow	-1917
abel	-1918
пофеоз	-1919
▁принадле	-1920
▁Party	-1921
▁built	-1922
▁serves	-1923
ша	-1924
▁За	-1925
ment	-1926
plos	-1927
psis	-1928
▁Mich	-1929
plosion	-1930
una	-1931
рии	-1932
iapsis	-1933
agen	-1934
▁popul	-1935
телем	-1936
▁White	-1937
▁musician	-1938
ган	-1939
▁Rid	-1940
▁Evil	-1941
илья	-1942
теля	-1943
ouis	-1944
▁Jahr	-1945
ionico	-1946
▁эксплу	-1947
▁Georgia	-1948
by	-1949
mal	-1950
Ал	-1951
ция	-1952
▁work	-1953
▁Conference	-1954
CLC	-1955
▁Po	-1956
зиат	-1957
ablished	-1958
gon	-1959
men	-1960
▁100	-1961
▁Уилья	-1962
▁Alcatraz	-1963
▁periapsis	-1964
▁афроамерикан	-1965
▁ассоциируется	-1966
▁veröffentlicht	-1967
yr	-1968
heel	-1969
isco	-1970
▁Chie	-1971
▁betrieben	-1972
▁&	-1973
▁AM	-1974
▁не	-1975
akistan	-1976
▁обслуживает	-1977
alore	-1978
unk	-1979
▁Абдул	-1980
▁Dav	-1981
▁affiliated	-1982
73	-1983
90	-1984
▁Band	-1985
▁crew	-1986
▁длину	-1987
▁Gruppe	-1988
▁originates	-1989
65	-1990
urnal	-1991
▁Bang	-1992
▁Zutat	-1993
▁основ	-1994
сле	-1995
▁pro	-1996
▁Boden	-1997
▁ва	-1998
▁Acta	-1999
▁Andrews	-2000
нару	-2001
embers	-2002
▁котором	-2003
ky	-2004
oh	-2005
ira	-2006
ern	-2007
iert	-2008
itra	-2009
▁партии	-2010
▁Bangalore	-2011
ую	-2012
▁Mc	-2013
▁Louis	-2014
▁members	-2015
▁опубликов	-2016
▁эксплуати	-2017
olis	-2018
▁1955	-2019
▁сред	-2020
▁Obama	-2021
present	-2022
▁графстве	-2023
▁NR	-2024
▁кар	-2025
4,	-2026
фф	-2027
▁spe	-2028
эропорт	-2029
пан	-2030
▁Бу	-2031
▁Аэропорт	-2032
лав	-2033
▁bel	-2034
▁орбитальный	-2035
уд	-2036
▁Su	-2037
▁ку	-2038
енные	-2039
▁OCLC	-2040
▁Bella	-2041
ev	-2042
alli	-2043
igan	-2044
ried	-2045
▁Фран	-2046
established	-2047
▁Ни	-2048
▁кв	-2049
ellt	-2050
▁Row	-2051
▁Adam	-2052
▁Barack	-2053
▁SC	-2054
atric	-2055
ником	-2056
▁Индоне	-2057
▁создан	-2058
▁England	-2059
▁апофеоз	-2060
▁Universität	-2061
ше	-2062
▁Lan	-2063
▁Rib	-2064
▁lar	-2065
ietro	-2066
▁запу	-2067
▁метра	-2068
▁Pietro	-2069
▁Indonesien	-2070
iti	-2071
льзу	-2072
ская	-2073
▁Wer	-2074
клю	-2075
mark	-2076
aul	-2077
ivil	-2078
ходя	-2079
uburn	-2080
▁Roma	-2081
▁Colmore	-2082
enk	-2083
▁SV	-2084
▁Lib	-2085
▁Auburn	-2086
otel	-2087
▁Мар	-2088
mp	-2089
зыва	-2090
▁обнару	-2091
ugh	-2092
oyal	-2093
▁Visvesvaraya	-2094
yet	-2095
▁Ne	-2096
▁Кон	-2097
ард	-2098
apan	-2099
base	-2100
▁Flin	-2101
odge	-2102
сона	-2103
arter	-2104
enyet	-2105
▁Flint	-2106
▁established	-2107
15	-2108
gin	-2109
пой	-2110
icoff	-2111
iss	-2112
кипа	-2113
роле	-2114
▁Press	-2115
▁Indonesia	-2116
ress	-2117
▁Chr	-2118
▁Она	-2119
▁экипа	-2120
▁archit	-2121
▁Италии	-2122
▁называ	-2123
▁Андерс	-2124
▁Ribicoff	-2125
АС	-2126
ге	-2127
счи	-2128
choy	-2129
▁Tenn	-2130
led	-2131
aska	-2132
▁largest	-2133
▁группой	-2134
sta	-2135
ери	-2136
byshire	-2137
▁Bionico	-2138
▁Architet	-2139
▁discovered	-2140
▁geschrieben	-2141
▁Ости	-2142
рх	-2143
рей	-2144
▁Camp	-2145
раб	-2146
▁Eric	-2147
70	-2148
▁Derbyshire	-2149
thm	-2150
сис	-2151
ancer	-2152
▁Loyal	-2153
▁gradu	-2154
▁Индиана	-2155
▁designed	-2156
▁Architettura	-2157
▁Dancer	-2158
Ба	-2159
ces	-2160
▁Romeo	-2161
▁Bandeja	-2162
hythm	-2163
▁пило	-2164
▁смен	-2165
▁Ridge	-2166
,8	-2167
ives	-2168
olfo	-2169
считы	-2170
▁тран	-2171
▁Hotel	-2172
▁руково	-2173
atz	-2174
esh	-2175
oth	-2176
илип	-2177
ginia	-2178
▁название	-2179
▁there	-2180
▁насчиты	-2181
▁Я	-2182
inc	-2183
сту	-2184
▁Лон	-2185
елове	-2186
rev	-2187
ched	-2188
▁Way	-2189
▁Park	-2190
▁Virginia	-2191
dam	-2192
▁дол	-2193
äsident	-2194
▁worked	-2195
lege	-2196
▁испол	-2197
▁Международный	-2198
▁Cl	-2199
▁челове	-2200
▁Анг	-2201
▁Addis	-2202
▁Charl	-2203
▁Sciences	-2204
annt	-2205
▁экипажа	-2206
▁Association	-2207
▁VI	-2208
▁AMC	-2209
▁произ	-2210
hä	-2211
оль	-2212
egre	-2213
▁Ber	-2214
▁Mah	-2215
pilot	-2216
▁cont	-2217
▁Калифорнии	-2218
42	-2219
▁Hamp	-2220
▁Libr	-2221
▁Hampshire	-2222
лия	-2223
ired	-2224
лоса	-2225
рхус	-2226
▁Alaska	-2227
dern	-2228
▁created	-2229
▁английском	-2230
ум	-2231
▁German	-2232
▁Индонезии	-2233
oup	-2234
iden	-2235
▁Banan	-2236
▁Manag	-2237
▁Ajoblanco	-2238
▁Mitglieder	-2239
ased	-2240
ства	-2241
▁Asad	-2242
▁Mill	-2243
▁office	-2244
ato	-2245
ught	-2246
▁1932	-2247
▁Angola	-2248
▁College	-2249
рд	-2250
енси	-2251
илли	-2252
▁fought	-2253
▁Madison	-2254
ants	-2255
enue	-2256
▁Reb	-2257
▁Alison	-2258
▁Denmark	-2259
▁Университет	-2260
vy	-2261
ерн	-2262
▁30	-2263
логи	-2264
arnat	-2265
▁Levy	-2266
arajas	-2267
▁Karnat	-2268
▁Asser	-2269
▁Adolfo	-2270
24	-2271
ых	-2272
ned	-2273
▁Or	-2274
▁Bund	-2275
▁Dodge	-2276
▁Уильям	-2277
CC	-2278
emark	-2279
нист	-2280
▁flo	-2281
▁штата	-2282
▁Avenue	-2283
▁Лидером	-2284
ellion	-2285
änemark	-2286
ап	-2287
ой	-2288
ерм	-2289
щий	-2290
▁Ст	-2291
iche	-2292
кой	-2293
hält	-2294
лица	-2295
▁leaders	-2296
▁Александр	-2297
лум	-2298
▁можно	-2299
▁проис	-2300
▁Johnson	-2301
ld	-2302
bal	-2303
▁ди	-2304
▁Delaw	-2305
▁Michigan	-2306
30	-2307
adh	-2308
▁AL	-2309
▁sh	-2310
hemat	-2311
▁один	-2312
▁Rebellion	-2313
ley	-2314
ure	-2315
▁34	-2316
▁LCC	-2317
▁einem	-2318
▁Delaware	-2319
▁Mathemat	-2320
dom	-2321
▁art	-2322
▁Gruppen	-2323
89	-2324
бур	-2325
▁Pakistan	-2326
лин	-2327
▁Big	-2328
▁Jan	-2329
▁Кар	-2330
▁LCCN	-2331
хожден	-2332
▁завер	-2333
▁опубликован	-2334
▁28	-2335
▁кор	-2336
▁круп	-2337
onnect	-2338
▁Zutaten	-2339
▁Maryland	-2340
бран	-2341
▁Met	-2342
▁вклю	-2343
ingham	-2344
▁March	-2345
▁марта	-2346
▁Alpena	-2347
коро	-2348
▁Adv	-2349
▁Nov	-2350
uthor	-2351
илиппи	-2352
▁Spaceport	-2353
▁Technological	-2354
haj	-2355
тек	-2356
▁book	-2357
▁окон	-2358
▁служи	-2359
▁Abarth	-2360
▁Karnataka	-2361
мар	-2362
erba	-2363
▁Vol	-2364
länge	-2365
91	-2366
ья	-2367
ake	-2368
len	-2369
▁11.	-2370
хитек	-2371
▁Hong	-2372
▁ингредиен	-2373
onica	-2374
za	-2375
▁July	-2376
▁Stand	-2377
▁Kingdom	-2378
▁Fahrbahnlänge	-2379
ai	-2380
600	-2381
ana	-2382
ене	-2383
▁Athens	-2384
ium	-2385
▁Су	-2386
▁июля	-2387
▁свое	-2388
▁1000	-2389
АСА	-2390
пер	-2391
▁НАСА	-2392
▁блюз	-2393
▁Lanka	-2394
▁азиат	-2395
▁student	-2396
▁Ef	-2397
oris	-2398
▁Cam	-2399
ролев	-2400
корость	-2401
gestellt	-2402
▁managed	-2403
▁graduated	-2404
vo	-2405
raft	-2406
лумби	-2407
▁long	-2408
▁metal	-2409
▁trans	-2410
ois	-2411
вро	-2412
тлан	-2413
▁Сто	-2414
000000	-2415
me	-2416
▁Fel	-2417
▁вое	-2418
▁Ayam	-2419
▁under	-2420
▁artist	-2421
▁Il	-2422
ufac	-2423
▁AIP	-2424
▁Sie	-2425
▁Малай	-2426
▁Batchoy	-2427
▁Explosion	-2428
кет	-2429
ebahn	-2430
вания	-2431
ufactur	-2432
▁Miller	-2433
BQ	-2434
вая	-2435
кую	-2436
▁дека	-2437
▁Chievo	-2438
▁должно	-2439
мп	-2440
▁Europ	-2441
▁includ	-2442
▁originated	-2443
▁да	-2444
худо	-2445
▁command	-2446
ath	-2447
кра	-2448
рани	-2449
lands	-2450
▁Agra	-2451
▁solo	-2452
▁Austr	-2453
bury	-2454
irst	-2455
▁Chic	-2456
▁включа	-2457
▁использу	-2458
▁двигатель	-2459
▁Cle	-2460
▁Clevel	-2461
▁spielt	-2462
▁character	-2463
цев	-2464
▁launched	-2465
посадочная	-2466
▁Cleveland	-2467
aft	-2468
▁Королев	-2469
циаль	-2470
▁NRBQ	-2471
▁периап	-2472
▁Landebahn	-2473
сер	-2474
kins	-2475
▁Sky	-2476
▁Albany	-2477
▁Dänemark	-2478
isa	-2479
▁худо	-2480
▁based	-2481
▁полоса	-2482
atriciana	-2483
one	-2484
ане	-2485
allas	-2486
▁Name	-2487
▁Marri	-2488
▁Штаты	-2489
▁Dallas	-2490
▁сменил	-2491
▁площадь	-2492
нии	-2493
син	-2494
ares	-2495
▁Alfa	-2496
▁care	-2497
▁Civil	-2498
▁Indian	-2499
▁группы	-2500
▁Альфред	-2501
▁Binignit	-2502
▁gefunden	-2503
to	-2504
▁ц	-2505
еро	-2506
берт	-2507
▁rel	-2508
ollow	-2509
▁Grey	-2510
▁Antwer	-2511
▁career	-2512
▁manufactur	-2513
▁Ю	-2514
ahe	-2515
▁Fo	-2516
▁verb	-2517
▁Chicago	-2518
ир	-2519
▁Alv	-2520
▁tot	-2521
einoup	-2522
▁музыки	-2523
gt	-2524
ße	-2525
▁fl	-2526
stem	-2527
▁высо	-2528
Barajas	-2529
лена	-2530
роек	-2531
▁300	-2532
▁Cent	-2533
лась	-2534
xeinoup	-2535
▁стал	-2536
derney	-2537
▁местом	-2538
▁Spanien	-2539
▁ethnischen	-2540
.0.	-2541
кти	-2542
чен	-2543
ages	-2544
unds	-2545
▁Hel	-2546
illar	-2547
▁Eine	-2548
▁Christ	-2549
▁Verona	-2550
▁английский	-2551
▁ингредиенты	-2552
alle	-2553
ason	-2554
▁скорость	-2555
▁Efxeinoup	-2556
Ar	-2557
анской	-2558
▁насчитывает	-2559
ero	-2560
▁ее	-2561
▁Это	-2562
▁Wheel	-2563
▁Summit	-2564
▁Marriott	-2565
▁Präsident	-2566
ита	-2567
▁Be	-2568
▁Mars	-2569
▁происхожден	-2570
75	-2571
йо	-2572
кант	-2573
▁Rock	-2574
aliforn	-2575
▁Science	-2576
IT	-2577
нга	-2578
aman	-2579
▁total	-2580
▁членов	-2581
▁Antares	-2582
дон	-2583
▁Ir	-2584
ским	-2585
▁Laun	-2586
▁Canad	-2587
▁einer	-2588
▁Ariane	-2589
▁Spanish	-2590
▁Az	-2591
▁Amster	-2592
▁Launch	-2593
▁пилотом	-2594
▁произво	-2595
гайо	-2596
▁entw	-2597
▁Alexand	-2598
▁которые	-2599
▁December	-2600
хно	-2601
▁1918	-2602
▁работал	-2603
▁performs	-2604
21	-2605
▁Ах	-2606
enkmal	-2607
▁Start	-2608
▁Огайо	-2609
▁Bananaman	-2610
▁0-	-2611
▁Acura	-2612
▁Мадри	-2613
▁худож	-2614
▁связан	-2615
ональный	-2616
▁Poaceae	-2617
▁Alderney	-2618
▁but	-2619
▁Ahmet	-2620
▁Соединенные	-2621
▁принадлежит	-2622
48	-2623
ИД	-2624
fen	-2625
▁Dim	-2626
▁ret	-2627
▁километров	-2628
▁international	-2629
уз	-2630
▁свою	-2631
▁Atlanta	-2632
▁Matador	-2633
▁аэропорта	-2634
▁Amatriciana	-2635
вец	-2636
▁52	-2637
▁Bur	-2638
Denkmal	-2639
▁возник	-2640
ale	-2641
пен	-2642
link	-2643
▁Гру	-2644
▁1996	-2645
▁музыку	-2646
har	-2647
uay	-2648
рую	-2649
▁0.	-2650
▁wer	-2651
▁gehö	-2652
роекти	-2653
▁Art	-2654
▁LaS	-2655
▁San	-2656
▁1923	-2657
▁Abra	-2658
▁Klink	-2659
▁Besatz	-2660
▁werden	-2661
▁pudding	-2662
▁mil	-2663
ition	-2664
isaire	-2665
leisch	-2666
▁Ж	-2667
▁vom	-2668
zt	-2669
▁y	-2670
ield	-2671
стре	-2672
▁Lum	-2673
рован	-2674
рудни	-2675
▁Dist	-2676
▁испан	-2677
▁столиц	-2678
▁Abraham	-2679
üs	-2680
ret	-2681
▁ak	-2682
▁эпоха	-2683
▁си	-2684
edas	-2685
irth	-2686
▁Bel	-2687
▁Бан	-2688
▁войне	-2689
▁Teisaire	-2690
pt	-2691
800	-2692
▁аль	-2693
isham	-2694
▁Ayers	-2695
▁their	-2696
ания	-2697
▁Гре	-2698
▁1910	-2699
ail	-2700
тан	-2701
▁Bir	-2702
▁Loc	-2703
готов	-2704
▁Chin	-2705
▁Авра	-2706
▁Connect	-2707
лле	-2708
itar	-2709
▁Ice	-2710
ierte	-2711
▁Audi	-2712
▁Buch	-2713
▁LaSalle	-2714
▁Manager	-2715
▁спроекти	-2716
eil	-2717
ruc	-2718
ames	-2719
▁ква	-2720
ether	-2721
field	-2722
▁Fort	-2723
▁Prov	-2724
▁Trans	-2725
▁birth	-2726
▁Architek	-2727
cy	-2728
▁Dem	-2729
▁Geb	-2730
laston	-2731
rab	-2732
ider	-2733
ward	-2734
крон	-2735
▁Сан	-2736
▁have	-2737
▁Индии	-2738
▁Wheeler	-2739
asp	-2740
aterp	-2741
вшийся	-2742
▁декабря	-2743
▁Librarian	-2744
WH	-2745
рия	-2746
бико	-2747
▁May	-2748
▁Coup	-2749
▁Romance	-2750
93	-2751
ерб	-2752
хай	-2753
▁Kh	-2754
драт	-2755
телей	-2756
▁contain	-2757
ape	-2758
тах	-2759
▁Ал	-2760
▁101	-2761
▁Garth	-2762
lington	-2763
ariation	-2764
▁Grounds	-2765
▁Efxeinoupolis	-2766
AI	-2767
-17	-2768
hab	-2769
orno	-2770
ivorno	-2771
▁State	-2772
▁Рибико	-2773
▁retired	-2774
▁квадрат	-2775
▁музыкаль	-2776
Am	-2777
üd	-2778
▁Its	-2779
▁Stad	-2780
führer	-2781
▁owned	-2782
▁pedas	-2783
▁Robert	-2784
▁spielte	-2785
▁Эр	-2786
icut	-2787
▁Bras	-2788
▁Grant	-2789
▁содер	-2790
хнологи	-2791
aterpillar	-2792
▁Leg	-2793
ances	-2794
▁Nether	-2795
▁Williams	-2796
lastonbury	-2797
▁rec	-2798
inden	-2799
embrie	-2800
▁входя	-2801
▁Столица	-2802
▁Kaliforn	-2803
▁includes	-2804
▁Connecticut	-2805
ön	-2806
рак	-2807
▁co	-2808
кита	-2809
▁Inc	-2810
linois	-2811
▁Advances	-2812
LT	-2813
ão	-2814
▁UT	-2815
abat	-2816
▁5600	-2817
▁Belg	-2818
ческого	-2819
▁Dimitra	-2820
▁Illinois	-2821
ji	-2822
▁RS	-2823
illa	-2824
usion	-2825
▁1927	-2826
rent	-2827
erick	-2828
Мекси	-2829
▁сбор	-2830
▁должности	-2831
▁афроамериканцы	-2832
-8	-2833
ler	-2834
▁Ta	-2835
▁Ham	-2836
▁Кана	-2837
▁Britain	-2838
▁Kalifornien	-2839
-11	-2840
ylde	-2841
▁Gem	-2842
▁Corn	-2843
▁карьер	-2844
▁происхождение	-2845
31	-2846
Лу	-2847
LCO	-2848
agn	-2849
▁26	-2850
▁verw	-2851
mitglied	-2852
шел	-2853
open	-2854
скон	-2855
▁BLT	-2856
▁bek	-2857
▁Ман	-2858
istor	-2859
▁певец	-2860
▁Рибикофф	-2861
▁периапсис	-2862
▁Librarians	-2863
ungsmitglied	-2864
ень	-2865
стер	-2866
▁Eli	-2867
▁Engine	-2868
▁Livorno	-2869
▁архитек	-2870
ubb	-2871
▁Мен	-2872
erson	-2873
▁Adisham	-2874
osa	-2875
▁ni	-2876
ense	-2877
алла	-2878
▁Gaz	-2879
ubbio	-2880
Мексико	-2881
▁Gubbio	-2882
▁fusion	-2883
▁Amsterdam	-2884
эй	-2885
▁Bro	-2886
organ	-2887
tor	-2888
▁пу	-2889
ings	-2890
ланди	-2891
▁место	-2892
▁начал	-2893
▁enthält	-2894
▁команди	-2895
▁Glastonbury	-2896
▁университете	-2897
эн	-2898
iga	-2899
▁ihr	-2900
▁Antio	-2901
▁Alberto	-2902
▁Anführer	-2903
▁Christian	-2904
▁commander	-2905
▁Engineering	-2906
ды	-2907
няет	-2908
▁кон	-2909
жером	-2910
▁1962	-2911
▁Wasp	-2912
▁both	-2913
Nummer	-2914
▁inhab	-2915
mingham	-2916
▁Вискон	-2917
old	-2918
дар	-2919
born	-2920
urch	-2921
стоя	-2922
▁насе	-2923
▁окончил	-2924
▁Singapore	-2925
▁Caterpillar	-2926
olv	-2927
▁Im	-2928
▁Abel	-2929
▁Fylde	-2930
▁dessert	-2931
▁написан	-2932
▁Birmingham	-2933
St	-2934
dd	-2935
йца	-2936
ix	-2937
tt	-2938
ох	-2939
ала	-2940
onda	-2941
Arena	-2942
▁Test	-2943
▁Штатах	-2944
ска	-2945
▁sch	-2946
▁mater	-2947
▁рожден	-2948
▁22	-2949
qbal	-2950
▁Оба	-2951
stand	-2952
▁Sand	-2953
▁Turn	-2954
▁Honda	-2955
▁найти	-2956
▁Charlie	-2957
ull	-2958
ПИД	-2959
ано	-2960
▁Dy	-2961
ührt	-2962
▁Allama	-2963
▁bekannt	-2964
▁карьеру	-2965
▁Standort	-2966
hlt	-2967
kan	-2968
▁Эн	-2969
avad	-2970
кола	-2971
▁Iqbal	-2972
▁Landes	-2973
▁Техаса	-2974
▁Колумби	-2975
ao	-2976
rd	-2977
лл	-2978
bus	-2979
▁Amd	-2980
abama	-2981
▁персона	-2982
46	-2983
hs	-2984
ufa	-2985
lich	-2986
▁Гра	-2987
▁Gufa	-2988
дерлан	-2989
isation	-2990
▁Amdavad	-2991
gabat	-2992
нгапу	-2993
▁Turkish	-2994
ВС	-2995
ardc	-2996
▁ВВС	-2997
ountain	-2998
▁Turner	-2999
▁former	-3000
ardcover	-3001
▁Alabama	-3002
ges	-3003
зер	-3004
ikov	-3005
part	-3006
▁Plac	-3007
▁complet	-3008
ke	-3009
об	-3010
-12	-3011
▁"1	-3012
▁Dan	-3013
▁signed	-3014
▁Техасе	-3015
▁Fountain	-3016
▁Grantville	-3017
▁Калифорния	-3018
ij	-3019
öl	-3020
▁35	-3021
▁Бе	-3022
▁related	-3023
▁verbunden	-3024
▁сам	-3025
▁там	-3026
▁Carr	-3027
ini	-3028
▁Ly	-3029
ruis	-3030
некти	-3031
▁человек	-3032
▁Aleksandr	-3033
▁Character	-3034
agg	-3035
▁ALV	-3036
▁Fal	-3037
▁Ray	-3038
нектику	-3039
▁Minister	-3040
нге	-3041
heed	-3042
▁Hal	-3043
▁Dagg	-3044
▁Main	-3045
▁рождения	-3046
uhe	-3047
гда	-3048
зия	-3049
essen	-3050
▁2015	-3051
▁Lock	-3052
▁Rich	-3053
▁Ruhe	-3054
▁South	-3055
▁десер	-3056
▁воевал	-3057
▁inhabit	-3058
▁Нидерлан	-3059
▁граждани	-3060
▁построен	-3061
▁Ruhestand	-3062
duc	-3063
les	-3064
▁Sw	-3065
▁Ash	-3066
▁мас	-3067
▁крупней	-3068
Ай	-3069
ids	-3070
▁Dia	-3071
useum	-3072
▁Janu	-3073
▁used	-3074
entina	-3075
еджером	-3076
▁France	-3077
▁служил	-3078
▁current	-3079
▁Сингапу	-3080
▁Singapur	-3081
41	-3082
ilm	-3083
джи	-3084
▁Arem	-3085
▁Baked	-3086
▁Baths	-3087
▁Nummer	-3088
рудников	-3089
▁Lockheed	-3090
▁Американ	-3091
▁completed	-3092
29	-3093
рай	-3094
▁Bay	-3095
▁Sar	-3096
▁bed	-3097
▁bod	-3098
▁метров	-3099
▁Филиппи	-3100
ban	-3101
▁GT	-3102
mann	-3103
orial	-3104
▁Arap	-3105
енсиль	-3106
минист	-3107
▁Dales	-3108
▁Коннектику	-3109
▁League	-3110
▁population	-3111
▁Atat	-3112
▁Дании	-3113
▁belong	-3114
▁Пенсиль	-3115
▁architect	-3116
▁Висконсин	-3117
asm	-3118
uft	-3119
▁AZ	-3120
▁или	-3121
ating	-3122
▁Adare	-3123
▁Rayel	-3124
▁населен	-3125
▁коренные	-3126
ант	-3127
igur	-3128
▁Шеп	-3129
▁2005	-3130
▁Glen	-3131
▁прем	-3132
In	-3133
▁Os	-3134
rict	-3135
▁Ira	-3136
dmore	-3137
ческой	-3138
▁assemb	-3139
▁премьер	-3140
▁students	-3141
▁представи	-3142
▁Netherlands	-3143
даль	-3144
▁Mit	-3145
aheim	-3146
▁Monoc	-3147
це	-3148
iaç	-3149
lor	-3150
uner	-3151
▁Har	-3152
iação	-3153
▁Palae	-3154
▁Dessert	-3155
▁TL	-3156
став	-3157
▁сде	-3158
rency	-3159
atives	-3160
▁starb	-3161
▁currency	-3162
ino	-3163
▁Groß	-3164
▁Pena	-3165
▁Great	-3166
▁Green	-3167
готовлен	-3168
▁Anaheim	-3169
▁Ardmore	-3170
ph	-3171
wo	-3172
рю	-3173
Mar	-3174
quer	-3175
▁Hess	-3176
▁oder	-3177
emorial	-3178
querque	-3179
▁Пенсильвания	-3180
▁32	-3181
▁AWH	-3182
▁Mil	-3183
orfen	-3184
▁record	-3185
uquerque	-3186
ee	-3187
brit	-3188
цион	-3189
▁Bhaj	-3190
▁while	-3191
▁Bundes	-3192
▁Albuquerque	-3193
ece	-3194
zab	-3195
нис	-3196
щая	-3197
▁73	-3198
zabet	-3199
▁Grass	-3200
▁began	-3201
циональ	-3202
▁Elizabet	-3203
49	-3204
eon	-3205
sen	-3206
шен	-3207
ement	-3208
▁Cruis	-3209
▁Football	-3210
▁Testpilot	-3211
nam	-3212
цией	-3213
▁now	-3214
▁Großbrit	-3215
▁Elizabeth	-3216
annien	-3217
▁Atlas	-3218
▁Grasso	-3219
▁penyet	-3220
▁Ashgabat	-3221
▁Großbritannien	-3222
ген	-3223
▁107	-3224
▁Анго	-3225
schaft	-3226
▁Japan	-3227
▁Provin	-3228
▁rocket	-3229
▁Шепард	-3230
ger	-3231
ateg	-3232
▁Museum	-3233
▁academ	-3234
▁inhabitants	-3235
риа	-3236
▁1-	-3237
▁185	-3238
▁Kön	-3239
ertig	-3240
vered	-3241
▁test	-3242
▁comic	-3243
▁founded	-3244
8,	-3245
▁3.	-3246
▁Aug	-3247
eland	-3248
overn	-3249
tober	-3250
▁Admin	-3251
▁altern	-3252
▁Airbase	-3253
▁расположения	-3254
хм	-3255
▁Чи	-3256
▁сту	-3257
Йорке	-3258
▁back	-3259
▁body	-3260
▁Терн	-3261
▁start	-3262
Аполлон	-3263
▁Greece	-3264
▁Student	-3265
▁entworfen	-3266
▁manufactured	-3267
sity	-3268
▁рит	-3269
▁November	-3270
▁academic	-3271
▁Philippines	-3272
▁американской	-3273
oli	-3274
▁Dou	-3275
▁had	-3276
hagen	-3277
▁label	-3278
▁Джонс	-3279
▁района	-3280
openhagen	-3281
▁Го	-3282
деми	-3283
▁Med	-3284
▁Tit	-3285
uncil	-3286
кадеми	-3287
▁AS	-3288
▁Де	-3289
▁Ces	-3290
▁Comp	-3291
▁полу	-3292
▁Соединен	-3293
нан	-3294
iraqu	-3295
uring	-3296
▁AIDS	-3297
▁наук	-3298
ondack	-3299
▁akadem	-3300
▁Arapiraqu	-3301
▁музыкальный	-3302
фо	-3303
osc	-3304
out	-3305
rez	-3306
ния	-3307
▁Альб	-3308
▁fertig	-3309
▁отстав	-3310
▁European	-3311
▁университета	-3312
Al	-3313
сад	-3314
▁Во	-3315
▁Мо	-3316
▁Sec	-3317
▁1928	-3318
▁Adir	-3319
▁нахо	-3320
▁density	-3321
▁Palaeont	-3322
▁Adirondack	-3323
▁Arapiraquense	-3324
▁En	-3325
ighter	-3326
án	-3327
пре	-3328
ator	-3329
▁кос	-3330
тность	-3331
▁sandwich	-3332
-15	-3333
mir	-3334
hang	-3335
▁164	-3336
▁Джо	-3337
▁Шве	-3338
▁1957	-3339
▁Serv	-3340
▁trad	-3341
▁König	-3342
▁August	-3343
▁Daggett	-3344
rup	-3345
name	-3346
▁Leb	-3347
▁were	-3348
▁авиа	-3349
hangra	-3350
▁rhythm	-3351
▁студен	-3352
▁tradition	-3353
▁fertiggestellt	-3354
Un	-3355
ссоциа	-3356
▁flight	-3357
▁Малайзии	-3358
зе	-3359
90.	-3360
rint	-3361
weiz	-3362
▁бази	-3363
▁Bakso	-3364
hol	-3365
med	-3366
▁Glo	-3367
▁Tom	-3368
▁they	-3369
▁Евро	-3370
▁Клуб	-3371
▁Мичи	-3372
▁Основ	-3373
▁народ	-3374
▁после	-3375
▁Council	-3376
▁transport	-3377
rä	-3378
щее	-3379
▁Bl	-3380
ower	-3381
árez	-3382
укер	-3383
щена	-3384
щест	-3385
▁att	-3386
▁Lake	-3387
▁DeMar	-3388
fleisch	-3389
▁Parker	-3390
▁Suárez	-3391
uthority	-3392
▁которую	-3393
▁футболь	-3394
▁азиатские	-3395
▁Königreich	-3396
▁эксплуатируется	-3397
,3	-3398
ipe	-3399
▁Та	-3400
▁hop	-3401
▁Тернер	-3402
▁Italian	-3403
ibt	-3404
зда	-3405
▁До	-3406
▁her	-3407
▁Шри	-3408
iplin	-3409
дисон	-3410
▁Fred	-3411
▁Авраам	-3412
▁Schweiz	-3413
▁started	-3414
▁contains	-3415
▁Frederick	-3416
▁assembled	-3417
▁исполняет	-3418
LA	-3419
ald	-3420
дов	-3421
сом	-3422
▁Гу	-3423
ampf	-3424
▁Fen	-3425
▁Пре	-3426
▁Индия	-3427
▁DeMarce	-3428
los	-3429
уан	-3430
argh	-3431
atta	-3432
ivis	-3433
lymp	-3434
para	-3435
рова	-3436
▁bei	-3437
▁чем	-3438
essor	-3439
▁ALCO	-3440
▁West	-3441
▁Olymp	-3442
arghatta	-3443
▁Journal	-3444
▁Quarter	-3445
▁company	-3446
▁Hessarghatta	-3447
BC	-3448
итве	-3449
▁Mag	-3450
▁Тур	-3451
▁food	-3452
▁Authority	-3453
12	-3454
бя	-3455
SAM	-3456
спор	-3457
терна	-3458
▁1998	-3459
▁ASAM	-3460
▁Math	-3461
▁Франции	-3462
▁Колумбия	-3463
▁Greenville	-3464
etta	-3465
änge	-3466
▁His	-3467
▁Музы	-3468
▁Сент	-3469
▁Адамс	-3470
▁Стран	-3471
haretta	-3472
▁Не	-3473
▁Ос	-3474
▁Val	-3475
Акрон	-3476
судар	-3477
▁Miche	-3478
▁Richard	-3479
▁находился	-3480
▁Philippinen	-3481
зо	-3482
шест	-3483
▁One	-3484
▁Ore	-3485
▁nam	-3486
▁Arab	-3487
▁Harb	-3488
▁Джей	-3489
▁award	-3490
istoric	-3491
▁содержит	-3492
▁командиром	-3493
presentatives	-3494
тат	-3495
▁Ду	-3496
▁Ку	-3497
ture	-3498
▁уча	-3499
нахай	-3500
▁System	-3501
▁высоте	-3502
▁Service	-3503
им	-3504
сио	-3505
brev	-3506
доль	-3507
▁Joh	-3508
itzer	-3509
▁Barn	-3510
▁deriv	-3511
▁within	-3512
тернатив	-3513
AS	-3514
Ам	-3515
yle	-3516
▁sq	-3517
otter	-3518
▁Disco	-3519
▁finden	-3520
▁origins	-3521
omb	-3522
лем	-3523
щей	-3524
orge	-3525
кист	-3526
▁Sam	-3527
▁Born	-3528
▁alma	-3529
ission	-3530
▁Орхус	-3531
▁gehört	-3532
▁социаль	-3533
▁Alpharetta	-3534
▁представителей	-3535
эмп	-3536
▁Jun	-3537
▁ран	-3538
▁эта	-3539
▁Grie	-3540
▁Mahm	-3541
▁full	-3542
▁Square	-3543
▁Мэдисон	-3544
▁variation	-3545
вы	-3546
rot	-3547
лек	-3548
чар	-3549
▁ty	-3550
Йорк	-3551
▁ELA	-3552
▁1930	-3553
▁Gett	-3554
▁Felipe	-3555
▁президент	-3556
▁Jr	-3557
▁ACM	-3558
elect	-3559
orman	-3560
▁сольный	-3561
▁родившийся	-3562
ähr	-3563
тра	-3564
amil	-3565
льян	-3566
▁Hop	-3567
▁Бел	-3568
eitet	-3569
▁speak	-3570
▁Canada	-3571
▁league	-3572
▁Severed	-3573
▁Representatives	-3574
Inf	-3575
arch	-3576
ских	-3577
▁170	-3578
▁sec	-3579
▁Баку	-3580
вается	-3581
lim	-3582
rug	-3583
uel	-3584
uart	-3585
zmir	-3586
льная	-3587
▁1036	-3588
ruguay	-3589
▁Johann	-3590
▁Decembrie	-3591
▁названием	-3592
luna	-3593
▁Des	-3594
▁Franc	-3595
▁Барак	-3596
▁Обама	-3597
▁Пакист	-3598
▁Cornell	-3599
▁AIDAluna	-3600
fl	-3601
oza	-3602
ленд	-3603
▁Бар	-3604
▁Juli	-3605
stella	-3606
ysburg	-3607
▁Martyr	-3608
▁belongs	-3609
▁академи	-3610
aba	-3611
acc	-3612
Нью	-3613
бург	-3614
anter	-3615
gonal	-3616
▁Hero	-3617
▁Jack	-3618
▁Barny	-3619
▁Schip	-3620
▁Uruguay	-3621
▁Diagonal	-3622
onso	-3623
▁000	-3624
▁Гон	-3625
▁мен	-3626
ended	-3627
▁Gany	-3628
▁James	-3629
▁style	-3630
anterie	-3631
▁Cesena	-3632
▁Stuart	-3633
▁транспор	-3634
RE	-3635
NAI	-3636
kür	-3637
ony	-3638
▁36	-3639
енда	-3640
ское	-3641
NAIRE	-3642
iction	-3643
▁Medal	-3644
▁Ganymed	-3645
▁населения	-3646
▁менеджером	-3647
сте	-3648
▁Süd	-3649
ament	-3650
▁Abner	-3651
▁700	-3652
▁ind	-3653
▁been	-3654
▁моло	-3655
23	-3656
At	-3657
лом	-3658
oscow	-3659
▁себя	-3660
▁Moscow	-3661
▁Oregon	-3662
▁British	-3663
▁этнической	-3664
они	-3665
шим	-3666
▁cl	-3667
acob	-3668
ions	-3669
гало	-3670
▁Wolf	-3671
▁Махм	-3672
▁Agrem	-3673
▁Gettysburg	-3674
▁крупнейший	-3675
ас	-3676
▁NW	-3677
▁оп	-3678
ault	-3679
урна	-3680
▁Per	-3681
▁Heim	-3682
▁Marc	-3683
neider	-3684
limetres	-3685
▁Ассоциа	-3686
▁Мичиган	-3687
▁компания	-3688
,9	-3689
19	-3690
BS	-3691
руг	-3692
▁ви	-3693
enir	-3694
▁BBC	-3695
▁Ком	-3696
vanah	-3697
▁Costa	-3698
▁Школа	-3699
▁Bhajji	-3700
▁Nation	-3701
resident	-3702
vanahalli	-3703
▁Quarterly	-3704
▁Battlefield	-3705
nes	-3706
▁DBS	-3707
▁Juan	-3708
нахайм	-3709
▁Länge	-3710
▁Manor	-3711
▁Греции	-3712
▁Assault	-3713
itzerland	-3714
▁Griechen	-3715
▁Studenten	-3716
сь	-3717
айт	-3718
▁sie	-3719
▁Тай	-3720
▁Brem	-3721
▁teow	-3722
▁Keral	-3723
▁Solde	-3724
ruction	-3725
▁региона	-3726
▁Schneider	-3727
▁Soldevanahalli	-3728
▁ю	-3729
▁Mi	-3730
▁Ре	-3731
ando	-3732
ange	-3733
шире	-3734
▁III	-3735
емори	-3736
▁Verm	-3737
▁Prime	-3738
1,	-3739
Лан	-3740
сии	-3741
▁NWC	-3742
▁Абель	-3743
▁ENAIRE	-3744
▁floors	-3745
▁Cruises	-3746
▁Бангало	-3747
able	-3748
cape	-3749
eloc	-3750
тели	-3751
▁Vic	-3752
йский	-3753
▁Veil	-3754
▁dort	-3755
▁ship	-3756
ichtig	-3757
▁Aless	-3758
▁Angel	-3759
▁высту	-3760
▁милли	-3761
elocity	-3762
▁escape	-3763
▁Швейца	-3764
40	-3765
ву	-3766
ец	-3767
eer	-3768
▁gr	-3769
▁ми	-3770
рует	-3771
▁Amar	-3772
▁валю	-3773
▁Aenir	-3774
▁Werft	-3775
▁velocity	-3776
▁Switzerland	-3777
▁5.	-3778
▁Et	-3779
alls	-3780
cott	-3781
ерии	-3782
ствен	-3783
▁Lippin	-3784
▁Volunt	-3785
▁Camilla	-3786
▁выступа	-3787
▁Polonica	-3788
▁Lippincott	-3789
wh	-3790
iro	-3791
oga	-3792
джа	-3793
рас	-3794
вета	-3795
Атлан	-3796
▁ранее	-3797
▁Kerala	-3798
▁Mahmud	-3799
▁Wilkins	-3800
▁создана	-3801
▁запущена	-3802
▁Volunteer	-3803
▁alternative	-3804
CA	-3805
нва	-3806
ющий	-3807
▁van	-3808
▁дома	-3809
▁bedient	-3810
▁wichtig	-3811
ezz	-3812
ule	-3813
itas	-3814
rägt	-3815
▁Arg	-3816
▁Gen	-3817
▁pre	-3818
▁Ахмет	-3819
▁Lumezz	-3820
▁аэропорту	-3821
oho	-3822
кры	-3823
weed	-3824
altet	-3825
▁Hung	-3826
▁ging	-3827
▁него	-3828
▁Agnes	-3829
▁Акита	-3830
▁Европ	-3831
▁Страна	-3832
▁Turkmen	-3833
кар	-3834
▁Аф	-3835
dent	-3836
▁Афи	-3837
ologica	-3838
▁Werder	-3839
▁Austria	-3840
▁Lumezzane	-3841
ием	-3842
ксо	-3843
▁Ха	-3844
hnan	-3845
ации	-3846
▁Radh	-3847
▁Taib	-3848
▁post	-3849
dentif	-3850
музыка	-3851
▁Romania	-3852
As	-3853
439	-3854
atu	-3855
умы	-3856
влял	-3857
▁Sept	-3858
▁Остине	-3859
ez	-3860
air	-3861
eal	-3862
Луи	-3863
agor	-3864
ette	-3865
сточ	-3866
▁Ben	-3867
утерб	-3868
▁Kong	-3869
▁succ	-3870
▁place	-3871
rishnan	-3872
▁Radhak	-3873
▁Turkey	-3874
▁season	-3875
umberland	-3876
▁j	-3877
▁jo	-3878
erty	-3879
teil	-3880
бина	-3881
▁Bet	-3882
▁fol	-3883
▁Soho	-3884
▁Румы	-3885
▁полет	-3886
▁эпоху	-3887
▁Bremen	-3888
▁известен	-3889
▁руководит	-3890
▁Cumberland	-3891
лам	-3892
рро	-3893
цем	-3894
▁Ди	-3895
akes	-3896
ваку	-3897
ддис	-3898
евер	-3899
пена	-3900
▁Гар	-3901
пания	-3902
парта	-3903
▁Dent	-3904
▁Rind	-3905
▁days	-3906
ческом	-3907
▁вышел	-3908
▁эваку	-3909
▁эвакуации	-3910
▁американцев	-3911
▁Radhakrishnan	-3912
ts	-3913
вин	-3914
▁737	-3915
▁зем	-3916
▁Hera	-3917
дольфо	-3918
▁staff	-3919
▁Romagn	-3920
▁Schiphol	-3921
▁represent	-3922
аль	-3923
амя	-3924
▁Ol	-3925
ijan	-3926
каго	-3927
▁110	-3928
▁Los	-3929
uston	-3930
конча	-3931
▁Авст	-3932
▁Ababa	-3933
▁Родился	-3934
▁предшест	-3935
▁плотность	-3936
▁Frankreich	-3937
▁управляется	-3938
▁Ц	-3939
ado	-3940
lug	-3941
Абе	-3942
▁Bol	-3943
▁ита	-3944
▁она	-3945
▁1933	-3946
▁Sara	-3947
▁dies	-3948
▁янва	-3949
ллиной	-3950
▁seine	-3951
▁dessen	-3952
▁сконча	-3953
▁Romagnoli	-3954
▁Ла	-3955
▁Kov	-3956
ритан	-3957
▁Luna	-3958
estley	-3959
▁Abeba	-3960
▁Angeles	-3961
▁Vermont	-3962
▁Priestley	-3963
▁Аг	-3964
▁Gor	-3965
▁Hum	-3966
▁gel	-3967
▁1969	-3968
▁Stev	-3969
▁Türk	-3970
Ammann	-3971
▁Wilder	-3972
▁Музыка	-3973
▁Houston	-3974
▁Register	-3975
Ма	-3976
▁Но	-3977
idro	-3978
Гэмп	-3979
стон	-3980
▁Rep	-3981
▁Джа	-3982
генти	-3983
▁Doug	-3984
▁Кова	-3985
▁Delta	-3986
▁Neave	-3987
▁Isidro	-3988
▁Martyrs	-3989
▁beträgt	-3990
▁Иллиной	-3991
▁миллимет	-3992
yat	-3993
рой	-3994
▁(6	-3995
▁So	-3996
▁ни	-3997
agle	-3998
▁ers	-3999
aison	-4000
araiti	-4001
▁Comic	-4002
▁Democ	-4003
▁битве	-4004
ariante	-4005
стоящее	-4006
▁Alessio	-4007
araitiyat	-4008
▁Historic	-4009
▁Kharaitiyat	-4010
32	-4011
my	-4012
лад	-4013
▁me	-4014
illo	-4015
▁клу	-4016
ристи	-4017
▁Asam	-4018
▁Währ	-4019
▁коми	-4020
enschen	-4021
▁государ	-4022
62	-4023
acy	-4024
els	-4025
нах	-4026
iven	-4027
ными	-4028
рест	-4029
▁Bav	-4030
▁Кор	-4031
▁Рай	-4032
essee	-4033
rikan	-4034
▁1986	-4035
▁Mass	-4036
▁Airey	-4037
▁Afonso	-4038
▁serviert	-4039
,5	-4040
61	-4041
max	-4042
▁45	-4043
istr	-4044
ählt	-4045
risis	-4046
Алекс	-4047
▁Cast	-4048
▁Zeal	-4049
▁Baymax	-4050
partment	-4051
▁Zealand	-4052
▁которое	-4053
▁Bavarian	-4054
▁Технологи	-4055
▁настоящее	-4056
мор	-4057
оби	-4058
ума	-4059
Rosa	-4060
unter	-4061
▁Sein	-4062
▁Sauce	-4063
▁negre	-4064
▁вариа	-4065
▁Tennessee	-4066
▁29	-4067
ally	-4068
rift	-4069
СПИД	-4070
▁Про	-4071
▁Хол	-4072
▁мин	-4073
▁AFIT	-4074
▁Falc	-4075
▁Лондон	-4076
▁города	-4077
▁ноября	-4078
▁отставку	-4079
▁September	-4080
eln	-4081
▁03	-4082
-130	-4083
bach	-4084
mond	-4085
uell	-4086
umän	-4087
нига	-4088
▁Alba	-4089
▁Ачар	-4090
▁Мэри	-4091
▁кури	-4092
eonato	-4093
ileiro	-4094
▁члена	-4095
▁Crisis	-4096
▁Альфре	-4097
▁выбран	-4098
▁Atatürk	-4099
▁Gorbach	-4100
▁итальян	-4101
▁называют	-4102
▁Brasileiro	-4103
▁Campeonato	-4104
вай	-4105
дже	-4106
aben	-4107
iger	-4108
ione	-4109
тник	-4110
▁были	-4111
▁включает	-4112
pop	-4113
рет	-4114
▁af	-4115
ific	-4116
корд	-4117
▁Hip	-4118
▁Pad	-4119
▁Суа	-4120
▁3500	-4121
▁uses	-4122
▁Мест	-4123
▁свои	-4124
▁first	-4125
▁Джейм	-4126
▁Остин	-4127
▁награ	-4128
▁Андерсон	-4129
iop	-4130
▁Pow	-4131
▁add	-4132
▁сез	-4133
ature	-4134
thiop	-4135
▁Kway	-4136
▁Paul	-4137
ewählt	-4138
▁Гражд	-4139
▁Alfons	-4140
▁языком	-4141
▁include	-4142
▁персонаж	-4143
▁millimetres	-4144
AL	-4145
uß	-4146
ляр	-4147
нди	-4148
хни	-4149
ната	-4150
ризи	-4151
▁Day	-4152
▁они	-4153
▁Serg	-4154
ливлен	-4155
укерке	-4156
▁Solan	-4157
▁кризи	-4158
▁Währung	-4159
▁обнаружи	-4160
▁столицей	-4161
47	-4162
ск	-4163
бай	-4164
rabb	-4165
mouth	-4166
ермон	-4167
▁Frew	-4168
▁Rest	-4169
▁Боль	-4170
стреби	-4171
▁Blues	-4172
▁Rumän	-4173
▁haben	-4174
▁order	-4175
▁лидера	-4176
▁Rumänien	-4177
▁Variante	-4178
Infanterie	-4179
▁successor	-4180
▁wichtigst	-4181
▁AIDAstella	-4182
ral	-4183
тта	-4184
arem	-4185
iata	-4186
rise	-4187
▁Aur	-4188
▁пол	-4189
ентра	-4190
▁домаш	-4191
▁Osborn	-4192
▁January	-4193
▁футболу	-4194
▁социальных	-4195
hel	-4196
шая	-4197
onst	-4198
ceded	-4199
▁kann	-4200
▁Madin	-4201
▁Гонко	-4202
▁president	-4203
▁международ	-4204
bt	-4205
▁AE	-4206
▁Пе	-4207
▁Sen	-4208
▁Wor	-4209
▁Анд	-4210
raten	-4211
▁Vinc	-4212
▁ритм	-4213
▁David	-4214
▁Milan	-4215
rabbiata	-4216
▁Vincent	-4217
▁Европей	-4218
35	-4219
▁Ja	-4220
arez	-4221
▁Guj	-4222
▁Мак	-4223
figur	-4224
▁Jenn	-4225
▁Prad	-4226
▁Элли	-4227
▁Агнес	-4228
▁Suarez	-4229
▁Мадрид	-4230
▁британ	-4231
▁Osborne	-4232
▁Pradesh	-4233
▁akademische	-4234
51	-4235
4165	-4236
akur	-4237
egun	-4238
▁Mot	-4239
▁Pop	-4240
▁High	-4241
▁Анти	-4242
▁свой	-4243
Анахайм	-4244
варский	-4245
▁Forres	-4246
▁Saison	-4247
▁кризис	-4248
erbaijan	-4249
Гэмпшире	-4250
inn	-4251
spr	-4252
▁Hu	-4253
▁Ло	-4254
ttar	-4255
дина	-4256
ктор	-4257
▁bay	-4258
▁fin	-4259
▁Пло	-4260
▁1099	-4261
▁1966	-4262
▁1989	-4263
▁Coupe	-4264
▁World	-4265
▁Türkei	-4266
▁popular	-4267
▁президентом	-4268
iß	-4269
ón	-4270
ink	-4271
▁Би	-4272
▁им	-4273
emin	-4274
lung	-4275
otta	-4276
pace	-4277
▁Lee	-4278
aiden	-4279
idsch	-4280
igner	-4281
байдж	-4282
урнал	-4283
▁Cont	-4284
▁2006.	-4285
▁Allen	-4286
▁Krise	-4287
▁Uttar	-4288
▁organ	-4289
▁Лидер	-4290
▁войны	-4291
▁колле	-4292
▁прожи	-4293
зербайдж	-4294
erbaidsch	-4295
▁Architekt	-4296
лы	-4297
wak	-4298
▁41	-4299
▁бо	-4300
uftw	-4301
арен	-4302
▁Фор	-4303
▁пар	-4304
nikov	-4305
▁mass	-4306
▁Peter	-4307
▁bayer	-4308
uftwaff	-4309
▁Regier	-4310
▁560090.	-4311
▁Batagor	-4312
▁которым	-4313
▁Menschen	-4314
74	-4315
нее	-4316
alus	-4317
berg	-4318
ious	-4319
лиза	-4320
▁Pes	-4321
пуляр	-4322
▁Rams	-4323
▁Sitz	-4324
▁code	-4325
▁Ampara	-4326
▁Places	-4327
▁preceded	-4328
▁Коннектикут	-4329
▁Да	-4330
arat	-4331
▁But	-4332
▁Эри	-4333
▁Beef	-4334
▁power	-4335
▁speed	-4336
▁транс	-4337
▁Thakur	-4338
▁собран	-4339
▁января	-4340
▁Chinese	-4341
▁Hamburg	-4342
▁Sarawak	-4343
▁Карната	-4344
▁Fortress	-4345
▁Jennings	-4346
▁Antwerpen	-4347
▁Azerbaijan	-4348
▁изготовлен	-4349
▁Aserbaidsch	-4350
▁Mathematics	-4351
▁ингредиентов	-4352
ще	-4353
лист	-4354
▁дня	-4355
▁нем	-4356
крати	-4357
▁June	-4358
▁brit	-4359
▁kway	-4360
▁Asher	-4361
▁клуба	-4362
▁созда	-4363
▁Вермон	-4364
▁geführt	-4365
dentifier	-4366
▁площадка	-4367
kma	-4368
omot	-4369
дная	-4370
твер	-4371
▁Dub	-4372
▁Бер	-4373
▁чер	-4374
craft	-4375
kilom	-4376
place	-4377
ством	-4378
▁tart	-4379
▁Флин	-4380
▁Dublin	-4381
▁Harbor	-4382
▁Hungar	-4383
▁Forrest	-4384
/2	-4385
lic	-4386
oln	-4387
ril	-4388
▁Дэ	-4389
rich	-4390
▁abs	-4391
▁bec	-4392
▁орг	-4393
ровал	-4394
▁1983	-4395
▁Teow	-4396
▁обла	-4397
томоби	-4398
▁Etagen	-4399
▁Суарес	-4400
▁десерт	-4401
53	-4402
RA	-4403
bo	-4404
лим	-4405
▁Ее	-4406
abad	-4407
▁0-439	-4408
▁Alkma	-4409
▁Powys	-4410
olloway	-4411
omotive	-4412
▁Gujarat	-4413
▁Holloway	-4414
▁Мэриленд	-4415
▁родилась	-4416
циональный	-4417
▁bayerische	-4418
▁el	-4419
енни	-4420
ulton	-4421
▁этой	-4422
▁Negre	-4423
▁Осбор	-4424
▁посту	-4425
▁Olympi	-4426
▁длиной	-4427
▁awarded	-4428
▁Орхусском	-4429
iom	-4430
jab	-4431
▁Зе	-4432
ards	-4433
iomay	-4434
pital	-4435
unjab	-4436
▁Stan	-4437
allero	-4438
▁meters	-4439
▁сезоне	-4440
▁Andalus	-4441
▁fighter	-4442
▁Copenhagen	-4443
▁,	-4444
▁сы	-4445
kong	-4446
ттер	-4447
▁Gra	-4448
▁Pan	-4449
icken	-4450
olini	-4451
rench	-4452
▁Mark	-4453
▁Alvis	-4454
▁April	-4455
▁когда	-4456
ospital	-4457
▁Fulton	-4458
▁полосу	-4459
▁Альберт	-4460
посадочную	-4461
▁Hardcover	-4462
▁региональ	-4463
▁Restruction	-4464
илл	-4465
▁47	-4466
ehör	-4467
Альб	-4468
стов	-4469
▁Feb	-4470
▁Joe	-4471
▁Lah	-4472
▁Лар	-4473
adrat	-4474
obend	-4475
rance	-4476
Луисе	-4477
▁Prud	-4478
ivision	-4479
▁chicken	-4480
▁истреби	-4481
▁популяр	-4482
▁Hongkong	-4483
▁birthplace	-4484
▁wichtigsten	-4485
▁Griechenland	-4486
▁internationale	-4487
Qu	-4488
TA	-4489
▁Eg	-4490
▁Kn	-4491
▁Mo	-4492
endet	-4493
▁Comm	-4494
▁asiat	-4495
▁party	-4496
▁Альбер	-4497
▁Осборн	-4498
▁подписан	-4499
▁альтернатив	-4500
be	-4501
няя	-4502
umai	-4503
рога	-4504
▁zur	-4505
▁бел	-4506
icial	-4507
▁Беан	-4508
▁Уруг	-4509
▁отно	-4510
▁Davut	-4511
▁инсти	-4512
▁Lahore	-4513
▁Punjab	-4514
▁abbrev	-4515
▁Компания	-4516
▁Prudnikov	-4517
▁расположенный	-4518
788	-4519
amm	-4520
oger	-4521
кета	-4522
▁Ran	-4523
emier	-4524
▁1089	-4525
▁1950	-4526
Atlant	-4527
espace	-4528
музыки	-4529
▁Arros	-4530
▁Campus	-4531
▁during	-4532
▁Premier	-4533
▁Alcobend	-4534
▁geleitet	-4535
DE	-4536
-20	-4537
DEN	-4538
sal	-4539
utt	-4540
▁CO	-4541
▁UK	-4542
▁AEK	-4543
▁youth	-4544
▁Англии	-4545
▁лидеры	-4546
▁рекорд	-4547
▁Antwerp	-4548
▁автомоби	-4549
▁languages	-4550
▁называется	-4551
▁Rindfleisch	-4552
▁represented	-4553
▁Turkmenistan	-4554
78	-4555
iaz	-4556
лей	-4557
той	-4558
▁Cab	-4559
▁Jar	-4560
▁Пер	-4561
ociaz	-4562
анима	-4563
▁Deer	-4564
▁mean	-4565
▁Уайт	-4566
church	-4567
▁Biden	-4568
▁CODEN	-4569
▁champ	-4570
емником	-4571
▁follow	-4572
▁занима	-4573
Atlantic	-4574
▁Douglas	-4575
ociazione	-4576
▁миллиметра	-4577
▁.	-4578
410	-4579
off	-4580
tel	-4581
akar	-4582
alla	-4583
ject	-4584
uter	-4585
▁ten	-4586
▁Фон	-4587
aster	-4588
eiter	-4589
inghe	-4590
läche	-4591
▁Wick	-4592
▁Wild	-4593
▁Дэви	-4594
▁Ranil	-4595
▁Zitar	-4596
revious	-4597
▁органи	-4598
▁Wickrem	-4599
▁Лондоне	-4600
▁District	-4601
▁Caballero	-4602
▁Department	-4603
AG	-4604
че	-4605
imo	-4606
ood	-4607
oor	-4608
zut	-4609
▁Ти	-4610
hand	-4611
Асад	-4612
▁Wiz	-4613
▁inv	-4614
▁Ала	-4615
▁еда	-4616
▁чья	-4617
uting	-4618
weeds	-4619
▁1974	-4620
▁Джор	-4621
▁Titans	-4622
▁Эллиот	-4623
▁входят	-4624
▁страна	-4625
▁spielen	-4626
▁Monocacy	-4627
▁Zitarros	-4628
▁aircraft	-4629
arr	-4630
▁av	-4631
▁gu	-4632
▁их	-4633
▁ти	-4634
eing	-4635
▁11-	-4636
Орхус	-4637
енедж	-4638
▁Jens	-4639
▁глав	-4640
▁Mario	-4641
▁Metapan	-4642
Ло	-4643
деж	-4644
емо	-4645
audi	-4646
eyin	-4647
ilmi	-4648
▁Pet	-4649
lugze	-4650
omacc	-4651
▁1907	-4652
▁Jway	-4653
▁heiß	-4654
▁Hilmi	-4655
▁Мекси	-4656
▁чемпи	-4657
esinghe	-4658
▁Claudi	-4659
omaccone	-4660
▁Hauptzut	-4661
▁Alcobendas	-4662
▁Claudiomaccone	-4663
▁Wickremesinghe	-4664
och	-4665
▁60	-4666
▁8.	-4667
▁Oc	-4668
рава	-4669
▁Пар	-4670
▁Bill	-4671
▁авгу	-4672
▁Arena	-4673
▁Senate	-4674
▁Сарава	-4675
▁Michele	-4676
▁Zitarrosa	-4677
▁Карнатака	-4678
▁Королевства	-4679
▁спроектирован	-4680
iy	-4681
dan	-4682
rib	-4683
▁Ku	-4684
▁лю	-4685
▁му	-4686
west	-4687
▁112	-4688
▁Cow	-4689
▁Nav	-4690
▁Nix	-4691
▁Volk	-4692
▁Botta	-4693
▁unter	-4694
▁Елиза	-4695
влением	-4696
▁French	-4697
▁Lebens	-4698
▁Virage	-4699
▁Alkmaar	-4700
istrative	-4701
▁Hospital	-4702
▁currently	-4703
56	-4704
ун	-4705
▁Й	-4706
▁33	-4707
érie	-4708
▁Est	-4709
▁Sab	-4710
▁head	-4711
▁исто	-4712
mittel	-4713
▁Dynam	-4714
▁Penyet	-4715
▁Secret	-4716
▁Антвер	-4717
jecttura	-4718
▁kilomet	-4719
▁Amarillo	-4720
▁Projecttura	-4721
▁Aserbaidschan	-4722
hu	-4723
atal	-4724
тика	-4725
▁Red	-4726
▁los	-4727
▁сти	-4728
едаль	-4729
▁Gren	-4730
▁Герм	-4731
ландия	-4732
▁Febru	-4733
▁Semin	-4734
▁Jwaydan	-4735
▁Systems	-4736
▁Аргенти	-4737
▁Canonica	-4738
▁Fenchurch	-4739
▁Marcolini	-4740
ano	-4741
вое	-4742
▁Egg	-4743
▁Mid	-4744
▁что	-4745
gesch	-4746
онико	-4747
▁Iraq	-4748
▁Хуан	-4749
▁июня	-4750
▁print	-4751
▁Grenad	-4752
▁absolv	-4753
▁Democrat	-4754
▁студентов	-4755
▁Flughafens	-4756
▁Hauptzutaten	-4757
▁Lebensmittel	-4758
alb	-4759
ami	-4760
лоу	-4761
мии	-4762
сси	-4763
▁Ам	-4764
▁Об	-4765
ingu	-4766
riet	-4767
▁Tor	-4768
атлан	-4769
▁Sabin	-4770
атланти	-4771
▁diente	-4772
▁Грузии	-4773
▁Махмуд	-4774
▁Germany	-4775
inguished	-4776
▁организа	-4777
▁националь	-4778
enc	-4779
odi	-4780
icip	-4781
▁Roy	-4782
▁Сар	-4783
▁соб	-4784
thpop	-4785
Андер	-4786
льную	-4787
▁было	-4788
atalon	-4789
▁belie	-4790
▁опера	-4791
▁Alfredo	-4792
▁Румынии	-4793
неатланти	-4794
▁Wildweeds	-4795
uy	-4796
zn	-4797
The	-4798
льо	-4799
ibal	-4800
ennie	-4801
▁Зита	-4802
ческим	-4803
▁11264	-4804
▁Sibal	-4805
▁Union	-4806
liament	-4807
Адольфо	-4808
▁Gazette	-4809
▁Albennie	-4810
▁39	-4811
ahra	-4812
amen	-4813
Айам	-4814
лина	-4815
▁ant	-4816
▁лет	-4817
▁окт	-4818
istic	-4819
▁gibt	-4820
nthpop	-4821
▁categ	-4822
▁Далла	-4823
▁Cowper	-4824
▁Siomay	-4825
▁Зитарро	-4826
▁октября	-4827
▁Startbahn	-4828
▁гражданин	-4829
▁управляет	-4830
жет	-4831
тура	-4832
▁Ace	-4833
▁Абу	-4834
ables	-4835
▁может	-4836
▁Morgan	-4837
▁Orange	-4838
▁Memorial	-4839
▁absolvierte	-4840
▁Гражданской	-4841
aa	-4842
Ро	-4843
печен	-4844
▁this	-4845
▁Фели	-4846
ческое	-4847
ьюстон	-4848
▁метал	-4849
▁Турции	-4850
▁Pudding	-4851
▁Иллинойс	-4852
▁britischen	-4853
cr	-4854
iad	-4855
час	-4856
▁5,	-4857
▁Tw	-4858
▁То	-4859
9255	-4860
anac	-4861
eget	-4862
tone	-4863
▁Dis	-4864
▁Vik	-4865
▁wei	-4866
iadis	-4867
ейчас	-4868
ußball	-4869
▁pages	-4870
▁white	-4871
▁Mitarb	-4872
▁Scales	-4873
▁Ракета	-4874
▁валюта	-4875
▁языков	-4876
музыкант	-4877
▁Antioqu	-4878
▁Bertone	-4879
▁Зитарроса	-4880
▁Agremiação	-4881
▁Georgiadis	-4882
▁Ассоциацией	-4883
▁3-	-4884
▁43	-4885
hatt	-4886
onis	-4887
umip	-4888
лами	-4889
utera	-4890
▁Alaa	-4891
▁Funk	-4892
hattan	-4893
mation	-4894
▁Bumip	-4895
▁black	-4896
▁Серии	-4897
▁группу	-4898
▁Carroll	-4899
▁Harriet	-4900
▁Saranac	-4901
egetables	-4902
▁обнаружен	-4903
▁Bumiputera	-4904
сп	-4905
тся	-4906
ладе	-4907
▁Ста	-4908
▁Liga	-4909
▁Navy	-4910
▁Ober	-4911
▁führ	-4912
▁type	-4913
uellos	-4914
▁Halim	-4915
▁Атлан	-4916
▁выпол	-4917
▁Jarama	-4918
▁Wizard	-4919
▁районе	-4920
▁Далласе	-4921
aracuellos	-4922
▁Arianespace	-4923
▁Distinguished	-4924
дрю	-4925
лон	-4926
▁mon	-4927
▁Пара	-4928
▁Borman	-4929
▁Gemein	-4930
▁Грузия	-4931
▁Фелипе	-4932
▁истори	-4933
▁General	-4934
▁champions	-4935
▁verwendet	-4936
▁Соединенного	-4937
ku	-4938
ve	-4939
Ат	-4940
bem	-4941
ige	-4942
odo	-4943
зий	-4944
▁Га	-4945
неса	-4946
▁Ann	-4947
▁Ert	-4948
▁сот	-4949
Барай	-4950
▁Twil	-4951
▁Alvah	-4952
▁Sumat	-4953
▁Stadio	-4954
▁страни	-4955
bemaster	-4956
▁исполни	-4957
▁связана	-4958
▁Twilight	-4959
▁километр	-4960
▁Азербайдж	-4961
▁испанский	-4962
▁квадратный	-4963
▁Paracuellos	-4964
▁университетом	-4965
CAO	-4966
geg	-4967
▁RO	-4968
etzt	-4969
ough	-4970
стро	-4971
▁320	-4972
▁Wat	-4973
▁Уот	-4974
▁биз	-4975
▁ово	-4976
stown	-4977
матер	-4978
▁Julia	-4979
▁Город	-4980
▁Adonis	-4981
▁Rhythm	-4982
▁провин	-4983
▁previous	-4984
▁Globemaster	-4985
11	-4986
777	-4987
ссе	-4988
хоп	-4989
▁FD	-4990
▁Rod	-4991
▁Huhn	-4992
▁ICAO	-4993
▁Lars	-4994
▁Meister	-4995
▁October	-4996
▁Quadrat	-4997
▁бизнеса	-4998
▁Dynamics	-4999
▁Antioquia	-5000
▁Прудников	-5001
▁vegetables	-5002
▁предшество	-5003
▁Mitarbeiter	-5004
,2	-5005
Ри	-5006
-0.	-5007
бал	-5008
дес	-5009
▁Од	-5010
iten	-5011
urns	-5012
uten	-5013
енно	-5014
писа	-5015
стин	-5016
▁Att	-5017
▁Aut	-5018
▁Hus	-5019
▁Ste	-5020
ступен	-5021
▁Burns	-5022
▁Parti	-5023
igneria	-5024
▁Mieter	-5025
▁Watson	-5026
▁county	-5027
▁Ertegun	-5028
▁Manhattan	-5029
сун	-5030
хип	-5031
▁Бо	-5032
▁Fin	-5033
▁дом	-5034
aylor	-5035
енных	-5036
▁2013	-5037
▁Kant	-5038
fläche	-5039
▁Above	-5040
▁einen	-5041
▁сплав	-5042
▁Besitz	-5043
▁beliebt	-5044
▁Figneria	-5045
▁музыкант	-5046
▁квадратных	-5047
▁Музыкальный	-5048
7,	-5049
ko	-5050
За	-5051
elk	-5052
rim	-5053
вые	-5054
▁14.	-5055
▁Rasm	-5056
▁beam	-5057
▁eing	-5058
▁клас	-5059
▁Allan	-5060
▁представлял	-5061
▁Harrietstown	-5062
хра	-5063
▁88	-5064
▁sy	-5065
ирми	-5066
▁210	-5067
▁vor	-5068
▁Аля	-5069
▁чей	-5070
ussen	-5071
▁Тайб	-5072
▁Indie	-5073
▁Javan	-5074
▁Scott	-5075
▁Academ	-5076
▁Heimat	-5077
▁Sergio	-5078
▁attended	-5079
▁компании	-5080
▁использует	-5081
iko	-5082
umb	-5083
ärt	-5084
▁зд	-5085
▁Gal	-5086
▁Jus	-5087
▁key	-5088
▁джа	-5089
▁Abub	-5090
▁Gang	-5091
▁live	-5092
▁once	-5093
abelle	-5094
deburg	-5095
▁fried	-5096
▁means	-5097
▁Sumatra	-5098
▁Isabelle	-5099
üse	-5100
рис	-5101
▁Ик	-5102
band	-5103
Сент	-5104
лама	-5105
туре	-5106
▁18.	-5107
▁Cit	-5108
▁Hap	-5109
▁MIT	-5110
ocado	-5111
еньет	-5112
▁East	-5113
датель	-5114
▁Tirst	-5115
▁армии	-5116
▁Guiana	-5117
▁Mexiko	-5118
▁compet	-5119
flughafen	-5120
▁Гонконге	-5121
▁Magdeburg	-5122
▁Rasmussen	-5123
▁найденная	-5124
▁построена	-5125
▁Kl	-5126
▁Ге	-5127
auch	-5128
охан	-5129
▁Moy	-5130
▁Pac	-5131
▁Май	-5132
▁поп	-5133
perty	-5134
билен	-5135
▁Army	-5136
▁ausg	-5137
▁Grove	-5138
▁Икбал	-5139
▁Boeing	-5140
▁Daniel	-5141
▁Moyine	-5142
▁launch	-5143
▁Pacific	-5144
▁Administrative	-5145
ED	-5146
ila	-5147
sel	-5148
▁ex	-5149
онте	-5150
рази	-5151
▁Sal	-5152
▁lat	-5153
женни	-5154
лимпи	-5155
▁Jazz	-5156
▁Wien	-5157
▁beef	-5158
▁сент	-5159
ischer	-5160
▁Jusuf	-5161
▁Gemüse	-5162
▁Pesaka	-5163
▁Дженни	-5164
ributing	-5165
▁Tirstrup	-5166
▁Швейцарии	-5167
▁Arrabbiata	-5168
▁Parliament	-5169
▁Richardson	-5170
гун	-5171
▁ra	-5172
EDAS	-5173
хаба	-5174
▁Mey	-5175
▁cel	-5176
gradu	-5177
round	-5178
▁Bers	-5179
▁Kutt	-5180
▁Крей	-5181
▁кита	-5182
▁PEDAS	-5183
▁сыгра	-5184
▁Bersatu	-5185
▁запущен	-5186
▁завершен	-5187
▁сентября	-5188
▁Arlington	-5189
▁Democratic	-5190
bai	-5191
bra	-5192
ras	-5193
вый	-5194
нос	-5195
щим	-5196
raig	-5197
вшая	-5198
етти	-5199
▁Mum	-5200
▁Wid	-5201
▁ста	-5202
шхаба	-5203
▁Gran	-5204
▁styl	-5205
▁Запа	-5206
hambra	-5207
lossen	-5208
▁Kalla	-5209
▁later	-5210
▁Mumbai	-5211
утерброд	-5212
▁Hopkins	-5213
▁сборную	-5214
▁Luftwaff	-5215
▁Бангалор	-5216
▁Основные	-5217
▁derivative	-5218
II	-5219
уб	-5220
viv	-5221
бра	-5222
▁Сер	-5223
▁Геор	-5224
attoor	-5225
▁Craig	-5226
▁Kampf	-5227
▁Meyer	-5228
енеджер	-5229
▁Colomb	-5230
▁Seiten	-5231
▁Antioch	-5232
▁заверши	-5233
▁Дженнинг	-5234
▁Елизавета	-5235
ct	-5236
se	-5237
inh	-5238
цуз	-5239
▁Du	-5240
ajan	-5241
баль	-5242
▁Ist	-5243
▁car	-5244
urban	-5245
▁Alma	-5246
▁Base	-5247
▁Carl	-5248
▁Cust	-5249
▁Pinh	-5250
▁They	-5251
▁говя	-5252
▁Infor	-5253
▁Абуба	-5254
▁Widodo	-5255
Sandwich	-5256
▁Company	-5257
▁Mahajan	-5258
▁verwaltet	-5259
▁обнаружил	-5260
▁расположение	-5261
▁Palaeontologica	-5262
eed	-5263
зов	-5264
поли	-5265
▁Pre	-5266
buster	-5267
▁17000	-5268
▁Wiley	-5269
Барайас	-5270
▁Вермонт	-5271
ockbuster	-5272
▁Abubakar	-5273
▁основана	-5274
geschlossen	-5275
▁Александра	-5276
Ab	-5277
met	-5278
тур	-5279
▁Ир	-5280
▁Лу	-5281
olit	-5282
well	-5283
квар	-5284
▁Fut	-5285
▁соу	-5286
attar	-5287
▁Joko	-5288
▁This	-5289
кварти	-5290
▁Anton	-5291
▁Fried	-5292
▁Эндрю	-5293
6000000	-5294
▁Custom	-5295
▁Mattar	-5296
▁Георги	-5297
▁Charter	-5298
▁Pinhais	-5299
▁Sumitra	-5300
▁Argentina	-5301
▁internationalen	-5302
рин	-5303
шой	-5304
▁ja	-5305
адис	-5306
▁Arr	-5307
▁Sub	-5308
▁Tab	-5309
▁пра	-5310
▁jazz	-5311
igator	-5312
▁Andra	-5313
▁Moore	-5314
▁final	-5315
▁молодеж	-5316
▁Mattarella	-5317
▁базируется	-5318
ery	-5319
ory	-5320
кий	-5321
раз	-5322
vent	-5323
стан	-5324
riebs	-5325
▁1999	-5326
▁Gard	-5327
eitsch	-5328
ческих	-5329
▁2014.	-5330
▁Mason	-5331
▁Speed	-5332
емориал	-5333
▁Gruppo	-5334
▁became	-5335
▁govern	-5336
▁Площад	-5337
▁afrikan	-5338
eitschrift	-5339
▁Francisco	-5340
▁ausgewählt	-5341
▁Георгиадис	-5342
▁Blockbuster	-5343
72	-5344
364	-5345
kes	-5346
щую	-5347
комо	-5348
ника	-5349
▁109	-5350
▁elev	-5351
▁конф	-5352
estand	-5353
▁Афины	-5354
амятник	-5355
комотив	-5356
▁которых	-5357
▁Betriebs	-5358
▁архитектором	-5359
bor	-5360
аны	-5361
гно	-5362
рэн	-5363
▁09	-5364
chef	-5365
лиге	-5366
▁Rey	-5367
▁Seb	-5368
▁Дже	-5369
▁Фин	-5370
behör	-5371
▁Euro	-5372
▁Гарт	-5373
▁зака	-5374
elected	-5375
▁anthem	-5376
▁selected	-5377
▁Сингапуре	-5378
▁Kampfpilot	-5379
organisation	-5380
dor	-5381
ним	-5382
▁Ok	-5383
engo	-5384
▁Rol	-5385
▁Ros	-5386
▁TLX	-5387
▁TLx	-5388
▁sub	-5389
▁Дей	-5390
▁Educ	-5391
▁McQu	-5392
▁engl	-5393
▁Пена	-5394
ландии	-5395
▁Namen	-5396
▁Kuttik	-5397
▁headqu	-5398
▁Education	-5399
▁operating	-5400
▁Comicfigur	-5401
18	-5402
юр	-5403
yan	-5404
▁AB	-5405
▁кг	-5406
исси	-5407
▁120	-5408
▁Rut	-5409
▁Zau	-5410
▁dos	-5411
▁ice	-5412
▁Адо	-5413
berer	-5414
itiba	-5415
▁1101	-5416
▁arem	-5417
ческую	-5418
▁Phill	-5419
▁Reyes	-5420
behörde	-5421
ствовал	-5422
▁Attica	-5423
▁Sebast	-5424
▁Viking	-5425
Александ	-5426
▁Zauberer	-5427
▁Solanales	-5428
▁Associazione	-5429
»,	-5430
isl	-5431
деш	-5432
тут	-5433
кова	-5434
▁Sil	-5435
▁all	-5436
▁жив	-5437
▁мая	-5438
жения	-5439
татюр	-5440
▁2004	-5441
▁Глен	-5442
▁Кант	-5443
▁Эрте	-5444
▁того	-5445
000,0.	-5446
ностью	-5447
▁Bengo	-5448
▁disco	-5449
mission	-5450
ристиан	-5451
▁Boston	-5452
▁Shumai	-5453
▁guitar	-5454
▁уровне	-5455
▁Kuttikk	-5456
▁Альбина	-5457
▁Province	-5458
▁gebraten	-5459
▁monument	-5460
▁скончался	-5461
▁Locomotive	-5462
бу	-5463
▁@	-5464
zig	-5465
▁6,	-5466
colo	-5467
▁Cur	-5468
▁Рам	-5469
▁хип	-5470
Pilot	-5471
arest	-5472
lines	-5473
марльо	-5474
▁2009.	-5475
▁Coupé	-5476
▁Felic	-5477
▁Johns	-5478
▁Аддис	-5479
▁Джона	-5480
▁Марти	-5481
▁Berlin	-5482
▁Helena	-5483
▁Legend	-5484
▁produc	-5485
ливленде	-5486
▁Ireland	-5487
▁bhangra	-5488
▁говорит	-5489
ben	-5490
бин	-5491
▁Pu	-5492
▁SB	-5493
▁ас	-5494
heast	-5495
ipzig	-5496
oviet	-5497
▁1994	-5498
▁2001	-5499
▁Jose	-5500
▁Nord	-5501
▁batt	-5502
▁печа	-5503
icipal	-5504
▁Spart	-5505
▁Staat	-5506
ainment	-5507
бальеро	-5508
▁Finland	-5509
▁Leipzig	-5510
▁Suburban	-5511
▁Германии	-5512
▁Addiction	-5513
▁stylistic	-5514
▁Кабальеро	-5515
▁Aleksandra	-5516
▁Kuttikkattoor	-5517
тя	-5518
ior	-5519
kara	-5520
tert	-5521
мени	-5522
▁610	-5523
лянди	-5524
▁1993	-5525
▁Реги	-5526
▁Guner	-5527
▁Plack	-5528
▁ihren	-5529
▁Дания	-5530
▁блюза	-5531
▁диско	-5532
▁живут	-5533
▁орган	-5534
▁Ankara	-5535
▁Potter	-5536
▁Чикаго	-5537
▁аренда	-5538
▁сделан	-5539
▁Финлянди	-5540
ms	-5541
-04	-5542
pat	-5543
дах	-5544
▁Ba	-5545
▁Cr	-5546
▁KW	-5547
atis	-5548
жара	-5549
▁гла	-5550
▁1097	-5551
▁3800	-5552
▁пала	-5553
▁сборной	-5554
▁building	-5555
▁followed	-5556
FK	-5557
имн	-5558
чер	-5559
ache	-5560
ielt	-5561
uper	-5562
ланд	-5563
▁hip	-5564
▁Рим	-5565
zeich	-5566
▁1500	-5567
▁Brom	-5568
▁Hern	-5569
ausgeg	-5570
ecture	-5571
▁Entert	-5572
▁Metern	-5573
▁Trance	-5574
▁author	-5575
▁Холлоу	-5576
▁тестов	-5577
▁Butuner	-5578
▁Country	-5579
▁Huseyin	-5580
▁Provinz	-5581
▁области	-5582
▁Felicitas	-5583
▁Information	-5584
▁Entertainment	-5585
AM	-5586
hit	-5587
ude	-5588
олет	-5589
▁159	-5590
▁mar	-5591
▁Япо	-5592
asion	-5593
emper	-5594
kürzt	-5595
üssel	-5596
йской	-5597
▁Dead	-5598
apolis	-5599
▁Malay	-5600
▁Ангола	-5601
▁Davutog	-5602
▁истребителя	-5603
öß	-5604
йс	-5605
305	-5606
uez	-5607
анр	-5608
нер	-5609
тон	-5610
6063	-5611
▁Nar	-5612
▁Vor	-5613
▁tit	-5614
▁dist	-5615
ematis	-5616
▁Dykes	-5617
▁Vicia	-5618
▁heißt	-5619
▁Бирми	-5620
▁Книга	-5621
gekürzt	-5622
▁Assemb	-5623
▁Castle	-5624
▁Texans	-5625
▁Central	-5626
▁Нидерландах	-5627
▁сотрудников	-5628
bul	-5629
urs	-5630
Бар	-5631
ама	-5632
бре	-5633
кер	-5634
мма	-5635
park	-5636
вого	-5637
▁399	-5638
▁Old	-5639
▁Sus	-5640
▁gew	-5641
-1768	-5642
utale	-5643
▁Live	-5644
▁Modi	-5645
▁größ	-5646
000.0.	-5647
▁Stars	-5648
▁Stock	-5649
lugzeug	-5650
▁Ачарья	-5651
▁музыкан	-5652
▁Альфредо	-5653
▁Alligator	-5654
▁Davutoglu	-5655
▁художником	-5656
▁Королевстве	-5657
хэ	-5658
нут	-5659
▁Lu	-5660
▁па	-5661
6391	-5662
онне	-5663
▁mal	-5664
▁par	-5665
▁Гви	-5666
▁Гро	-5667
▁Пол	-5668
▁Сам	-5669
asmus	-5670
erenc	-5671
razil	-5672
▁1987	-5673
▁Rodr	-5674
▁Sard	-5675
▁Tony	-5676
▁Рома	-5677
Спарта	-5678
▁стили	-5679
тельный	-5680
▁Narend	-5681
▁медаль	-5682
▁führend	-5683
▁married	-5684
▁Холлоуэй	-5685
▁Technical	-5686
▁гражданской	-5687
▁organisation	-5688
76	-5689
ню	-5690
eht	-5691
ped	-5692
вор	-5693
мат	-5694
ний	-5695
▁FK	-5696
▁Из	-5697
oriz	-5698
▁bes	-5699
▁bro	-5700
▁пос	-5701
staat	-5702
archer	-5703
писана	-5704
▁Jorge	-5705
▁Мисси	-5706
Атланта	-5707
▁Ferenc	-5708
▁Susana	-5709
▁involv	-5710
▁Larcher	-5711
▁Mendoza	-5712
▁поступа	-5713
стическое	-5714
▁Haputale	-5715
▁Narendra	-5716
▁performer	-5717
▁Indianapolis	-5718
▁предшествовал	-5719
dy	-5720
Ар	-5721
уэ	-5722
cup	-5723
ria	-5724
▁TC	-5725
▁Ор	-5726
esen	-5727
ради	-5728
▁Cul	-5729
▁PFK	-5730
aters	-5731
▁1995	-5732
▁Fior	-5733
Аллама	-5734
▁1963.	-5735
▁100305	-5736
▁560090	-5737
▁Contra	-5738
▁tenant	-5739
Андерсон	-5740
радицион	-5741
▁Assembly	-5742
▁производ	-5743
▁тестовым	-5744
▁kilometre	-5745
▁Кливленде	-5746
fer	-5747
zen	-5748
тик	-5749
▁50	-5750
▁Ed	-5751
▁же	-5752
ebut	-5753
hrys	-5754
дери	-5755
дний	-5756
отти	-5757
▁Jal	-5758
▁Nik	-5759
▁фон	-5760
anbul	-5761
нутри	-5762
▁Hump	-5763
▁Reis	-5764
▁USAF	-5765
▁Алек	-5766
zeichn	-5767
▁being	-5768
▁debut	-5769
▁владе	-5770
▁größte	-5771
▁округе	-5772
▁Tennant	-5773
▁Alhambra	-5774
▁performing	-5775
▁Филиппинах	-5776
▁преемником	-5777
▁traditional	-5778
45	-5779
òs	-5780
ahl	-5781
Ридж	-5782
сипи	-5783
цами	-5784
▁12.	-5785
▁бер	-5786
abour	-5787
сбург	-5788
▁Hels	-5789
▁Hunt	-5790
▁amer	-5791
ipline	-5792
ziplin	-5793
▁Ahmed	-5794
▁Valls	-5795
▁длина	-5796
▁клубе	-5797
▁Govern	-5798
▁внутри	-5799
▁Halimah	-5800
▁Legends	-5801
министром	-5802
▁binignit	-5803
▁Миссисипи	-5804
▁transmission	-5805
6,	-5806
603	-5807
elv	-5808
huk	-5809
кри	-5810
кус	-5811
▁70	-5812
bank	-5813
umar	-5814
▁ACF	-5815
▁Cor	-5816
▁Tan	-5817
▁res	-5818
▁1959	-5819
▁AZAL	-5820
▁Cand	-5821
▁Lanc	-5822
▁Ryan	-5823
▁weiß	-5824
▁Поль	-5825
▁штаб	-5826
ground	-5827
rabhuk	-5828
▁Reddy	-5829
▁Brazil	-5830
▁second	-5831
▁Джеймс	-5832
▁Burbank	-5833
▁Erasmus	-5834
▁Саравак	-5835
▁Airlines	-5836
▁involved	-5837
▁official	-5838
rabhukumar	-5839
▁background	-5840
▁Нидерландов	-5841
gs	-5842
пы	-5843
-01	-5844
ode	-5845
фан	-5846
▁Fl	-5847
edic	-5848
roma	-5849
▁Они	-5850
▁Оре	-5851
▁Ска	-5852
overs	-5853
uncan	-5854
гноли	-5855
ровой	-5856
торой	-5857
▁1862	-5858
▁Fest	-5859
▁Fiat	-5860
▁Croma	-5861
▁Roule	-5862
▁Südaf	-5863
▁Yacob	-5864
▁главе	-5865
▁перед	-5866
ailable	-5867
▁Duncan	-5868
▁Скалес	-5869
▁музыкальным	-5870
▁angeschlossen	-5871
бес	-5872
тего	-5873
туру	-5874
шего	-5875
▁oil	-5876
▁wie	-5877
▁Хор	-5878
▁чис	-5879
▁Бель	-5880
▁Фрэн	-5881
apalli	-5882
звание	-5883
ческая	-5884
▁named	-5885
▁Белый	-5886
▁Labour	-5887
▁Polish	-5888
▁играют	-5889
useeland	-5890
▁Philipp	-5891
▁получил	-5892
▁Humphrys	-5893
▁formerly	-5894
09	-5895
68.	-5896
ker	-5897
дил	-5898
хим	-5899
▁69	-5900
▁ge	-5901
▁мэ	-5902
stät	-5903
тный	-5904
▁Lok	-5905
▁код	-5906
Андже	-5907
stätte	-5908
▁Brasil	-5909
▁namens	-5910
▁пеньет	-5911
unicipal	-5912
Анджелес	-5913
▁Festung	-5914
▁Fußball	-5915
▁powered	-5916
▁Альберта	-5917
estandteil	-5918
▁Ромагноли	-5919
▁традицион	-5920
▁Alexandria	-5921
▁Fiorentina	-5922
▁Prabhukumar	-5923
▁международный	-5924
▁среднеатланти	-5925
60.	-5926
zny	-5927
дой	-5928
▁MB	-5929
opis	-5930
weet	-5931
лана	-5932
▁23.	-5933
▁Mer	-5934
▁sur	-5935
▁юго	-5936
Донне	-5937
▁Barb	-5938
▁апре	-5939
▁гимн	-5940
▁Baade	-5941
▁Klaus	-5942
▁Samar	-5943
▁Volks	-5944
▁leads	-5945
vapalli	-5946
▁Grozny	-5947
▁Jackson	-5948
▁Филиппин	-5949
▁площадью	-5950
▁Disziplin	-5951
▁британском	-5952
▁управлением	-5953
▁Европейского	-5954
▁исторических	-5955
.)	-5956
▁х	-5957
aid	-5958
aro	-5959
dia	-5960
osi	-5961
ple	-5962
rop	-5963
ula	-5964
кун	-5965
leri	-5966
едер	-5967
орис	-5968
▁Daw	-5969
▁Fed	-5970
▁клю	-5971
▁Führ	-5972
▁Härt	-5973
▁Schl	-5974
▁Демо	-5975
▁Уилл	-5976
▁быть	-5977
▁дату	-5978
ламент	-5979
▁Arròs	-5980
▁Stern	-5981
▁added	-5982
▁class	-5983
▁берет	-5984
▁малай	-5985
▁секун	-5986
ongress	-5987
▁Dawson	-5988
▁celest	-5989
▁seinen	-5990
▁2014-15	-5991
▁Franklin	-5992
▁Баварский	-5993
▁Bundesstaat	-5994
IV	-5995
ize	-5996
тый	-5997
edon	-5998
sman	-5999
▁151	-6000
▁Cyr	-6001
▁HIV	-6002
▁Ter	-6003
▁Али	-6004
▁Эпо	-6005
raero	-6006
unity	-6007
Север	-6008
ената	-6009
▁Bolt	-6010
▁Упра	-6011
лессио	-6012
▁Paris	-6013
▁Орего	-6014
▁косми	-6015
▁Härtel	-6016
▁Bundelk	-6017
▁Rouleau	-6018
▁Spanisch	-6019
▁celestial	-6020
▁поступает	-6021
▁этнически	-6022
▁Вашингтона	-6023
sp	-6024
-3,	-6025
ram	-6026
шем	-6027
▁Sa	-6028
умер	-6029
▁Wal	-6030
▁pot	-6031
isher	-6032
▁Lira	-6033
▁voll	-6034
▁Гроз	-6035
▁Марк	-6036
varosi	-6037
▁Lydia	-6038
▁искус	-6039
▁массу	-6040
▁Walter	-6041
▁мировой	-6042
английски	-6043
▁Congress	-6044
▁Ahmedabad	-6045
▁available	-6046
▁технологи	-6047
Zeitschrift	-6048
▁Regierungs	-6049
▁двигателем	-6050
тт	-6051
хе	-6052
Ass	-6053
oto	-6054
▁Рад	-6055
▁деб	-6056
▁тор	-6057
angen	-6058
восто	-6059
▁Tama	-6060
▁With	-6061
▁Валь	-6062
▁Васп	-6063
▁вице	-6064
редери	-6065
▁Сабин	-6066
▁альма	-6067
▁масло	-6068
▁Centre	-6069
▁Адонис	-6070
▁жителя	-6071
▁начало	-6072
▁Форрест	-6073
▁Sarvapalli	-6074
▁эпохальную	-6075
▁Ferencvarosi	-6076
Со	-6077
ье	-6078
рев	-6079
▁4-	-6080
▁Je	-6081
aker	-6082
otyl	-6083
wohn	-6084
▁Gur	-6085
▁Rah	-6086
▁дис	-6087
▁нау	-6088
▁пев	-6089
olumb	-6090
▁surf	-6091
▁Гуру	-6092
▁жена	-6093
▁тело	-6094
▁Эрнан	-6095
▁Роберт	-6096
otyledon	-6097
▁Falcons	-6098
▁основан	-6099
Альбукерке	-6100
▁previously	-6101
ии	-6102
uli	-6103
нюю	-6104
back	-6105
ilar	-6106
omas	-6107
пара	-6108
urple	-6109
деров	-6110
▁same	-6111
▁Авиа	-6112
▁инди	-6113
▁title	-6114
Доннелл	-6115
▁Guruli	-6116
▁Motors	-6117
▁Thomas	-6118
▁wurden	-6119
▁Гурули	-6120
▁Sandesh	-6121
▁bandeja	-6122
▁Istanbul	-6123
▁hardcover	-6124
▁проживает	-6125
▁hergestellt	-6126
▁Regierungschef	-6127
ari	-6128
aum	-6129
ike	-6130
ips	-6131
сей	-6132
otus	-6133
дает	-6134
▁Гор	-6135
sburg	-6136
тяжен	-6137
▁2532	-6138
▁Sach	-6139
salami	-6140
▁Антио	-6141
сточной	-6142
▁Алисон	-6143
▁Massimo	-6144
▁Австрии	-6145
▁лидеров	-6146
▁Площадка	-6147
▁искусств	-6148
▁Abdulsalami	-6149
Но	-6150
New	-6151
win	-6152
бри	-6153
где	-6154
жей	-6155
ыре	-6156
▁To	-6157
vide	-6158
узей	-6159
▁Koc	-6160
▁lit	-6161
▁min	-6162
▁Кей	-6163
Йорка	-6164
бесное	-6165
▁Brook	-6166
▁Metap	-6167
Спартак	-6168
▁Англия	-6169
▁самолет	-6170
▁секунду	-6171
▁собрани	-6172
▁property	-6173
▁Абубакар	-6174
▁известный	-6175
▁награжден	-6176
▁0-439-1768	-6177
▁Aleksandre	-6178
▁discipline	-6179
▁исполнитель	-6180
мон	-6181
цип	-6182
liga	-6183
виде	-6184
дной	-6185
▁0,0	-6186
▁Dol	-6187
▁Ras	-6188
▁Брю	-6189
▁зна	-6190
Сумер	-6191
турец	-6192
▁1913	-6193
▁Irak	-6194
▁meas	-6195
▁rice	-6196
▁Анто	-6197
салами	-6198
▁Ковач	-6199
▁этажа	-6200
Сумерки	-6201
еспубли	-6202
▁parent	-6203
▁Аляска	-6204
▁Андрей	-6205
▁чемпио	-6206
президен	-6207
▁Stadium	-6208
▁написана	-6209
▁McDonnell	-6210
▁Palaeontol	-6211
▁abbreviated	-6212
▁Афроамерикан	-6213
add	-6214
öst	-6215
▁63	-6216
▁Ру	-6217
▁Аре	-6218
▁Вир	-6219
▁Мур	-6220
▁кан	-6221
addum	-6222
ерала	-6223
▁Vila	-6224
▁Сама	-6225
▁лиге	-6226
▁фран	-6227
кращен	-6228
▁Abrad	-6229
▁Boris	-6230
▁Clube	-6231
▁Futeb	-6232
▁Série	-6233
▁dedic	-6234
▁одним	-6235
▁сорев	-6236
Амарльо	-6237
▁George	-6238
▁Shivers	-6239
▁manages	-6240
▁Aviation	-6241
▁Synthpop	-6242
▁километра	-6243
▁Абдулсалами	-6244
25	-6245
AC	-6246
▁0,	-6247
▁фи	-6248
ford	-6249
ines	-6250
база	-6251
поло	-6252
▁108	-6253
▁Bob	-6254
▁Don	-6255
▁наз	-6256
ached	-6257
izade	-6258
видео	-6259
нгтон	-6260
сунсь	-6261
циали	-6262
▁Gebä	-6263
▁Port	-6264
▁Saab	-6265
▁выше	-6266
▁цвет	-6267
0000,0	-6268
▁Artur	-6269
▁Asunc	-6270
▁Auron	-6271
▁China	-6272
▁Drago	-6273
▁жанра	-6274
▁стади	-6275
hitleri	-6276
▁Petrot	-6277
▁temper	-6278
▁Асунсь	-6279
▁Oktober	-6280
онтевидео	-6281
▁Rasizade	-6282
▁Республи	-6283
▁dedicated	-6284
▁Identifier	-6285
▁Афроамериканцы	-6286
▁стилистическое	-6287
ibb	-6288
lue	-6289
atic	-6290
zung	-6291
вала	-6292
▁0.0	-6293
▁sim	-6294
▁бан	-6295
annis	-6296
video	-6297
Ланка	-6298
мпера	-6299
▁1001	-6300
▁Fern	-6301
▁Rand	-6302
▁беко	-6303
qaddum	-6304
рантов	-6305
▁Kovac	-6306
▁Spitz	-6307
ohannis	-6308
tevideo	-6309
Северед	-6310
▁Center	-6311
▁Irland	-6312
▁Futebol	-6313
▁Spartak	-6314
▁команду	-6315
▁Fernando	-6316
▁temperature	-6317
▁Региональный	-6318
-3.	-6319
ión	-6320
вич	-6321
лла	-6322
ура	-6323
фон	-6324
acht	-6325
akis	-6326
eint	-6327
elin	-6328
ulia	-6329
▁211	-6330
▁Che	-6331
▁Ира	-6332
ettes	-6333
▁9000	-6334
▁Accr	-6335
▁Nova	-6336
▁евро	-6337
▁люди	-6338
▁певи	-6339
▁Autor	-6340
▁Veint	-6341
▁Перон	-6342
▁Eaters	-6343
▁player	-6344
▁potato	-6345
▁Джоном	-6346
▁Belgaum	-6347
▁McQuaid	-6348
▁Rolando	-6349
▁Взлетно	-6350
▁Gazettes	-6351
▁Friedrich	-6352
▁Accrington	-6353
67	-6354
-07	-6355
80-	-6356
0002	-6357
elle	-6358
lyde	-6359
ербы	-6360
пыта	-6361
стру	-6362
▁14-	-6363
▁17.	-6364
▁252	-6365
▁475	-6366
▁546	-6367
▁Fav	-6368
▁ван	-6369
ional	-6370
вилле	-6371
ерков	-6372
▁bass	-6373
▁Дейр	-6374
incoln	-6375
shafen	-6376
щества	-6377
▁Agust	-6378
▁Booga	-6379
▁Sands	-6380
▁deren	-6381
▁Флинт	-6382
▁Europä	-6383
▁Geback	-6384
▁Англий	-6385
▁дисцип	-6386
▁Abradab	-6387
▁Альбенни	-6388
▁включают	-6389
▁провинции	-6390
▁Индианаполи	-6391
ci	-6392
är	-6393
426	-6394
adc	-6395
sia	-6396
гер	-6397
мус	-6398
щих	-6399
▁су	-6400
рист	-6401
6063)	-6402
ellor	-6403
ilton	-6404
Атлас	-6405
сится	-6406
▁1981	-6407
▁Chir	-6408
▁Gaus	-6409
▁Hein	-6410
▁Pall	-6411
▁соль	-6412
adcast	-6413
artoff	-6414
elvins	-6415
ventus	-6416
▁north	-6417
▁земля	-6418
▁Manuel	-6419
▁Placid	-6420
▁Seagle	-6421
▁(66063)	-6422
▁Aleksey	-6423
▁Bhangra	-6424
▁Gaussia	-6425
▁Lincoln	-6426
▁Samaras	-6427
▁Мексике	-6428
▁Boogaard	-6429
▁Canadian	-6430
▁Juventus	-6431
▁Montevideo	-6432
bre	-6433
war	-6434
бой	-6435
иса	-6436
най	-6437
▁Hy	-6438
udor	-6439
амет	-6440
коль	-6441
▁Dek	-6442
▁Luf	-6443
▁Scr	-6444
▁ins	-6445
udium	-6446
which	-6447
делен	-6448
▁2011	-6449
▁Marm	-6450
▁Vout	-6451
▁aber	-6452
▁ange	-6453
▁diam	-6454
▁Хант	-6455
▁Чири	-6456
▁Эрик	-6457
▁Aniti	-6458
▁Nikos	-6459
Univers	-6460
▁475426	-6461
▁Анголы	-6462
▁Фонтан	-6463
▁апреля	-6464
▁партия	-6465
▁этажей	-6466
▁similar	-6467
▁Испания	-6468
▁сделана	-6469
▁Sehitleri	-6470
▁регионального	-6471
28	-6472
geb	-6473
▁ос	-6474
enos	-6475
lins	-6476
ufen	-6477
▁Kot	-6478
▁rot	-6479
▁Агу	-6480
говор	-6481
▁3180	-6482
▁Bent	-6483
▁Cook	-6484
▁Dian	-6485
▁Dies	-6486
▁канц	-6487
isches	-6488
Абилен	-6489
▁Arbor	-6490
▁Super	-6491
▁Барбо	-6492
▁Манор	-6493
▁Райель	-6494
▁Barboza	-6495
▁Cullins	-6496
▁Metapán	-6497
▁Studium	-6498
▁airbase	-6499
▁surface	-6500
▁августа	-6501
▁филиппи	-6502
▁district	-6503
▁возникла	-6504
▁Hungarica	-6505
▁footballer	-6506
ара	-6507
воз	-6508
дет	-6509
▁Ty	-6510
▁da	-6511
▁ль	-6512
avlo	-6513
poul	-6514
priv	-6515
reek	-6516
uren	-6517
ксов	-6518
лект	-6519
стем	-6520
▁End	-6521
▁Jon	-6522
▁Lam	-6523
▁sit	-6524
▁Лин	-6525
anger	-6526
kopis	-6527
tions	-6528
▁Back	-6529
▁Post	-6530
▁Russ	-6531
onnais	-6532
poulos	-6533
▁Maran	-6534
▁Pavlo	-6535
▁jetzt	-6536
▁Вирги	-6537
▁Длина	-6538
▁Hauptb	-6539
▁Второй	-6540
▁Паркер	-6541
▁находя	-6542
▁систем	-6543
▁Arapriv	-6544
▁Эртегун	-6545
▁институ	-6546
▁Chirikov	-6547
▁Lyonnais	-6548
▁Prokopis	-6549
▁Sandwich	-6550
▁Эрнандес	-6551
▁комиксов	-6552
▁Socialist	-6553
▁Пакистана	-6554
▁Сингапура	-6555
▁относится	-6556
▁asiatische	-6557
▁аэропортом	-6558
▁гражданином	-6559
▁Friedrichshafen	-6560
ael	-6561
enb	-6562
рио	-6563
▁MA	-6564
▁ye	-6565
iver	-6566
wadh	-6567
Агра	-6568
▁911	-6569
octor	-6570
uated	-6571
▁Рамс	-6572
ussels	-6573
▁Izmir	-6574
▁Jacob	-6575
▁Lotus	-6576
▁Марса	-6577
▁Филли	-6578
▁публи	-6579
▁Buuren	-6580
▁Rotter	-6581
▁maiden	-6582
▁катего	-6583
▁battles	-6584
▁journal	-6585
▁темпера	-6586
▁Brussels	-6587
▁Iohannis	-6588
▁известное	-6589
▁художника	-6590
▁Burlington	-6591
▁Monocotyledon	-6592
ač	-6593
Би	-6594
фт	-6595
-03	-6596
hai	-6597
дор	-6598
рои	-6599
юти	-6600
▁иг	-6601
ekom	-6602
zeit	-6603
дама	-6604
шена	-6605
▁red	-6606
aguay	-6607
merce	-6608
льной	-6609
▁Pala	-6610
▁Tyus	-6611
▁many	-6612
▁араб	-6613
ekomst	-6614
vasion	-6615
▁Awadh	-6616
▁Grand	-6617
▁among	-6618
▁studi	-6619
▁Дербы	-6620
▁Новой	-6621
▁Эпоха	-6622
▁карто	-6623
actions	-6624
elinids	-6625
eymouth	-6626
verband	-6627
▁Kuchen	-6628
▁doctor	-6629
▁measur	-6630
ampfalli	-6631
▁Belgium	-6632
▁Newport	-6633
▁Voutsis	-6634
▁genannt	-6635
▁Барбоса	-6636
▁Джорджи	-6637
▁Авиабаза	-6638
▁разговор	-6639
▁Olympique	-6640
▁postgradu	-6641
TU	-6642
alo	-6643
рук	-6644
▁(1	-6645
▁гу	-6646
-201	-6647
777)	-6648
рджи	-6649
▁выс	-6650
ruppe	-6651
етыре	-6652
соном	-6653
▁Cape	-6654
▁Armin	-6655
▁betre	-6656
▁cream	-6657
▁plant	-6658
▁Брази	-6659
▁Бельги	-6660
▁Вирджи	-6661
▁Уотсон	-6662
▁дебюти	-6663
▁команд	-6664
▁Avocado	-6665
ianischen	-6666
▁Curitiba	-6667
▁Infraero	-6668
▁division	-6669
▁situated	-6670
▁Rotterdam	-6671
▁Sportpark	-6672
ий	-6673
ohl	-6674
sip	-6675
лод	-6676
сен	-6677
шир	-6678
ьет	-6679
▁78	-6680
▁ла	-6681
brid	-6682
ties	-6683
веро	-6684
тема	-6685
▁Tel	-6686
▁ban	-6687
▁имя	-6688
agine	-6689
osten	-6690
▁Rath	-6691
▁Tsip	-6692
▁gran	-6693
▁spre	-6694
▁Ката	-6695
▁Шнай	-6696
bridge	-6697
▁Dekan	-6698
▁floor	-6699
▁polit	-6700
▁жарен	-6701
▁общей	-6702
▁посвя	-6703
▁совет	-6704
breaker	-6705
▁Alexis	-6706
▁Taylor	-6707
▁Tennis	-6708
▁Ашхаба	-6709
▁сейчас	-6710
▁Rathaus	-6711
▁diameter	-6712
▁speaking	-6713
▁Зеландия	-6714
▁вариатор	-6715
▁местополо	-6716
▁принадлежа	-6717
▁ингредиента	-6718
14	-6719
dn	-6720
Хо	-6721
-93	-6722
ida	-6723
oit	-6724
вых	-6725
неш	-6726
ние	-6727
▁ST	-6728
▁VK	-6729
▁eg	-6730
anda	-6731
ruit	-6732
ание	-6733
вана	-6734
сбур	-6735
▁Cas	-6736
▁McL	-6737
▁Sao	-6738
▁Уор	-6739
▁вме	-6740
-2060	-6741
phalt	-6742
винов	-6743
мента	-6744
▁(410	-6745
▁1904	-6746
▁Gold	-6747
▁folg	-6748
▁well	-6749
▁Арми	-6750
▁пере	-6751
▁пода	-6752
raight	-6753
▁Iulia	-6754
▁Plant	-6755
▁Горба	-6756
▁Место	-6757
▁Параг	-6758
▁имеют	-6759
▁общую	-6760
▁одной	-6761
oughlin	-6762
▁1-4165	-6763
▁Ethiop	-6764
▁Imagine	-6765
▁Фредери	-6766
▁руковод	-6767
▁Небесное	-6768
▁Националь	-6769
▁McLoughlin	-6770
▁1-4165-2060	-6771
▁Transactions	-6772
▁Технологическим	-6773
57	-6774
ty	-6775
ämp	-6776
вен	-6777
луж	-6778
▁Hö	-6779
lein	-6780
вали	-6781
фика	-6782
▁978	-6783
▁Hor	-6784
arnie	-6785
umbus	-6786
▁1980	-6787
▁cook	-6788
▁folk	-6789
▁СПИД	-6790
▁обра	-6791
astern	-6792
первые	-6793
▁famil	-6794
▁space	-6795
▁матер	-6796
▁откры	-6797
▁Канаде	-6798
▁диамет	-6799
▁Tsipras	-6800
▁artists	-6801
▁Хьюстон	-6802
▁Шнайдер	-6803
▁столицу	-6804
▁Heinlein	-6805
▁Invasion	-6806
▁amerikan	-6807
▁Демократи	-6808
▁двигателя	-6809
..	-6810
pa	-6811
sy	-6812
Ин	-6813
ез	-6814
290	-6815
hre	-6816
vor	-6817
фио	-6818
▁Pe	-6819
ayaw	-6820
enep	-6821
flan	-6822
доко	-6823
лось	-6824
стол	-6825
▁MTU	-6826
▁офи	-6827
▁сра	-6828
6391)	-6829
фанте	-6830
▁1971	-6831
▁Пала	-6832
▁базе	-6833
United	-6834
arters	-6835
йского	-6836
строве	-6837
▁Aires	-6838
▁Croci	-6839
▁Jayaw	-6840
▁const	-6841
▁своей	-6842
▁турец	-6843
enepura	-6844
анского	-6845
▁family	-6846
▁Амстер	-6847
▁derzeit	-6848
▁studied	-6849
▁(410777)	-6850
▁Paraguay	-6851
kilometres	-6852
▁Malaysian	-6853
▁Petrotrin	-6854
▁performed	-6855
▁Architekten	-6856
▁Fahrbahnname	-6857
58	-6858
95	-6859
ое	-6860
iac	-6861
Аре	-6862
Пра	-6863
вел	-6864
кже	-6865
цию	-6866
▁1,	-6867
▁cu	-6868
▁um	-6869
▁би	-6870
Soto	-6871
akov	-6872
далу	-6873
евра	-6874
рабо	-6875
alien	-6876
iacao	-6877
ingen	-6878
▁Chum	-6879
▁Work	-6880
▁comm	-6881
▁erst	-6882
▁Чума	-6883
lungen	-6884
евраля	-6885
стреча	-6886
▁Chanc	-6887
▁Lokke	-6888
▁Stell	-6889
▁DeSoto	-6890
▁backup	-6891
▁авиаба	-6892
▁вместе	-6893
▁размер	-6894
Мемориал	-6895
▁команды	-6896
▁крупный	-6897
▁февраля	-6898
▁Chumakov	-6899
▁средства	-6900
▁художник	-6901
▁Антверпен	-6902
▁icebreaker	-6903
▁traditionell	-6904
aca	-6905
rag	-6906
▁ed	-6907
ение	-6908
чных	-6909
▁280	-6910
▁Und	-6911
▁get	-6912
▁боб	-6913
rahlt	-6914
▁2008	-6915
▁Schw	-6916
▁funk	-6917
▁доба	-6918
музыку	-6919
▁Davis	-6920
▁Eagle	-6921
▁Gloom	-6922
▁Kovač	-6923
▁Pflan	-6924
▁Zahra	-6925
▁along	-6926
▁cakes	-6927
▁sarnie	-6928
▁Мартин	-6929
▁высшем	-6930
▁образо	-6931
▁(66391)	-6932
▁впервые	-6933
▁Crociere	-6934
▁Jayaward	-6935
▁завершена	-6936
▁производит	-6937
▁футбольной	-6938
▁этническую	-6939
▁gesprochene	-6940
▁Sardampfalli	-6941
▁ингредиентом	-6942
▁Jayawardenepura	-6943
зже	-6944
ucht	-6945
берг	-6946
▁15.	-6947
▁523	-6948
▁Bal	-6949
▁sow	-6950
▁Лей	-6951
▁Рей	-6952
▁бас	-6953
▁вол	-6954
▁рис	-6955
meter	-6956
vival	-6957
берна	-6958
дерни	-6959
докол	-6960
енджа	-6961
▁Puig	-6962
▁join	-6963
▁star	-6964
▁выпу	-6965
▁Chute	-6966
▁Steve	-6967
▁draft	-6968
▁Benoit	-6969
▁Luanda	-6970
▁предсе	-6971
▁Gebäude	-6972
▁Located	-6973
▁Revival	-6974
▁ausgest	-6975
▁страниц	-6976
▁Вашингтоне	-6977
▁ausgestrahlt	-6978
84	-6979
uz	-6980
ид	-6981
enz	-6982
овя	-6983
▁Ки	-6984
▁Юж	-6985
4071	-6986
788)	-6987
eben	-6988
зерв	-6989
▁(15	-6990
ocano	-6991
▁164,	-6992
▁Kore	-6993
▁Хали	-6994
Прадеш	-6995
оттинг	-6996
▁Chief	-6997
▁Аллен	-6998
▁женат	-6999
▁кораб	-7000
▁Bobina	-7001
▁Purple	-7002
▁system	-7003
▁написа	-7004
▁(15788)	-7005
▁6004071	-7006
▁Academy	-7007
▁авиации	-7008
▁February	-7009
▁посвящен	-7010
▁работает	-7011
▁Английский	-7012
▁Монтевидео	-7013
▁Bundelkhand	-7014
▁Commelinids	-7015
▁американцем	-7016
▁headquarters	-7017
-7	-7018
900	-7019
atch	-7020
loss	-7021
коно	-7022
людо	-7023
ттар	-7024
фици	-7025
▁zum	-7026
endam	-7027
ölker	-7028
ходил	-7029
▁Mayo	-7030
▁Soße	-7031
000270	-7032
▁16000	-7033
▁70634	-7034
▁Seine	-7035
▁Родри	-7036
▁ракет	-7037
▁стиль	-7038
▁Buenos	-7039
▁8000270	-7040
▁Antonis	-7041
▁Columbus	-7042
▁Andalusia	-7043
▁Transport	-7044
▁Stellendam	-7045
▁международного	-7046
».	-7047
му	-7048
aut	-7049
erm	-7050
kry	-7051
гес	-7052
кис	-7053
рен	-7054
▁SK	-7055
acew	-7056
iele	-7057
oles	-7058
ucci	-7059
▁Wei	-7060
▁Коц	-7061
anner	-7062
onejo	-7063
Акита	-7064
▁Aure	-7065
▁Crew	-7066
▁Jeff	-7067
бревиа	-7068
▁Kotte	-7069
▁Spang	-7070
▁Блюдо	-7071
▁Йохан	-7072
▁Крейг	-7073
▁канцл	-7074
▁летчи	-7075
▁Backup	-7076
▁Banner	-7077
▁Carlos	-7078
▁Conejo	-7079
▁Spacew	-7080
▁Stoger	-7081
▁бобсле	-7082
▁печати	-7083
тематика	-7084
▁Panucci	-7085
▁составе	-7086
▁Aureoles	-7087
▁Governor	-7088
▁Javanese	-7089
▁Sprachen	-7090
▁Родригес	-7091
▁человека	-7092
▁Spacewatch	-7093
ck	-7094
adi	-7095
läm	-7096
änd	-7097
вае	-7098
рок	-7099
хас	-7100
▁08	-7101
apit	-7102
asan	-7103
enza	-7104
inki	-7105
▁Pen	-7106
▁Сте	-7107
Black	-7108
ensch	-7109
orizo	-7110
денти	-7111
мисси	-7112
▁Vice	-7113
▁seat	-7114
▁site	-7115
▁Одна	-7116
▁боль	-7117
gesell	-7118
▁Casey	-7119
▁Edwin	-7120
▁Heart	-7121
▁Niger	-7122
▁Januar	-7123
▁person	-7124
▁seiner	-7125
▁Ататюр	-7126
квартира	-7127
▁560090,	-7128
▁kelvins	-7129
▁Republic	-7130
▁Джорджия	-7131
▁Alexandra	-7132
▁парламент	-7133
▁Национальный	-7134
-16	-7135
633	-7136
кин	-7137
хор	-7138
▁AT	-7139
esam	-7140
tech	-7141
uban	-7142
vano	-7143
рого	-7144
роме	-7145
▁973	-7146
▁erh	-7147
▁sam	-7148
9255)	-7149
affen	-7150
anden	-7151
▁1976	-7152
▁Azal	-7153
▁Bert	-7154
▁Pier	-7155
▁VIAG	-7156
▁türk	-7157
▁Эфио	-7158
▁цент	-7159
0000.0	-7160
▁63800	-7161
▁своих	-7162
lymouth	-7163
▁Akties	-7164
▁findet	-7165
▁группе	-7166
▁центра	-7167
мический	-7168
▁(19255)	-7169
▁Bertram	-7170
▁Federal	-7171
▁gehören	-7172
▁Агустин	-7173
▁металли	-7174
▁Spangled	-7175
▁sprechen	-7176
▁Grenadier	-7177
▁азиатских	-7178
▁автомобиль	-7179
▁транспорта	-7180
üß	-7181
Те	-7182
ак	-7183
Ver	-7184
ван	-7185
вес	-7186
душ	-7187
▁2.	-7188
▁Mr	-7189
68.8	-7190
aber	-7191
ails	-7192
ters	-7193
даме	-7194
ници	-7195
▁Lim	-7196
▁ger	-7197
arese	-7198
ichar	-7199
isine	-7200
ürger	-7201
Амман	-7202
▁wave	-7203
amilie	-7204
вления	-7205
ниципа	-7206
▁owner	-7207
▁Отель	-7208
▁Poales	-7209
▁северо	-7210
▁четыре	-7211
▁Belgien	-7212
▁Silvano	-7213
▁cuisine	-7214
▁Бионико	-7215
▁Престол	-7216
▁колледж	-7217
бутерброд	-7218
▁Commerce	-7219
▁Helsinki	-7220
▁Plymouth	-7221
▁Weymouth	-7222
▁Indonesian	-7223
▁Pavlopoulos	-7224
▁руководством	-7225
/3	-7226
бы	-7227
-1-	-7228
-42	-7229
hig	-7230
lib	-7231
oid	-7232
uma	-7233
Мар	-7234
Тер	-7235
глу	-7236
гре	-7237
йцы	-7238
▁--	-7239
▁DA	-7240
▁un	-7241
▁хо	-7242
3528	-7243
634:	-7244
mera	-7245
vers	-7246
вуто	-7247
днее	-7248
емый	-7249
▁учи	-7250
-4253	-7251
arlic	-7252
vador	-7253
халли	-7254
▁Dave	-7255
▁milk	-7256
▁punk	-7257
▁Сити	-7258
▁Fallu	-7259
▁Баксо	-7260
▁Музей	-7261
▁блюзо	-7262
▁литра	-7263
▁самый	-7264
-1-4165	-7265
journal	-7266
вутоглу	-7267
дателем	-7268
▁Staats	-7269
▁sambal	-7270
▁Эфиопи	-7271
hältlich	-7272
outheast	-7273
▁17068.8	-7274
ванахалли	-7275
еттисбург	-7276
▁Аргентины	-7277
▁Давутоглу	-7278
-1-4165-4253	-7279
▁афроамериканцев	-7280
Ди	-7281
йц	-7282
339	-7283
920	-7284
elf	-7285
ted	-7286
Хор	-7287
даб	-7288
мец	-7289
хар	-7290
,000	-7291
egen	-7292
etch	-7293
loom	-7294
yard	-7295
▁142	-7296
▁27.	-7297
▁Arc	-7298
▁Que	-7299
▁bak	-7300
▁süd	-7301
▁Сол	-7302
▁Тей	-7303
andez	-7304
▁Gott	-7305
▁Жанр	-7306
▁лиги	-7307
ichtet	-7308
▁2015.	-7309
▁Mayor	-7310
▁Paisa	-7311
▁Мендо	-7312
▁Сарва	-7313
▁Knight	-7314
▁Pierce	-7315
▁Vanden	-7316
▁Volksg	-7317
▁almond	-7318
▁Йоханн	-7319
▁курица	-7320
▁серого	-7321
▁уровня	-7322
сположен	-7323
▁Arctech	-7324
▁Eastern	-7325
▁Primera	-7326
▁городом	-7327
▁научных	-7328
▁Indianer	-7329
▁Institut	-7330
▁чемпионы	-7331
▁Gottingen	-7332
▁выступать	-7333
деванахалли	-7334
▁Philippine	-7335
▁erhältlich	-7336
▁художниками	-7337
▁Europäischen	-7338
Ag	-7339
Об	-7340
-9.	-7341
00.	-7342
obl	-7343
ата	-7344
воч	-7345
▁"0	-7346
etts	-7347
rach	-7348
utes	-7349
uyah	-7350
ница	-7351
перь	-7352
шнан	-7353
энос	-7354
▁Aus	-7355
▁top	-7356
▁Бай	-7357
achus	-7358
aries	-7359
enden	-7360
ерный	-7361
палли	-7362
сонаж	-7363
ствую	-7364
▁льда	-7365
▁этом	-7366
bertig	-7367
sville	-7368
испыта	-7369
▁Bloom	-7370
▁Knobl	-7371
▁Scrip	-7372
▁Titel	-7373
▁Дубли	-7374
▁Захра	-7375
uyahoga	-7376
овядина	-7377
▁Буэнос	-7378
ступенча	-7379
▁Джонсон	-7380
achusetts	-7381
дентифика	-7382
стической	-7383
▁doctoral	-7384
▁Мэдисоне	-7385
▁менеджер	-7386
тяженность	-7387
▁Knoblauch	-7388
▁elevation	-7389
▁Vandenberg	-7390
▁Mathematica	-7391
▁дебютировал	-7392
▁Американский	-7393
▁Massachusetts	-7394
▁обслуживается	-7395
▁traditionelles	-7396
20	-7397
bar	-7398
мад	-7399
▁07	-7400
avan	-7401
ehic	-7402
ения	-7403
запа	-7404
ктив	-7405
стра	-7406
▁18,	-7407
▁Pat	-7408
▁Ван	-7409
▁Хес	-7410
▁кре	-7411
athan	-7412
ektur	-7413
енным	-7414
▁кана	-7415
▁коро	-7416
atrick	-7417
Äthiop	-7418
ктором	-7419
▁1932.	-7420
▁Clyde	-7421
▁Deram	-7422
▁hails	-7423
▁Радха	-7424
▁Север	-7425
денберг	-7426
кришнан	-7427
лингтон	-7428
▁before	-7429
▁Пенджа	-7430
▁джазов	-7431
▁Patrick	-7432
▁Station	-7433
▁разрабо	-7434
Äthiopien	-7435
Локомотив	-7436
▁Ethiopia	-7437
▁Hernandez	-7438
▁Комический	-7439
▁Сарвапалли	-7440
82	-7441
ях	-7442
set	-7443
нок	-7444
тте	-7445
щие	-7446
elso	-7447
етта	-7448
миль	-7449
тора	-7450
akles	-7451
othan	-7452
Абеба	-7453
Новая	-7454
исвес	-7455
▁Ship	-7456
▁aver	-7457
▁Алаа	-7458
▁крас	-7459
elsohn	-7460
wohner	-7461
Ампара	-7462
▁2005.	-7463
▁south	-7464
▁vehic	-7465
▁Азиат	-7466
▁автор	-7467
▁совер	-7468
ammlung	-7469
owering	-7470
▁Dothan	-7471
▁Gerard	-7472
▁Island	-7473
▁Steven	-7474
▁Андалу	-7475
▁Дорога	-7476
▁резерв	-7477
тельство	-7478
▁Catalon	-7479
▁average	-7480
▁Готтинг	-7481
▁Запечен	-7482
▁Чумаков	-7483
▁размере	-7484
libbertig	-7485
▁Cuyahoga	-7486
▁Jonathan	-7487
▁Shipyard	-7488
▁straight	-7489
▁Бирминге	-7490
▁дисципли	-7491
▁Colombian	-7492
▁Äthiopien	-7493
▁находятся	-7494
ausgegangen	-7495
▁обнаружена	-7496
▁расположены	-7497
▁afrikanische	-7498
▁Радхакришнан	-7499
äf	-7500
-2)	-7501
Тур	-7502
пов	-7503
тем	-7504
▁AK	-7505
▁ве	-7506
68,8	-7507
adio	-7508
atus	-7509
odes	-7510
üche	-7511
Фран	-7512
кара	-7513
▁Ast	-7514
▁rom	-7515
orden	-7516
котор	-7517
▁Star	-7518
▁took	-7519
▁дата	-7520
ateurs	-7521
lichen	-7522
▁Leben	-7523
▁Lufth	-7524
▁Tudor	-7525
▁среди	-7526
▁Байден	-7527
▁Поттер	-7528
▁полное	-7529
issensch	-7530
▁Agustin	-7531
▁starred	-7532
Blackwell	-7533
▁Location	-7534
▁betreibt	-7535
▁филиппин	-7536
▁последний	-7537
▁Mendelsohn	-7538
▁президента	-7539
▁Volksgruppe	-7540
▁Солдеванахалли	-7541
911	-7542
aug	-7543
ema	-7544
kab	-7545
lex	-7546
Ард	-7547
ерт	-7548
лив	-7549
фек	-7550
▁ne	-7551
▁ph	-7552
▁po	-7553
▁АЗ	-7554
amer	-7555
iazz	-7556
iers	-7557
öger	-7558
ерен	-7559
льно	-7560
▁Zam	-7561
▁dec	-7562
▁Хай	-7563
▁сек	-7564
akter	-7565
igion	-7566
▁1931	-7567
▁Blue	-7568
▁Flor	-7569
▁Mata	-7570
▁Palo	-7571
▁Pref	-7572
▁Präf	-7573
▁Seco	-7574
▁Майк	-7575
▁Тома	-7576
ivenöl	-7577
Ардмор	-7578
▁Craft	-7579
▁Piazz	-7580
▁Лахор	-7581
▁космо	-7582
▁присо	-7583
eringue	-7584
исвесва	-7585
▁besuch	-7586
▁Брюссе	-7587
▁Мендри	-7588
▁Филлип	-7589
▁17068,8	-7590
▁Бельгии	-7591
▁Грозный	-7592
▁Индиане	-7593
▁публику	-7594
kilometer	-7595
▁Olivenöl	-7596
▁Standard	-7597
▁Коренные	-7598
▁Präfektur	-7599
▁ajoblanco	-7600
▁Азиатские	-7601
▁Prefecture	-7602
gesellschaft	-7603
▁национальный	-7604
Чи	-7605
▁Í	-7606
eme	-7607
hal	-7608
igt	-7609
чев	-7610
▁"3	-7611
erek	-7612
ouse	-7613
rika	-7614
rspr	-7615
ther	-7616
▁UTC	-7617
▁Чар	-7618
augur	-7619
chsch	-7620
einef	-7621
idmet	-7622
Терек	-7623
пость	-7624
рожен	-7625
скими	-7626
▁Этот	-7627
Verona	-7628
ations	-7629
▁Küche	-7630
▁Terek	-7631
▁Ícolo	-7632
▁блюда	-7633
родился	-7634
▁Africa	-7635
▁Sports	-7636
▁Wilson	-7637
▁langer	-7638
▁музыке	-7639
утболист	-7640
▁Hochsch	-7641
▁Minuten	-7642
▁Piazzia	-7643
▁minutes	-7644
▁Индианы	-7645
▁острове	-7646
▁besuchte	-7647
▁Catalonia	-7648
▁Schweinef	-7649
▁Scripture	-7650
▁Восточной	-7651
▁Мендрисио	-7652
▁операцион	-7653
▁Andalusien	-7654
▁трансмисси	-7655
▁Университета	-7656
▁государствен	-7657
▁Schweinefleisch	-7658
3,	-7659
ask	-7660
eca	-7661
gie	-7662
vis	-7663
гом	-7664
▁bl	-7665
▁аб	-7666
giea	-7667
oman	-7668
Турк	-7669
писы	-7670
▁Zit	-7671
▁öst	-7672
emish	-7673
geber	-7674
stock	-7675
▁Fall	-7676
▁Fons	-7677
▁Mike	-7678
▁Pain	-7679
▁vers	-7680
▁Один	-7681
▁дело	-7682
▁прис	-7683
etchup	-7684
helman	-7685
▁Figur	-7686
▁beide	-7687
▁Арбор	-7688
▁минут	-7689
▁федер	-7690
ilippin	-7691
▁Falcon	-7692
▁Hygiea	-7693
▁Schule	-7694
▁banana	-7695
▁Японии	-7696
▁играть	-7697
zeichnet	-7698
▁Ataturk	-7699
▁Caravan	-7700
▁Fonseca	-7701
▁Rostock	-7702
▁derived	-7703
▁Gemeinde	-7704
▁Salvador	-7705
▁Wolfsburg	-7706
▁decembrie	-7707
▁flowering	-7708
Universitas	-7709
▁Oberhelman	-7710
iu	-7711
lik	-7712
sex	-7713
uge	-7714
ury	-7715
рож	-7716
▁6.	-7717
▁fe	-7718
▁Ле	-7719
aple	-7720
walt	-7721
Анта	-7722
вшим	-7723
дена	-7724
дним	-7725
▁Kir	-7726
▁Klu	-7727
▁Off	-7728
▁Qiu	-7729
▁rap	-7730
doria	-7731
ublik	-7732
город	-7733
стеро	-7734
▁Buil	-7735
▁Kids	-7736
▁Samp	-7737
▁ihre	-7738
▁раст	-7739
вление	-7740
воздуш	-7741
мерики	-7742
▁Print	-7743
▁Акрон	-7744
▁Джефф	-7745
▁прави	-7746
ighting	-7747
▁Ganges	-7748
▁Garden	-7749
▁Guards	-7750
▁Static	-7751
▁Керала	-7752
▁префек	-7753
▁Flemish	-7754
▁Florida	-7755
▁erhielt	-7756
▁gerufen	-7757
▁inaugur	-7758
▁Мадриде	-7759
▁деловых	-7760
▁Кристиан	-7761
▁домашняя	-7762
исвесварай	-7763
▁Alexander	-7764
▁Sampdoria	-7765
▁Variation	-7766
▁abgekürzt	-7767
▁Königreichs	-7768
▁Протяженность	-7769
▁transportation	-7770
fü	-7771
vd	-7772
öp	-7773
ок	-7774
ьи	-7775
aph	-7776
spe	-7777
wei	-7778
Бай	-7779
▁фу	-7780
ania	-7781
asse	-7782
ffer	-7783
inor	-7784
кмар	-7785
рода	-7786
щего	-7787
▁Hol	-7788
▁rup	-7789
▁Бор	-7790
▁Энн	-7791
▁все	-7792
-11".	-7793
aracy	-7794
▁Blvd	-7795
▁Expl	-7796
▁Real	-7797
▁Syst	-7798
▁went	-7799
▁гита	-7800
▁пока	-7801
ламанд	-7802
▁1969.	-7803
▁Beach	-7804
▁Chall	-7805
▁Creek	-7806
▁Maple	-7807
▁Peron	-7808
▁Schöp	-7809
▁Urspr	-7810
orision	-7811
Антарес	-7812
▁Arabic	-7813
▁Poland	-7814
▁Ramaph	-7815
▁blanco	-7816
▁garlic	-7817
▁футбол	-7818
iverside	-7819
▁Coaracy	-7820
▁департа	-7821
▁занимал	-7822
▁Джонатан	-7823
▁Памятник	-7824
▁графство	-7825
▁Challinor	-7826
versammlung	-7827
президентом	-7828
▁Flibbertig	-7829
▁Kopenhagen	-7830
▁Recordings	-7831
▁gebratenes	-7832
▁Explorision	-7833
▁ChievoVerona	-7834
FC	-7835
üt	-7836
фа	-7837
ime	-7838
mas	-7839
rog	-7840
uck	-7841
▁51	-7842
arol	-7843
ides	-7844
ühen	-7845
▁Nud	-7846
▁Sid	-7847
▁Wol	-7848
▁beg	-7849
▁nov	-7850
▁typ	-7851
higbe	-7852
thers	-7853
▁Eald	-7854
▁Соус	-7855
грамма	-7856
сифици	-7857
▁Roger	-7858
▁butty	-7859
▁ended	-7860
▁Бекон	-7861
▁Корне	-7862
▁домом	-7863
▁Graeme	-7864
▁Kluwer	-7865
▁Legisl	-7866
▁Maiden	-7867
▁kolumb	-7868
▁Мастер	-7869
▁Familie	-7870
▁Lufthav	-7871
▁Авраама	-7872
▁колумби	-7873
▁produced	-7874
▁Западная	-7875
▁основные	-7876
▁Ealdorman	-7877
▁Riverside	-7878
▁including	-7879
▁contributing	-7880
▁возглавляется	-7881
tergesellschaft	-7882
,.	-7883
ht	-7884
zö	-7885
597	-7886
aik	-7887
kin	-7888
ous	-7889
yam	-7890
кия	-7891
▁89	-7892
7000	-7893
ileo	-7894
wald	-7895
ерфт	-7896
▁125	-7897
▁Aff	-7898
▁Бен	-7899
▁сви	-7900
thaca	-7901
▁9364	-7902
▁Cham	-7903
▁Mand	-7904
▁Naik	-7905
▁fläm	-7906
▁high	-7907
▁pork	-7908
▁Силь	-7909
▁твер	-7910
710000	-7911
onserv	-7912
▁Cyril	-7913
▁Essex	-7914
▁Faber	-7915
▁Алаба	-7916
▁Инсти	-7917
▁колес	-7918
▁овощи	-7919
▁соуса	-7920
▁части	-7921
ersburg	-7922
мократи	-7923
▁Affair	-7924
▁Balder	-7925
▁Stöger	-7926
▁Zitron	-7927
▁блюзов	-7928
▁теперь	-7929
▁учился	-7930
Говядина	-7931
▁9364597	-7932
▁Akhigbe	-7933
▁Jalisco	-7934
▁Michael	-7935
▁Wolters	-7936
▁Линколь	-7937
▁губерна	-7938
▁космосе	-7939
▁управля	-7940
▁Aurakles	-7941
▁Schöpfer	-7942
▁Брюсселе	-7943
▁командой	-7944
▁конферен	-7945
▁коренных	-7946
▁Brasilien	-7947
▁Ramaphosa	-7948
▁philippin	-7949
▁Альбукерке	-7950
▁классифици	-7951
▁1-4165-2060-0.	-7952
-14	-7953
arm	-7954
inz	-7955
mil	-7956
uff	-7957
ärz	-7958
вод	-7959
amin	-7960
eron	-7961
soße	-7962
дель	-7963
макс	-7964
рета	-7965
скую	-7966
усон	-7967
▁Язы	-7968
▁гре	-7969
▁кни	-7970
asher	-7971
ellow	-7972
uffin	-7973
ungen	-7974
▁März	-7975
▁four	-7976
▁stud	-7977
▁всей	-7978
▁слад	-7979
teroid	-7980
uching	-7981
▁sweet	-7982
▁пенси	-7983
Баймакс	-7984
репость	-7985
▁Sidcup	-7986
▁blühen	-7987
▁latter	-7988
▁Военно	-7989
▁Доусон	-7990
▁Центра	-7991
▁входил	-7992
▁доктор	-7993
▁присут	-7994
rimiação	-7995
министра	-7996
▁Cameron	-7997
▁Алессио	-7998
▁последо	-7999
▁asteroid	-8000
▁operates	-8001
▁Management	-8002
▁организация	-8003
▁Индианаполис	-8004
▁используется	-8005
КА	-8006
ied	-8007
iri	-8008
▁4.	-8009
ahrt	-8010
ecut	-8011
iter	-8012
quel	-8013
uben	-8014
лиги	-8015
▁497	-8016
▁сле	-8017
fahrt	-8018
▁1850	-8019
▁2016	-8020
▁Miri	-8021
▁best	-8022
▁поли	-8023
▁поль	-8024
ausage	-8025
Алкмар	-8026
▁1986.	-8027
▁2014-	-8028
▁Assad	-8029
▁Zivil	-8030
▁gover	-8031
▁lives	-8032
▁wheel	-8033
▁белые	-8034
▁собой	-8035
▁улица	-8036
ecutive	-8037
geboren	-8038
helwald	-8039
Алдерни	-8040
ливково	-8041
▁Halton	-8042
▁Worden	-8043
▁folgte	-8044
▁rasher	-8045
▁Италия	-8046
▁метрах	-8047
▁минист	-8048
▁пенсию	-8049
▁Charles	-8050
▁Katalon	-8051
▁Kuching	-8052
▁Stanley	-8053
▁материн	-8054
▁металла	-8055
▁Schlacht	-8056
▁befinden	-8057
▁Малайзия	-8058
▁399710000	-8059
исвесварайя	-8060
▁Katalonien	-8061
▁Дженнингса	-8062
Ac	-8063
,0,	-8064
rov	-8065
ака	-8066
▁4,	-8067
atar	-8068
esch	-8069
iaol	-8070
luft	-8071
olle	-8072
rote	-8073
косо	-8074
рант	-8075
▁Ajo	-8076
▁Mor	-8077
▁Wur	-8078
▁Губ	-8079
▁дру	-8080
▁май	-8081
▁том	-8082
▁эти	-8083
adhim	-8084
berto	-8085
ector	-8086
itman	-8087
циско	-8088
▁Lega	-8089
▁Sold	-8090
▁Stud	-8091
▁Terr	-8092
▁year	-8093
▁Ларс	-8094
▁Макк	-8095
▁Орху	-8096
▁аспи	-8097
arrant	-8098
chelen	-8099
ichita	-8100
сбурге	-8101
уджара	-8102
▁10000	-8103
▁Thund	-8104
▁Андра	-8105
iaolong	-8106
министр	-8107
▁Kadhim	-8108
▁Office	-8109
▁Solent	-8110
▁Журнал	-8111
▁Местом	-8112
▁индоне	-8113
▁Complex	-8114
▁Whitman	-8115
▁содержа	-8116
luftfahrt	-8117
Франциско	-8118
▁Mechelen	-8119
▁governed	-8120
▁Hochschul	-8121
▁Luftwaffe	-8122
▁categoris	-8123
▁englische	-8124
▁Соединенном	-8125
▁эксплуатиру	-8126
▁Quadratmeter	-8127
▁Zivilluftfahrt	-8128
Се	-8129
92.	-8130
лда	-8131
там	-8132
тая	-8133
▁Bä	-8134
ptun	-8135
weit	-8136
üner	-8137
млад	-8138
охия	-8139
▁Род	-8140
▁Рок	-8141
▁иму	-8142
ectur	-8143
ensis	-8144
ogson	-8145
İzmir	-8146
▁1799	-8147
▁Khor	-8148
▁Koch	-8149
▁Marg	-8150
▁barm	-8151
▁nood	-8152
▁Моск	-8153
ructed	-8154
▁Thema	-8155
▁Уттар	-8156
▁общая	-8157
ference	-8158
▁Ithaca	-8159
▁Neptun	-8160
▁Канады	-8161
▁Роттер	-8162
льзуется	-8163
▁Fighter	-8164
▁öffentl	-8165
▁Финляндии	-8166
▁Marysville	-8167
▁categorised	-8168
▁конференции	-8169
циалистической	-8170
▁vorausgegangen	-8171
öt	-8172
arf	-8173
ets	-8174
гбе	-8175
кос	-8176
нен	-8177
▁fr	-8178
ling	-8179
onym	-8180
нача	-8181
смус	-8182
▁Van	-8183
▁act	-8184
▁won	-8185
▁Кад	-8186
▁син	-8187
-12".	-8188
boang	-8189
ieler	-8190
Аддис	-8191
нером	-8192
хаджи	-8193
▁conf	-8194
▁зали	-8195
▁идет	-8196
airman	-8197
Чикаго	-8198
альный	-8199
▁2000.	-8200
▁Bäder	-8201
▁Испан	-8202
▁живет	-8203
chester	-8204
ectural	-8205
смуссен	-8206
▁malays	-8207
▁жители	-8208
▁Austral	-8209
▁Grenada	-8210
▁Steuben	-8211
▁Tarrant	-8212
▁Wichita	-8213
▁Архитек	-8214
▁француз	-8215
▁Lufthavn	-8216
▁Zamboang	-8217
▁broadcast	-8218
▁Расмуссен	-8219
▁испанском	-8220
▁публикует	-8221
▁Manchester	-8222
▁originally	-8223
▁Готтингена	-8224
▁этнические	-8225
XN	-8226
ФК	-8227
чь	-8228
756	-8229
abi	-8230
ise	-8231
nie	-8232
tiy	-8233
üße	-8234
аго	-8235
дей	-8236
лба	-8237
уда	-8238
▁".	-8239
▁ны	-8240
9343	-8241
iale	-8242
iano	-8243
orie	-8244
rieg	-8245
size	-8246
андо	-8247
епту	-8248
ирст	-8249
нера	-8250
трам	-8251
▁20.	-8252
▁21.	-8253
▁288	-8254
▁373	-8255
▁440	-8256
▁Jak	-8257
▁Tim	-8258
▁kil	-8259
▁Мум	-8260
▁Рют	-8261
▁зве	-8262
▁кел	-8263
ruits	-8264
вшего	-8265
жение	-8266
хигбе	-8267
▁2777	-8268
▁Pagn	-8269
▁bron	-8270
▁cent	-8271
▁боях	-8272
▁посе	-8273
Олимпи	-8274
▁Spani	-8275
▁Wurst	-8276
▁clubs	-8277
anciale	-8278
ирструп	-8279
▁179942	-8280
▁440756	-8281
▁479343	-8282
▁Lancia	-8283
▁сыграл	-8284
artoffel	-8285
electric	-8286
▁Pagnell	-8287
▁Америки	-8288
▁Бертрам	-8289
▁Большой	-8290
▁Humberto	-8291
▁Phillips	-8292
▁Xiaolong	-8293
▁известны	-8294
▁türkische	-8295
▁обслужива	-8296
Александрия	-8297
▁identifier	-8298
▁написанный	-8299
▁Italienisch	-8300
▁Gemeinschaft	-8301
▁Демократической	-8302
")	-8303
83	-8304
Ре	-8305
баи	-8306
кта	-8307
хио	-8308
eiht	-8309
ogao	-8310
zler	-8311
сток	-8312
▁Mut	-8313
▁akt	-8314
▁shr	-8315
▁Лай	-8316
▁Лос	-8317
▁тип	-8318
▁хле	-8319
▁чес	-8320
41092	-8321
ansas	-8322
ibbet	-8323
▁Apul	-8324
▁Deut	-8325
▁Hail	-8326
▁Kent	-8327
▁cons	-8328
▁dean	-8329
▁Асад	-8330
▁мона	-8331
▁поги	-8332
eweiht	-8333
метров	-8334
▁19238	-8335
▁Rutte	-8336
▁novel	-8337
▁Попов	-8338
▁Рютте	-8339
▁клубу	-8340
▁ключе	-8341
▁441092	-8342
▁Brooke	-8343
▁Kansas	-8344
▁Pogson	-8345
▁Staten	-8346
▁diesem	-8347
▁Афинах	-8348
▁Кадхим	-8349
▁Мумбаи	-8350
▁Серхио	-8351
▁дорога	-8352
▁сената	-8353
▁Margret	-8354
▁Thunder	-8355
▁Самарас	-8356
▁Уругвая	-8357
▁Building	-8358
▁pakistan	-8359
▁Антиокия	-8360
▁Виргиния	-8361
▁Название	-8362
▁Персонаж	-8363
▁занимает	-8364
▁келвинов	-8365
▁собрание	-8366
handlungen	-8367
▁Apulensis	-8368
▁Hamburger	-8369
▁Kartoffel	-8370
▁Libraries	-8371
▁пользуется	-8372
▁разговорный	-8373
Ex	-8374
egn	-8375
вли	-8376
рол	-8377
▁24	-8378
▁Ot	-8379
▁Ад	-8380
▁мм	-8381
-8".	-8382
rams	-8383
tiye	-8384
usam	-8385
таго	-8386
▁-3.	-8387
▁512	-8388
▁Bev	-8389
▁bat	-8390
acker	-8391
alegn	-8392
eleon	-8393
ептун	-8394
релла	-8395
▁1988	-8396
▁ACTA	-8397
▁Oper	-8398
▁Кита	-8399
честер	-8400
▁Ahmad	-8401
▁Ernie	-8402
▁Kochi	-8403
▁Otkry	-8404
▁Андре	-8405
▁Кейси	-8406
▁Матта	-8407
▁цвету	-8408
kürzung	-8409
usammen	-8410
▁Benton	-8411
▁Hailem	-8412
▁nation	-8413
▁Абдула	-8414
▁Альфон	-8415
Крепость	-8416
ринвилле	-8417
▁Februar	-8418
▁Jackets	-8419
▁italien	-8420
▁vehicle	-8421
▁миндаль	-8422
▁Clematis	-8423
▁Desalegn	-8424
▁chairman	-8425
▁институт	-8426
▁Chameleon	-8427
▁Community	-8428
▁Ellington	-8429
▁Jefferson	-8430
▁Margrethe	-8431
▁Otkrytiye	-8432
▁Spaniards	-8433
▁Бангалоре	-8434
▁Neuseeland	-8435
▁Маттарелла	-8436
▁Расположен	-8437
▁аспирантов	-8438
▁Азербайджана	-8439
▁организацией	-8440
▁присутствовал	-8441
pi	-8442
▁–	-8443
pel	-8444
rah	-8445
Ала	-8446
сим	-8447
уре	-8448
щем	-8449
▁IN	-8450
arta	-8451
emon	-8452
ocon	-8453
алер	-8454
тера	-8455
▁448	-8456
▁Mol	-8457
▁Ско	-8458
ichen	-8459
йская	-8460
▁Walt	-8461
▁Сред	-8462
apitol	-8463
oconut	-8464
аррант	-8465
▁There	-8466
▁eines	-8467
▁Верфт	-8468
▁Дэвис	-8469
▁Фрэнк	-8470
гдебург	-8471
▁Church	-8472
▁Person	-8473
▁Полное	-8474
▁военно	-8475
ausgeber	-8476
▁Chester	-8477
▁Galileo	-8478
▁Jakarta	-8479
▁Seminar	-8480
▁Terrace	-8481
▁родиной	-8482
Explosion	-8483
▁Bevölker	-8484
▁Ursprung	-8485
▁Пенджабе	-8486
▁добавлен	-8487
▁муниципа	-8488
▁Secretary	-8489
▁Stockport	-8490
Association	-8491
▁eingeweiht	-8492
▁Zamboangans	-8493
▁constructed	-8494
▁inaugurated	-8495
▁Chesterfield	-8496
▁architectural	-8497
▁американского	-8498
722	-8499
749	-8500
ián	-8501
onz	-8502
чно	-8503
▁KV	-8504
60.0	-8505
9371	-8506
ende	-8507
Луис	-8508
ерий	-8509
лены	-8510
нова	-8511
педо	-8512
роны	-8513
▁Fre	-8514
▁Odd	-8515
▁gek	-8516
▁мно	-8517
aiser	-8518
ariam	-8519
iguez	-8520
арбор	-8521
мером	-8522
часть	-8523
▁Taro	-8524
▁Zuma	-8525
▁gest	-8526
дитель	-8527
лдатам	-8528
▁39371	-8529
▁house	-8530
▁kilog	-8531
▁waren	-8532
▁Негре	-8533
▁блюде	-8534
▁немец	-8535
teilung	-8536
ернандо	-8537
манской	-8538
▁school	-8539
▁кокосо	-8540
▁молоко	-8541
▁певица	-8542
▁-3.3528	-8543
▁Monarch	-8544
▁Zitrone	-8545
Магдебург	-8546
▁Asherton	-8547
▁Division	-8548
▁Nigerian	-8549
▁Антиохия	-8550
▁говядина	-8551
▁Sebastián	-8552
▁municipal	-8553
▁publisher	-8554
▁reference	-8555
▁southeast	-8556
▁Асунсьоне	-8557
▁футболист	-8558
▁Hailemariam	-8559
▁традиционное	-8560
▁популярностью	-8561
▁местоположения	-8562
Ва	-8563
ию	-8564
ows	-8565
арг	-8566
вык	-8567
ури	-8568
▁Ig	-8569
▁ol	-8570
Kalb	-8571
ayas	-8572
etti	-8573
illi	-8574
inos	-8575
ität	-8576
oyet	-8577
pedo	-8578
сарг	-8579
▁Pic	-8580
▁год	-8581
▁пор	-8582
ffalo	-8583
ности	-8584
▁2160	-8585
▁Opel	-8586
▁Ward	-8587
▁trat	-8588
▁west	-8589
▁авто	-8590
▁спор	-8591
elskab	-8592
орпедо	-8593
▁Diane	-8594
▁Poyet	-8595
▁olive	-8596
▁Диско	-8597
▁Елены	-8598
▁Также	-8599
▁погиб	-8600
▁Kaiser	-8601
▁Palaen	-8602
▁Soviet	-8603
▁привык	-8604
саргетта	-8605
▁Buffalo	-8606
▁Roberts	-8607
▁Visayas	-8608
▁Альпена	-8609
▁десерта	-8610
Баварский	-8611
▁Бразилии	-8612
▁Фернандо	-8613
▁блюзовой	-8614
▁Regierung	-8615
▁Швейцария	-8616
▁Chancellor	-8617
▁американец	-8618
▁килограмма	-8619
▁футбольный	-8620
▁Herausgeber	-8621
▁Хессаргетта	-8622
▁Abhandlungen	-8623
▁представляет	-8624
▁Palaenologica	-8625
26	-8626
200	-8627
513	-8628
670	-8629
Alf	-8630
fas	-8631
био	-8632
шер	-8633
шка	-8634
-033	-8635
-12-	-8636
6468	-8637
okos	-8638
rist	-8639
vard	-8640
ween	-8641
тоне	-8642
▁12,	-8643
▁16.	-8644
▁Dir	-8645
▁Luc	-8646
▁Sci	-8647
▁own	-8648
▁сем	-8649
-9255	-8650
ektor	-8651
fasst	-8652
speed	-8653
хайло	-8654
▁Imst	-8655
▁cond	-8656
▁last	-8657
▁meat	-8658
-92550	-8659
646863	-8660
▁0-670	-8661
▁Cakes	-8662
▁Kokos	-8663
▁Mihaj	-8664
▁Works	-8665
▁Манхэ	-8666
▁колба	-8667
-03380-	-8668
кобенда	-8669
▁373513	-8670
▁Wiener	-8671
▁Орегон	-8672
▁Сарана	-8673
▁своего	-8674
▁Gangsta	-8675
▁Harvard	-8676
▁Torpedo	-8677
▁besteht	-8678
▁sausage	-8679
▁Мадрида	-8680
▁Михайло	-8681
▁команда	-8682
▁89646863	-8683
▁Pflanzen	-8684
▁Stanford	-8685
▁Toekomst	-8686
▁gewidmet	-8687
▁Больница	-8688
▁Фредерик	-8689
▁Carrarese	-8690
▁Rodriguez	-8691
▁kilograms	-8692
▁арендатор	-8693
▁geschaffen	-8694
▁Бертрамвай	-8695
▁0-439-92550	-8696
▁0-670-03380-	-8697
▁Universities	-8698
▁спроектировал	-8699
▁Mathematischen	-8700
Ta	-8701
Te	-8702
da	-8703
От	-8704
Си	-8705
гг	-8706
lov	-8707
вов	-8708
вши	-8709
ches	-8710
дела	-8711
фили	-8712
чита	-8713
▁573	-8714
▁Fil	-8715
▁Ott	-8716
▁kms	-8717
▁Кем	-8718
edenk	-8719
ender	-8720
rique	-8721
▁lies	-8722
▁warm	-8723
▁Изми	-8724
▁Сини	-8725
▁1955.	-8726
▁1957.	-8727
▁Oddie	-8728
▁deram	-8729
▁osman	-8730
▁stars	-8731
▁Ираке	-8732
▁декан	-8733
▁книга	-8734
стероид	-8735
▁Candle	-8736
▁DeKalb	-8737
▁Valenc	-8738
▁histor	-8739
▁plants	-8740
▁Губбио	-8741
▁Сиднее	-8742
Taqaddum	-8743
циальным	-8744
▁Georges	-8745
▁Ottoman	-8746
▁Vicenza	-8747
▁mission	-8748
▁resides	-8749
▁service	-8750
▁Таррант	-8751
▁аббревиа	-8752
▁малайзий	-8753
▁wheelbase	-8754
▁Дженнингс	-8755
edenkstätte	-8756
▁идентифика	-8757
▁osmanischen	-8758
▁Азербайджане	-8759
▁губернатором	-8760
05	-8761
He	-8762
ax	-8763
tà	-8764
12.	-8765
705	-8766
lia	-8767
ены	-8768
лор	-8769
▁61	-8770
▁Zu	-8771
▁Пу	-8772
3329	-8773
Crew	-8774
adal	-8775
ermo	-8776
kmal	-8777
Айре	-8778
Себа	-8779
кадо	-8780
стья	-8781
▁Sau	-8782
▁Six	-8783
▁лос	-8784
ichte	-8785
Палер	-8786
▁1985	-8787
▁Igor	-8788
▁Laur	-8789
▁Mols	-8790
▁ayam	-8791
▁cour	-8792
анаман	-8793
▁Anbar	-8794
▁Città	-8795
▁Death	-8796
▁Duane	-8797
▁Greek	-8798
▁Metal	-8799
▁other	-8800
▁После	-8801
▁Рейес	-8802
▁годах	-8803
▁канад	-8804
▁новой	-8805
Палермо	-8806
▁"1634:	-8807
▁523329	-8808
▁Guadal	-8809
▁Mellow	-8810
▁Oldend	-8811
▁active	-8812
▁родина	-8813
Себастья	-8814
▁Palermo	-8815
▁Уильяма	-8816
▁Mihajlov	-8817
▁Republik	-8818
▁memorial	-8819
▁Дербышир	-8820
▁Пакистан	-8821
▁Sebastian	-8822
▁Agremiacao	-8823
▁разработан	-8824
▁расположенная	-8825
02	-8826
IS	-8827
/36	-8828
711	-8829
AID	-8830
hes	-8831
orf	-8832
гей	-8833
тет	-8834
▁аф	-8835
9224	-8836
Alfa	-8837
alth	-8838
edom	-8839
ieto	-8840
lect	-8841
xury	-8842
тека	-8843
тони	-8844
▁8,3	-8845
▁Bre	-8846
▁INF	-8847
▁кгс	-8848
Zahra	-8849
ständ	-8850
▁Tesh	-8851
▁town	-8852
▁Берн	-8853
▁Куши	-8854
▁Холл	-8855
ustadt	-8856
▁1962.	-8857
▁87000	-8858
▁Babel	-8859
▁Elect	-8860
▁Nieto	-8861
▁Sixma	-8862
▁Дэвид	-8863
▁белый	-8864
▁Health	-8865
▁course	-8866
▁Измире	-8867
▁Эриком	-8868
▁бекона	-8869
arlament	-8870
iversity	-8871
▁Enrique	-8872
▁Freedom	-8873
▁Teshome	-8874
▁coconut	-8875
▁Флинтом	-8876
▁выпуска	-8877
▁Asuncion	-8878
▁Berliner	-8879
▁Neustadt	-8880
▁competed	-8881
▁verbrach	-8882
▁zusammen	-8883
▁доступен	-8884
▁Abkürzung	-8885
▁Александре	-8886
▁Американец	-8887
▁Антверпена	-8888
▁Aktieselskab	-8889
▁опубликована	-8890
HE	-8891
сы	-8892
312	-8893
act	-8894
aza	-8895
хом	-8896
чок	-8897
▁83	-8898
2164	-8899
dams	-8900
yrol	-8901
нгем	-8902
пута	-8903
▁12-	-8904
▁cit	-8905
▁cob	-8906
▁new	-8907
▁Кла	-8908
▁Сус	-8909
▁Тен	-8910
70592	-8911
anach	-8912
Ареша	-8913
верал	-8914
вился	-8915
рикан	-8916
▁4371	-8917
▁Arme	-8918
▁Just	-8919
▁come	-8920
▁Ааро	-8921
▁Афин	-8922
▁Бога	-8923
▁похо	-8924
▁стат	-8925
Soviet	-8926
averal	-8927
iensis	-8928
▁Dolph	-8929
▁Plaza	-8930
▁ausge	-8931
▁Новая	-8932
▁Одним	-8933
▁позже	-8934
▁техни	-8935
▁этого	-8936
Торпедо	-8937
ровался	-8938
▁142603	-8939
▁162164	-8940
▁288749	-8941
▁570592	-8942
▁Anglia	-8943
▁Igorot	-8944
▁Nudeln	-8945
▁Орхусе	-8946
▁журнал	-8947
▁растен	-8948
ливковое	-8949
▁Denkmal	-8950
▁Estadio	-8951
▁entwarf	-8952
▁poaceae	-8953
▁Гуджара	-8954
▁исходит	-8955
▁2014-201	-8956
▁Guadalaj	-8957
▁Hamilton	-8958
▁Limerick	-8959
▁komische	-8960
▁Ирландии	-8961
писывается	-8962
▁Canaveral	-8963
▁Parlament	-8964
▁Südafrika	-8965
▁итальянский	-8966
▁288749000000	-8967
▁ausgezeichnet	-8968
▁Flibbertigibbet	-8969
yk	-8970
ulf	-8971
дио	-8972
мов	-8973
сса	-8974
ход	-8975
▁ад	-8976
▁ле	-8977
ALCO	-8978
wide	-8979
Хосе	-8980
анов	-8981
▁пан	-8982
▁фор	-8983
Абебе	-8984
дском	-8985
литет	-8986
рабан	-8987
рабби	-8988
▁Bohn	-8989
▁Koln	-8990
▁cake	-8991
▁rais	-8992
▁sold	-8993
▁Моди	-8994
▁Стив	-8995
▁Хель	-8996
▁стар	-8997
вшаяся	-8998
▁Armee	-8999
▁Qatar	-9000
▁Royce	-9001
▁Short	-9002
▁Tyrol	-9003
▁Ларше	-9004
▁Мануэ	-9005
▁Чарли	-9006
▁синте	-9007
младший	-9008
▁Борман	-9009
▁создал	-9010
▁Desmond	-9011
▁conflic	-9012
▁indones	-9013
▁Атланти	-9014
▁Северной	-9015
▁солдатам	-9016
конодатель	-9017
▁Bundeskan	-9018
▁studierte	-9019
▁Канаверал	-9020
▁university	-9021
▁Guadalajara	-9022
▁эксплуатирует	-9023
вш	-9024
618	-9025
ika	-9026
Мон	-9027
жде	-9028
мит	-9029
цом	-9030
▁dr	-9031
▁Фи	-9032
elez	-9033
ived	-9034
obil	-9035
oice	-9036
Алаа	-9037
Сото	-9038
гиги	-9039
инха	-9040
лины	-9041
ольф	-9042
рике	-9043
▁5.3	-9044
▁Tur	-9045
▁dep	-9046
▁exp	-9047
▁них	-9048
▁сто	-9049
▁фло	-9050
arage	-9051
sisch	-9052
Захра	-9053
▁1174	-9054
▁Dane	-9055
▁Marv	-9056
▁Mold	-9057
▁Mond	-9058
▁feet	-9059
▁find	-9060
▁43717	-9061
▁69618	-9062
▁Citta	-9063
▁Filip	-9064
▁Urich	-9065
▁codes	-9066
▁spent	-9067
anachie	-9068
▁Argent	-9069
▁Алексе	-9070
▁Канада	-9071
▁Сусана	-9072
▁5739224	-9073
▁Asphalt	-9074
▁Джеффер	-9075
▁Дублине	-9076
▁загород	-9077
▁медалью	-9078
▁трансли	-9079
▁Dolphins	-9080
▁Gebacken	-9081
▁Mondelez	-9082
▁Ататюрку	-9083
▁Ирландия	-9084
▁выступал	-9085
▁сокращен	-9086
▁Oldendorf	-9087
▁governing	-9088
▁vollständ	-9089
▁музыканта	-9090
▁nationwide	-9091
▁участвовал	-9092
▁материнская	-9093
▁abbreviation	-9094
▁Quadratmetern	-9095
чу	-9096
1,6	-9097
573	-9098
api	-9099
aur	-9100
oca	-9101
orc	-9102
wan	-9103
Обь	-9104
кал	-9105
кке	-9106
при	-9107
эри	-9108
▁2,	-9109
▁AD	-9110
▁Uk	-9111
▁ad	-9112
erie	-9113
unst	-9114
емом	-9115
сима	-9116
▁900	-9117
▁ARA	-9118
▁Vit	-9119
▁two	-9120
▁Кам	-9121
▁ниг	-9122
веден	-9123
▁Mahe	-9124
▁Глав	-9125
▁Мири	-9126
▁запа	-9127
▁здра	-9128
▁речь	-9129
▁ушел	-9130
apioca	-9131
Алпена	-9132
▁131,6	-9133
▁Award	-9134
▁Colan	-9135
▁Kunst	-9136
▁Popul	-9137
▁hogao	-9138
▁litre	-9139
▁Нарен	-9140
▁соусе	-9141
▁счита	-9142
damsche	-9143
orcilla	-9144
▁Rovers	-9145
▁Telang	-9146
▁август	-9147
▁металл	-9148
▁открыт	-9149
ubanelle	-9150
▁Brüssel	-9151
▁Антонис	-9152
▁Саранак	-9153
▁Fighting	-9154
▁Personal	-9155
▁conflict	-9156
▁джазовую	-9157
▁ключевой	-9158
▁Shanachie	-9159
▁Пакистане	-9160
▁транспорт	-9161
▁Алькобенда	-9162
▁Михайлович	-9163
▁музыкантом	-9164
▁measurement	-9165
▁Gedenkstätte	-9166
▁akademischen	-9167
▁municipality	-9168
▁Bundeskanzler	-9169
▁978-1-4165-4253	-9170
."	-9171
98	-9172
mm	-9173
эк	-9174
-02	-9175
75)	-9176
elt	-9177
esz	-9178
тин	-9179
энд	-9180
▁05	-9181
▁Ei	-9182
▁оз	-9183
aper	-9184
asis	-9185
fügt	-9186
Мерт	-9187
вают	-9188
воох	-9189
мель	-9190
тиба	-9191
▁Kar	-9192
▁RCA	-9193
▁inf	-9194
▁лап	-9195
▁руп	-9196
iches	-9197
illed	-9198
lande	-9199
onent	-9200
нгрес	-9201
несси	-9202
ответ	-9203
тагор	-9204
▁(290	-9205
▁Char	-9206
▁Drum	-9207
▁Macc	-9208
▁Tink	-9209
▁pass	-9210
▁sour	-9211
▁such	-9212
▁боле	-9213
▁даль	-9214
▁имел	-9215
▁тоже	-9216
abbrev	-9217
вокадо	-9218
ерковь	-9219
кончил	-9220
рована	-9221
▁Aster	-9222
▁Guard	-9223
▁Борис	-9224
▁Клаус	-9225
▁Масса	-9226
▁нынеш	-9227
▁пирож	-9228
Хьюстон	-9229
воохран	-9230
▁Lumesz	-9231
▁Panama	-9232
▁Rahman	-9233
▁участи	-9234
aperback	-9235
flugzeug	-9236
раббиата	-9237
▁(29075)	-9238
▁Germans	-9239
▁Maccabi	-9240
▁Tinkham	-9241
▁schloss	-9242
▁Француз	-9243
▁запуска	-9244
▁конгрес	-9245
▁написал	-9246
ottingham	-9247
филирован	-9248
▁Hollande	-9249
▁Зеландии	-9250
▁Президен	-9251
▁началось	-9252
▁80002709.	-9253
воохранения	-9254
▁verbrachte	-9255
▁Джефферсон	-9256
▁Запеченная	-9257
▁Bloomington	-9258
▁здравоохранения	-9259
GP	-9260
wn	-9261
-8"	-9262
648	-9263
PGP	-9264
uzz	-9265
так	-9266
щал	-9267
эйд	-9268
▁53	-9269
▁Ак	-9270
-932	-9271
56-3	-9272
9831	-9273
ence	-9274
exas	-9275
salm	-9276
Инди	-9277
онна	-9278
хуку	-9279
▁274	-9280
▁28.	-9281
▁292	-9282
▁535	-9283
▁Adm	-9284
▁Eis	-9285
▁Gus	-9286
▁Lar	-9287
▁Уол	-9288
▁спе	-9289
PGPAC	-9290
пенга	-9291
▁4000	-9292
▁Праб	-9293
▁Уорд	-9294
▁рока	-9295
7156-3	-9296
ateure	-9297
inesse	-9298
борист	-9299
▁23900	-9300
▁Platz	-9301
▁Psalm	-9302
▁Rabad	-9303
▁führt	-9304
▁viele	-9305
▁water	-9306
▁Перси	-9307
▁волно	-9308
▁Carrol	-9309
▁killed	-9310
▁sowohl	-9311
▁конфли	-9312
▁between	-9313
▁connect	-9314
▁derives	-9315
▁grounds	-9316
▁Встреча	-9317
▁владеет	-9318
▁пирожки	-9319
▁соответ	-9320
7156-3648	-9321
andwiches	-9322
▁Rabadash	-9323
▁Прабхуку	-9324
▁Теннесси	-9325
▁растений	-9326
▁93645978.	-9327
▁Cambridge	-9328
▁Lumeszane	-9329
▁Schweizer	-9330
▁Telangana	-9331
▁резервным	-9332
▁0-439-17685	-9333
▁построенная	-9334
▁американцами	-9335
▁Araprivinesse	-9336
▁подписывается	-9337
íg	-9338
ЖД	-9339
-83	-9340
1.6	-9341
ATA	-9342
Vis	-9343
dal	-9344
dem	-9345
iew	-9346
Кар	-9347
бан	-9348
лех	-9349
1-83	-9350
beat	-9351
einh	-9352
ring	-9353
даба	-9354
джжи	-9355
▁5,3	-9356
▁8.3	-9357
▁ACE	-9358
▁Mel	-9359
▁dar	-9360
▁гри	-9361
36463	-9362
íguez	-9363
стави	-9364
▁Gene	-9365
▁IATA	-9366
▁View	-9367
▁away	-9368
▁Фонд	-9369
ersham	-9370
idered	-9371
robeat	-9372
оннаис	-9373
▁131.6	-9374
▁Carpi	-9375
▁Class	-9376
▁Colon	-9377
▁Mater	-9378
▁eaten	-9379
▁influ	-9380
▁Калла	-9381
▁Робер	-9382
▁Хорхе	-9383
zösisch	-9384
▁125800	-9385
▁836463	-9386
▁Member	-9387
▁Plante	-9388
▁Sanger	-9389
▁covers	-9390
▁seinem	-9391
▁sequel	-9392
▁Аарона	-9393
▁Granola	-9394
▁chorizo	-9395
▁Алексея	-9396
▁Копенга	-9397
▁Филлипс	-9398
▁Эфиопии	-9399
▁посещал	-9400
▁стадион	-9401
▁Pallesen	-9402
▁Джеймсом	-9403
▁завершил	-9404
▁известна	-9405
▁Bucharest	-9406
▁Faversham	-9407
▁Rodríguez	-9408
▁Лайоннаис	-9409
▁архитектур	-9410
Visvesvaraya	-9411
▁asiatischen	-9412
▁приготовлен	-9413
▁Contributing	-9414
▁Jacksonville	-9415
▁Коннектикуте	-9416
▁международном	-9417
▁альтернативный	-9418
AA	-9419
äd	-9420
ИЧ	-9421
/28	-9422
26.	-9423
din	-9424
gen	-9425
kar	-9426
ppe	-9427
str	-9428
орт	-9429
чой	-9430
▁Fr	-9431
▁we	-9432
▁Ху	-9433
60,0	-9434
bien	-9435
halb	-9436
osen	-9437
мбра	-9438
▁1.5	-9439
▁11,	-9440
▁560	-9441
▁767	-9442
▁ATK	-9443
▁Fox	-9444
▁Ref	-9445
▁col	-9446
▁НЖД	-9447
other	-9448
йском	-9449
▁1956	-9450
▁Cant	-9451
▁MBAs	-9452
▁camp	-9453
▁edit	-9454
▁Капи	-9455
▁панк	-9456
dalene	-9457
ellung	-9458
esweit	-9459
▁Carol	-9460
▁Hafen	-9461
▁Супер	-9462
▁кухни	-9463
▁пучок	-9464
▁район	-9465
▁футов	-9466
▁элект	-9467
sprache	-9468
▁native	-9469
▁Маккей	-9470
▁чеснок	-9471
▁7679831	-9472
▁Harbour	-9473
▁Sachsen	-9474
▁Махмуда	-9475
▁базирую	-9476
▁Enduring	-9477
▁Meringue	-9478
▁Нарендра	-9479
▁входящем	-9480
▁погибшим	-9481
▁2014-2015	-9482
▁Einwohner	-9483
▁blühenden	-9484
▁выступает	-9485
▁должность	-9486
▁персонажа	-9487
▁Амстердама	-9488
▁спроектирова	-9489
▁Congressional	-9490
▁альтернативное	-9491
AB	-9492
bg	-9493
äl	-9494
-3"	-9495
150	-9496
447	-9497
718	-9498
Man	-9499
Бат	-9500
еди	-9501
лэк	-9502
мой	-9503
уль	-9504
цей	-9505
▁lu	-9506
▁Им	-9507
▁Кэ	-9508
5589	-9509
9515	-9510
iber	-9511
real	-9512
utch	-9513
Роза	-9514
коло	-9515
лого	-9516
тови	-9517
▁32.	-9518
▁388	-9519
▁520	-9520
▁787	-9521
▁Put	-9522
▁Sat	-9523
▁Кан	-9524
▁Шар	-9525
▁Эгг	-9526
ician	-9527
дский	-9528
лэкпу	-9529
откры	-9530
реная	-9531
▁4150	-9532
▁5300	-9533
▁Bart	-9534
▁Brot	-9535
▁Drog	-9536
▁Mont	-9537
▁Shir	-9538
▁Wall	-9539
▁Ximo	-9540
▁süße	-9541
▁Буха	-9542
▁Дани	-9543
▁изго	-9544
gherty	-9545
insula	-9546
▁Doris	-9547
▁Spall	-9548
▁Ukrop	-9549
▁durch	-9550
▁Артур	-9551
▁Ковак	-9552
▁измер	-9553
▁певца	-9554
▁строи	-9555
ветской	-9556
▁135589	-9557
▁Torino	-9558
▁campus	-9559
▁higher	-9560
▁passed	-9561
▁Анкара	-9562
▁Кембри	-9563
▁высоту	-9564
▁пилота	-9565
емориала	-9566
▁5239515	-9567
▁Luciano	-9568
▁Schrift	-9569
▁Veintic	-9570
▁eingest	-9571
▁фламанд	-9572
▁Montreal	-9573
▁clematis	-9574
▁Чирикова	-9575
Математика	-9576
▁Dougherty	-9577
▁Magdalene	-9578
▁Геттисбург	-9579
▁0-7156-3648	-9580
▁Parkersburg	-9581
▁температуру	-9582
▁manufacturer	-9583
▁Американская	-9584
/1	-9585
ots	-9586
арт	-9587
мбу	-9588
сал	-9589
▁TV	-9590
▁so	-9591
▁Се	-9592
▁ры	-9593
-12"	-9594
idis	-9595
inco	-9596
Абра	-9597
гита	-9598
дона	-9599
куда	-9600
▁Qar	-9601
▁Rup	-9602
▁Sim	-9603
▁gem	-9604
▁ВИЧ	-9605
▁Том	-9606
▁объ	-9607
▁суд	-9608
iziel	-9609
Марсе	-9610
Монре	-9611
едини	-9612
▁2776	-9613
▁Gulf	-9614
▁Nach	-9615
▁sago	-9616
▁tall	-9617
▁than	-9618
▁Джая	-9619
▁гвар	-9620
▁лиди	-9621
000,0,	-9622
▁1996.	-9623
▁Makis	-9624
▁Worth	-9625
▁instr	-9626
▁Народ	-9627
▁Общая	-9628
▁актив	-9629
▁ритма	-9630
▁Astron	-9631
▁Design	-9632
▁luxury	-9633
▁Параку	-9634
▁Сейчас	-9635
▁Стамбу	-9636
▁заливе	-9637
▁откуда	-9638
▁певцом	-9639
▁провел	-9640
начально	-9641
▁Orbital	-9642
▁Voridis	-9643
▁ДеМарсе	-9644
▁главный	-9645
▁китайцы	-9646
▁Colombia	-9647
▁Seminary	-9648
▁attached	-9649
▁Институт	-9650
▁Линкольн	-9651
▁Менеджер	-9652
▁Вирджиния	-9653
▁Финляндия	-9654
▁имущества	-9655
▁considered	-9656
▁instrument	-9657
▁Персидском	-9658
▁Veinticinco	-9659
▁Hafenbehörde	-9660
▁муниципалитет	-9661
цу	-9662
-06	-9663
-09	-9664
906	-9665
III	-9666
ito	-9667
мод	-9668
▁7.	-9669
5718	-9670
7055	-9671
9705	-9672
Zahl	-9673
ombe	-9674
ydor	-9675
ötet	-9676
вать	-9677
калб	-9678
кило	-9679
роль	-9680
▁AFB	-9681
▁Arn	-9682
▁Kom	-9683
▁Lat	-9684
▁Ska	-9685
▁Пат	-9686
▁Рой	-9687
▁ден	-9688
▁кур	-9689
▁мра	-9690
▁сня	-9691
anyum	-9692
arble	-9693
haric	-9694
Джара	-9695
йское	-9696
ланко	-9697
▁1856	-9698
▁1901	-9699
▁1936	-9700
▁6603	-9701
▁Isis	-9702
▁XIII	-9703
▁Бром	-9704
▁дела	-9705
▁обес	-9706
вшимся	-9707
▁2006,	-9708
▁39447	-9709
▁Bures	-9710
▁Their	-9711
▁beans	-9712
▁given	-9713
▁série	-9714
▁Абнер	-9715
▁Бурес	-9716
▁Магда	-9717
▁звезд	-9718
▁паиса	-9719
▁перво	-9720
открыва	-9721
▁139705	-9722
▁520906	-9723
▁605718	-9724
▁Granit	-9725
▁ampara	-9726
▁bronze	-9727
▁chosen	-9728
▁marble	-9729
▁центре	-9730
arbeitet	-9731
Монреаль	-9732
женерный	-9733
▁6603633	-9734
▁Amharic	-9735
▁Gardner	-9736
▁Polydor	-9737
▁Shirley	-9738
▁getötet	-9739
▁granite	-9740
▁Акхигбе	-9741
▁Хельсин	-9742
▁номером	-9743
▁органом	-9744
▁системы	-9745
anyumasan	-9746
▁Arabisch	-9747
▁Candombe	-9748
▁Carolina	-9749
▁plantain	-9750
▁soldiers	-9751
▁Альфреда	-9752
▁Spalletti	-9753
▁Бирмингеме	-9754
▁Роттердаме	-9755
▁архитектор	-9756
▁присоедини	-9757
▁Französisch	-9758
▁Прабхукумар	-9759
øk	-9760
ят	-9761
-21	-9762
14.	-9763
2.4	-9764
5.3	-9765
770	-9766
eyr	-9767
mne	-9768
uin	-9769
гих	-9770
сам	-9771
тто	-9772
▁hö	-9773
▁мы	-9774
-261	-9775
-374	-9776
esel	-9777
esse	-9778
økke	-9779
джоб	-9780
заде	-9781
люби	-9782
него	-9783
пера	-9784
▁Amb	-9785
▁Ent	-9786
▁Tin	-9787
▁kgs	-9788
▁Бот	-9789
▁опы	-9790
▁сли	-9791
Izmir	-9792
Stars	-9793
andon	-9794
namen	-9795
onnes	-9796
press	-9797
Ланки	-9798
▁1800	-9799
▁Hard	-9800
▁Kenn	-9801
▁Pale	-9802
▁Peng	-9803
▁Welf	-9804
▁came	-9805
▁film	-9806
▁form	-9807
▁Вори	-9808
▁Раси	-9809
▁служ	-9810
-26131	-9811
acones	-9812
▁Kesel	-9813
▁Music	-9814
▁Steyr	-9815
▁Valer	-9816
▁arepa	-9817
▁Альба	-9818
▁Марио	-9819
▁грани	-9820
▁роман	-9821
2.47055	-9822
Абрадаб	-9823
Альберт	-9824
востоку	-9825
▁787711	-9826
▁Random	-9827
▁Wacker	-9828
▁Декалб	-9829
▁палаты	-9830
Amateure	-9831
National	-9832
amerikan	-9833
▁Brandon	-9834
▁Capitol	-9835
▁Penguin	-9836
▁Welfare	-9837
▁creator	-9838
▁gewählt	-9839
▁Воридис	-9840
▁Мануэль	-9841
▁канцлер	-9842
▁корабля	-9843
▁майский	-9844
estellung	-9845
präsident	-9846
джобланко	-9847
▁253260.0	-9848
▁Electric	-9849
▁gegessen	-9850
▁Расизаде	-9851
-374-26131	-9852
километров	-9853
▁beliebtes	-9854
▁Арлингтон	-9855
▁Гринвилле	-9856
▁Футболист	-9857
▁выполняет	-9858
▁Менеджером	-9859
▁популярное	-9860
Ak	-9861
Ми	-9862
аф	-9863
мы	-9864
823	-9865
gew	-9866
мин	-9867
рос	-9868
чус	-9869
▁40	-9870
▁Их	-9871
1592	-9872
2343	-9873
code	-9874
elos	-9875
iece	-9876
ocht	-9877
ällt	-9878
Афон	-9879
андж	-9880
вент	-9881
додо	-9882
льме	-9883
▁Dil	-9884
▁Бун	-9885
▁Мор	-9886
▁вер	-9887
elade	-9888
resse	-9889
катто	-9890
матри	-9891
стема	-9892
уттик	-9893
чусет	-9894
▁2597	-9895
▁3000	-9896
▁Balt	-9897
▁Graz	-9898
▁Hart	-9899
▁Parc	-9900
▁Virt	-9901
▁Vorw	-9902
▁land	-9903
▁nick	-9904
▁pred	-9905
▁Лира	-9906
▁Форт	-9907
▁брон	-9908
234300	-9909
halten	-9910
westen	-9911
Афонсу	-9912
енного	-9913
▁fällt	-9914
▁Вальс	-9915
▁Дорис	-9916
▁Иохан	-9917
▁Хуана	-9918
▁имени	-9919
▁назем	-9920
▁следу	-9921
icharon	-9922
▁511592	-9923
▁Korean	-9924
▁Видодо	-9925
▁Морган	-9926
▁Олимпи	-9927
▁подраз	-9928
▁твердо	-9929
▁Randall	-9930
▁Spanier	-9931
▁Verwalt	-9932
▁Богаард	-9933
▁Манхэтт	-9934
▁участие	-9935
▁88234300	-9936
▁Austrian	-9937
▁Chinesen	-9938
▁отставке	-9939
уттиккатто	-9940
▁Valencian	-9941
▁Манчестер	-9942
▁Хельсинки	-9943
▁связанный	-9944
▁Banyumasan	-9945
▁Bundesliga	-9946
▁discoverer	-9947
▁Американцы	-9948
▁Массачусет	-9949
▁футбольную	-9950
▁Альтернатив	-9951
▁Центральной	-9952
▁подразделен	-9953
▁Паркерсбурге	-9954
▁3997100000000	-9955
▁amerikanischen	-9956
АЛ	-9957
HAM	-9958
ili	-9959
iya	-9960
uda	-9961
Сам	-9962
дан	-9963
хва	-9964
elli	-9965
jano	-9966
otto	-9967
мент	-9968
ться	-9969
▁308	-9970
▁Buk	-9971
▁Wet	-9972
▁you	-9973
▁Вен	-9974
▁Пет	-9975
▁мис	-9976
Techn	-9977
dnuss	-9978
eanut	-9979
ology	-9980
лланд	-9981
чатый	-9982
▁Dale	-9983
▁Diaz	-9984
▁Moro	-9985
▁RHAM	-9986
▁Rham	-9987
▁Каро	-9988
▁пуди	-9989
▁сэнд	-9990
arable	-9991
icelli	-9992
orsitz	-9993
Альфон	-9994
щество	-9995
▁Arion	-9996
▁Gesam	-9997
▁Kateg	-9998
▁Løkke	-9999
▁Ботта	-10000
▁Райан	-10001
▁жанре	-10002
▁монар	-10003
▁отпра	-10004
▁повер	-10005
▁проек	-10006
loating	-10007
вижения	-10008
▁Arnhem	-10009
▁Hartel	-10010
▁cooked	-10011
▁миссии	-10012
▁состоя	-10013
▁старто	-10014
▁2015-06	-10015
▁Erdnuss	-10016
▁Vitesse	-10017
▁gekocht	-10018
▁Окончил	-10019
▁диаметр	-10020
▁периапз	-10021
702.47055	-10022
▁253260,0	-10023
▁Bukarest	-10024
▁Führungs	-10025
▁Guardian	-10026
▁Südosten	-10027
▁exponent	-10028
▁included	-10029
▁offiziel	-10030
▁Бухарест	-10031
▁Западной	-10032
▁домашние	-10033
Арраббиата	-10034
▁Charakter	-10035
▁Operation	-10036
▁östlichen	-10037
▁Османской	-10038
abbreviated	-10039
onservative	-10040
▁comparable	-10041
▁politician	-10042
▁Erdnusssoße	-10043
▁производный	-10044
▁italienische	-10045
▁postgraduate	-10046
▁Висвесварайя	-10047
94	-10048
Ne	-10049
517	-10050
567	-10051
608	-10052
AGE	-10053
ala	-10054
ank	-10055
ghe	-10056
lar	-10057
oye	-10058
дят	-10059
ках	-10060
мая	-10061
▁Sl	-10062
▁UC	-10063
▁Ль	-10064
▁Пи	-10065
▁мя	-10066
43,8	-10067
4989	-10068
baan	-10069
elly	-10070
four	-10071
блио	-10072
нена	-10073
чные	-10074
штат	-10075
▁410	-10076
▁464	-10077
▁507	-10078
▁SVE	-10079
▁mid	-10080
▁Все	-10081
▁пря	-10082
567-7	-10083
aving	-10084
metal	-10085
ysler	-10086
Альга	-10087
▁1299	-10088
▁1905	-10089
▁2003	-10090
▁5000	-10091
▁Bari	-10092
▁Eman	-10093
▁Film	-10094
▁Jano	-10095
▁Karl	-10096
▁Rahm	-10097
▁SAGE	-10098
▁Wass	-10099
▁span	-10100
▁реда	-10101
вентус	-10102
рупней	-10103
▁1966.	-10104
▁Popov	-10105
▁piece	-10106
▁Альве	-10107
▁Вольф	-10108
▁Парти	-10109
▁Томас	-10110
▁рупия	-10111
Альфонс	-10112
▁254989	-10113
▁259776	-10114
▁464517	-10115
▁Airbus	-10116
▁Airman	-10117
▁Gesamt	-10118
▁begann	-10119
▁chines	-10120
▁height	-10121
▁космод	-10122
minister	-10123
▁Emanuel	-10124
▁Wolfman	-10125
▁address	-10126
▁noodles	-10127
▁Уругвае	-10128
▁среднюю	-10129
patacones	-10130
Альгамбра	-10131
▁Brothers	-10132
▁Chrysler	-10133
▁Иоханнис	-10134
▁входящий	-10135
▁чемпиона	-10136
▁Marmelade	-10137
▁Uruguayan	-10138
▁indischen	-10139
▁Локомотив	-10140
▁бутерброд	-10141
▁института	-10142
▁категории	-10143
▁Gebackenes	-10144
▁Mathematik	-10145
▁Манчестере	-10146
▁0-439-17684	-10147
▁Universitas	-10148
▁производная	-10149
▁Associatione	-10150
▁американский	-10151
▁Расположенный	-10152
▁259776702.47055	-10153
It	-10154
ki	-10155
la	-10156
ЕК	-10157
пп	-10158
-28	-10159
akh	-10160
chi	-10161
egh	-10162
loy	-10163
por	-10164
sot	-10165
vaz	-10166
сай	-10167
сты	-10168
шед	-10169
▁BS	-10170
▁oc	-10171
-27.	-10172
Acta	-10173
Code	-10174
emer	-10175
gory	-10176
latt	-10177
итва	-10178
лади	-10179
раго	-10180
▁Mas	-10181
▁jam	-10182
▁non	-10183
▁tom	-10184
▁voy	-10185
▁Бур	-10186
▁Тан	-10187
▁Уил	-10188
▁мак	-10189
▁шко	-10190
-12",	-10191
aften	-10192
egisl	-10193
gheau	-10194
igung	-10195
тника	-10196
товое	-10197
▁4349	-10198
▁Azin	-10199
▁Höhe	-10200
▁Rose	-10201
▁Стат	-10202
▁Тони	-10203
▁едят	-10204
Батчой	-10205
падает	-10206
укерки	-10207
▁Ahvaz	-10208
▁Voice	-10209
▁leben	-10210
▁Джоко	-10211
▁Кроме	-10212
▁более	-10213
▁имела	-10214
▁север	-10215
▁торго	-10216
sotakis	-10217
Кливлен	-10218
Мертвый	-10219
дителем	-10220
▁Bohnen	-10221
▁Estegh	-10222
▁Parana	-10223
▁Queens	-10224
▁Wasser	-10225
▁tomato	-10226
▁voyage	-10227
▁Палата	-10228
▁блюдом	-10229
▁пудинг	-10230
▁сливоч	-10231
amateurs	-10232
любители	-10233
▁Gregory	-10234
▁Ilocano	-10235
▁Ketchup	-10236
▁Lambien	-10237
▁Этничес	-10238
▁имеется	-10239
▁максима	-10240
▁соверши	-10241
▁сольным	-10242
▁Bergheau	-10243
▁Floating	-10244
▁Wetlands	-10245
▁category	-10246
▁elevated	-10247
▁лидирует	-10248
▁enthalten	-10249
▁Андалусии	-10250
▁индонезий	-10251
▁Mitsotakis	-10252
▁Куттиккатто	-10253
▁футбольного	-10254
fL	-10255
zh	-10256
73.	-10257
AWH	-10258
par	-10259
sit	-10260
une	-10261
usa	-10262
via	-10263
вло	-10264
зви	-10265
олы	-10266
▁AG	-10267
2447	-10268
4.55	-10269
6521	-10270
adoi	-10271
aduy	-10272
cell	-10273
inen	-10274
jang	-10275
onet	-10276
onge	-10277
onny	-10278
osun	-10279
roke	-10280
Смер	-10281
ссии	-10282
убен	-10283
чени	-10284
▁STV	-10285
▁VfL	-10286
▁Yin	-10287
▁aut	-10288
▁вар	-10289
▁лон	-10290
Athen	-10291
enced	-10292
insel	-10293
opter	-10294
ylvia	-10295
Техас	-10296
копис	-10297
ланте	-10298
пулос	-10299
▁1820	-10300
▁Bron	-10301
▁Eier	-10302
▁Phys	-10303
▁Punk	-10304
▁eggs	-10305
▁leaf	-10306
▁when	-10307
▁will	-10308
▁Валю	-10309
▁Ирак	-10310
▁база	-10311
▁осно	-10312
911339	-10313
gewood	-10314
▁2004.	-10315
▁Badoi	-10316
▁Essen	-10317
▁Jonny	-10318
▁Paulo	-10319
▁Sachb	-10320
▁Satem	-10321
▁Sousa	-10322
▁Tosun	-10323
▁bands	-10324
▁wrote	-10325
▁Ахмад	-10326
▁Павло	-10327
▁полно	-10328
4.55312	-10329
enbasis	-10330
Бионико	-10331
▁162447	-10332
▁296521	-10333
▁Butter	-10334
▁Marmor	-10335
▁Tejano	-10336
▁butter	-10337
▁editor	-10338
▁joined	-10339
▁Планте	-10340
▁Статен	-10341
▁заказа	-10342
▁клубом	-10343
▁лондон	-10344
менистан	-10345
▁30843,8	-10346
▁Крейгом	-10347
▁Стеубен	-10348
▁создали	-10349
▁участво	-10350
▁четырех	-10351
wissensch	-10352
▁41911339	-10353
▁Bananenb	-10354
▁Direktor	-10355
▁Soldaten	-10356
▁rotation	-10357
▁Уотсоном	-10358
▁волновой	-10359
▁категори	-10360
▁памятник	-10361
▁руководя	-10362
▁страницы	-10363
▁Alexandre	-10364
▁Kategorie	-10365
▁Ridgewood	-10366
▁Лейборист	-10367
▁оливковое	-10368
▁Аджобланко	-10369
▁крупнейшим	-10370
▁Verwaltungs	-10371
▁председателем	-10372
▁присоединился	-10373
▁0-439-92550-9.	-10374
▁419113394.55312	-10375
86	-10376
ep	-10377
fo	-10378
Из	-10379
3.9	-10380
ebi	-10381
ife	-10382
pan	-10383
roe	-10384
Вин	-10385
Рит	-10386
США	-10387
гие	-10388
дум	-10389
мир	-10390
▁Бы	-10391
000,	-10392
arst	-10393
enan	-10394
ogan	-10395
omer	-10396
tenf	-10397
uzhn	-10398
Ритм	-10399
бира	-10400
туры	-10401
▁299	-10402
▁880	-10403
urtur	-10404
Ланке	-10405
водит	-10406
▁Bebi	-10407
▁Halb	-10408
▁Jong	-10409
▁Mami	-10410
▁Osim	-10411
▁Perm	-10412
▁beim	-10413
▁Луна	-10414
▁Риме	-10415
Taylor	-10416
ashire	-10417
eschäd	-10418
дендор	-10419
станти	-10420
▁Breaz	-10421
▁Divis	-10422
▁Kenny	-10423
▁Konst	-10424
▁Logan	-10425
▁Minot	-10426
▁Yuzhn	-10427
▁front	-10428
▁höher	-10429
▁kateg	-10430
▁Южной	-10431
▁880573	-10432
▁Excell	-10433
▁Monroe	-10434
▁Sylvia	-10435
▁legisl	-10436
▁predec	-10437
icialist	-10438
orisiert	-10439
urturing	-10440
Аполлона	-10441
блиотека	-10442
▁America	-10443
▁Olympic	-10444
▁Stadion	-10445
▁Tintenf	-10446
▁organiz	-10447
▁regiert	-10448
▁Мендосе	-10449
▁польско	-10450
Technical	-10451
утерброда	-10452
▁División	-10453
▁Konstant	-10454
▁Yuzhnoye	-10455
▁Ашхабаде	-10456
▁которому	-10457
Neuseeland	-10458
▁Halbinsel	-10459
▁Константи	-10460
▁выполнена	-10461
eschädigung	-10462
▁Excellence	-10463
▁Heimstätte	-10464
▁Lancashire	-10465
▁eingestuft	-10466
▁Ванденберг	-10467
▁Павлопулос	-10468
▁Управление	-10469
▁аффилирован	-10470
▁Bananenblatt	-10471
▁Gesamtfläche	-10472
▁Justicialist	-10473
▁kategorisiert	-10474
2,	-10475
км	-10476
эр	-10477
,83	-10478
-23	-10479
kas	-10480
reg	-10481
Лос	-10482
енс	-10483
ила	-10484
пус	-10485
тал	-10486
хов	-10487
▁ro	-10488
▁Вы	-10489
▁Ци	-10490
-11-	-10491
4984	-10492
mach	-10493
onil	-10494
paty	-10495
schl	-10496
Юсти	-10497
вилл	-10498
гана	-10499
есит	-10500
мидо	-10501
онсу	-10502
паты	-10503
сота	-10504
▁168	-10505
▁331	-10506
▁Kap	-10507
▁Mov	-10508
▁eur	-10509
▁mod	-10510
▁Мит	-10511
19600	-10512
60815	-10513
rigan	-10514
ванию	-10515
еллос	-10516
летон	-10517
льцем	-10518
столи	-10519
▁1979	-10520
▁Juni	-10521
▁Lviv	-10522
▁Vala	-10523
▁Луан	-10524
▁Юлия	-10525
498400	-10526
chedel	-10527
Аттика	-10528
▁Baduy	-10529
▁Deuts	-10530
▁Milch	-10531
▁erste	-10532
▁flour	-10533
▁malai	-10534
▁Львов	-10535
▁Сумат	-10536
▁Ципра	-10537
▁свини	-10538
machine	-10539
Джарама	-10540
Инфанте	-10541
Карпаты	-10542
Ювентус	-10543
пплетон	-10544
▁410777	-10545
▁Bright	-10546
▁Bronze	-10547
▁Cruise	-10548
▁Fruits	-10549
▁Афонсу	-10550
▁Тироль	-10551
▁относя	-10552
sychedel	-10553
▁Cornish	-10554
▁Coronet	-10555
▁Karpaty	-10556
▁Russian	-10557
▁almonds	-10558
▁batchoy	-10559
▁demonym	-10560
▁raisins	-10561
▁Алабама	-10562
▁Алексис	-10563
▁Инфанте	-10564
▁Уругвай	-10565
▁бобслеи	-10566
▁жителей	-10567
▁испанцы	-10568
▁констру	-10569
▁нигерий	-10570
▁29919600	-10571
▁41498400	-10572
▁Horrigan	-10573
▁Mamiffer	-10574
▁Тирструп	-10575
▁блюзовую	-10576
wissenschaft	-10577
▁Greymachine	-10578
▁Паракуеллос	-10579
бл	-10580
/19	-10581
raj	-10582
▁42	-10583
▁Gi	-10584
▁kg	-10585
▁См	-10586
Amer	-10587
ajub	-10588
anst	-10589
aude	-10590
cour	-10591
flus	-10592
Грей	-10593
аллу	-10594
грес	-10595
енье	-10596
илми	-10597
ранс	-10598
скош	-10599
хман	-10600
▁26-	-10601
▁Any	-10602
▁Men	-10603
▁Оль	-10604
▁ПФК	-10605
▁вет	-10606
arkov	-10607
erenz	-10608
ungsd	-10609
Остин	-10610
анджо	-10611
герти	-10612
▁"192	-10613
▁Boat	-10614
▁euro	-10615
▁Бадо	-10616
▁Язык	-10617
▁комп	-10618
flusst	-10619
▁Vajub	-10620
▁model	-10621
▁Франк	-10622
▁Хилми	-10623
▁числе	-10624
ürgerme	-10625
тактный	-10626
ческому	-10627
▁Adenan	-10628
▁Altern	-10629
▁Claude	-10630
▁Putraj	-10631
▁beteil	-10632
▁schwar	-10633
▁weißer	-10634
▁Джордж	-10635
▁Рахман	-10636
▁жанром	-10637
▁Antonio	-10638
▁Asterix	-10639
▁Mandeln	-10640
▁coached	-10641
▁Дугерти	-10642
▁Чириков	-10643
▁изготов	-10644
einflusst	-10645
▁Minotaur	-10646
▁indische	-10647
▁synthpop	-10648
▁Копенгаг	-10649
▁авиабазы	-10650
▁работала	-10651
▁Ольдендор	-10652
▁Плотность	-10653
▁Президент	-10654
▁Academical	-10655
▁government	-10656
▁загородной	-10657
▁эпохальная	-10658
▁nationality	-10659
▁изготовлена	-10660
▁Aarhusiensis	-10661
▁производится	-10662
▁afrikanischen	-10663
▁академический	-10664
▁технологический	-10665
oğ	-10666
яр	-10667
862	-10668
ios	-10669
ney	-10670
uty	-10671
öln	-10672
бар	-10673
олт	-10674
ыду	-10675
язы	-10676
▁Ev	-10677
▁Ni	-10678
▁Tu	-10679
-204	-10680
heda	-10681
oğlu	-10682
ries	-10683
жнее	-10684
жное	-10685
рави	-10686
▁1,5	-10687
▁AGR	-10688
▁Bau	-10689
▁Ран	-10690
-0-15	-10691
ensed	-10692
iment	-10693
olone	-10694
▁2215	-10695
▁2900	-10696
▁Arms	-10697
▁Bury	-10698
▁Graf	-10699
▁Into	-10700
▁Köln	-10701
▁Lyle	-10702
▁Whig	-10703
▁Осим	-10704
▁влия	-10705
▁памя	-10706
league	-10707
stroke	-10708
тивной	-10709
▁34920	-10710
▁3500.	-10711
▁69862	-10712
▁Adsit	-10713
▁Copen	-10714
▁Höhen	-10715
▁Icolo	-10716
▁Quart	-10717
▁Sucht	-10718
▁lemon	-10719
▁Макис	-10720
▁воева	-10721
▁предо	-10722
▁число	-10723
-204770	-10724
столица	-10725
▁Barkov	-10726
▁Herald	-10727
▁Meride	-10728
▁Spring	-10729
▁battle	-10730
▁dieser	-10731
▁Бундес	-10732
▁Катало	-10733
▁Родные	-10734
▁собира	-10735
onferenz	-10736
▁Adresse	-10737
▁Rutland	-10738
▁records	-10739
▁schrieb	-10740
▁Карлоса	-10741
▁Drogheda	-10742
▁Populous	-10743
▁Прокопис	-10744
▁народной	-10745
▁цветущих	-10746
mannschaft	-10747
▁Bartolone	-10748
▁Buchfigur	-10749
▁Peninsula	-10750
▁beteiligt	-10751
▁правитель	-10752
▁Преемником	-10753
-0-15-204770	-10754
ürgermeister	-10755
▁predecessor	-10756
▁образования	-10757
▁architecture	-10758
▁операционная	-10759
▁Технологический	-10760
ha	-10761
kl	-10762
нн	-10763
473	-10764
Ram	-10765
apt	-10766
etz	-10767
jah	-10768
ало	-10769
ань	-10770
вуд	-10771
енц	-10772
рун	-10773
▁Sq	-10774
▁фа	-10775
0.29	-10776
abag	-10777
arif	-10778
asha	-10779
iton	-10780
read	-10781
акад	-10782
воде	-10783
дрин	-10784
онов	-10785
рома	-10786
ющей	-10787
▁31.	-10788
▁Jos	-10789
▁Mam	-10790
▁Two	-10791
▁mms	-10792
▁out	-10793
▁Дес	-10794
▁Мин	-10795
▁Стю	-10796
▁Там	-10797
▁Тем	-10798
▁бин	-10799
2-932	-10800
drini	-10801
ommen	-10802
queez	-10803
Амкар	-10804
Барсы	-10805
▁1911	-10806
▁Doll	-10807
▁Lein	-10808
▁Send	-10809
▁wife	-10810
▁Амар	-10811
▁подж	-10812
▁яйца	-10813
Грейма	-10814
▁Halla	-10815
▁Laura	-10816
▁Rupie	-10817
▁rotem	-10818
▁война	-10819
portiva	-10820
Юстиция	-10821
востоке	-10822
▁360.29	-10823
▁Anyang	-10824
▁Banane	-10825
▁Michel	-10826
▁Norden	-10827
▁Sharif	-10828
▁Westen	-10829
▁делает	-10830
▁звание	-10831
▁инстру	-10832
▁ключев	-10833
▁силами	-10834
▁1907-07	-10835
▁63800.0	-10836
▁Barajas	-10837
▁Menasha	-10838
▁Qarabag	-10839
▁Tomaten	-10840
▁tenants	-10841
▁варенье	-10842
▁синтеза	-10843
Abteilung	-10844
советской	-10845
▁0002-932	-10846
▁Boldrini	-10847
▁Fallujah	-10848
▁Leinster	-10849
▁Vajubhai	-10850
▁alternat	-10851
▁erstellt	-10852
воздушными	-10853
▁57059226.	-10854
▁Guanciale	-10855
▁Lauraceae	-10856
▁Municipal	-10857
▁community	-10858
▁Суперлиге	-10859
▁бобслеист	-10860
▁возглавля	-10861
▁правления	-10862
▁соревнова	-10863
▁родившимся	-10864
▁Legislative	-10865
▁Superleague	-10866
▁Королевство	-10867
▁арендатором	-10868
▁социального	-10869
▁Amerikanerin	-10870
▁Konstantinos	-10871
▁передвижения	-10872
▁соответствую	-10873
▁подразделение	-10874
▁Premierminister	-10875
5,	-10876
АЗ	-10877
Ад	-10878
йн	-10879
455	-10880
erb	-10881
ete	-10882
sil	-10883
uso	-10884
üng	-10885
Алу	-10886
вом	-10887
печ	-10888
2497	-10889
3309	-10890
ajji	-10891
cema	-10892
Мэри	-10893
анди	-10894
вано	-10895
грам	-10896
змер	-10897
раль	-10898
таун	-10899
▁1.9	-10900
▁178	-10901
▁Acc	-10902
▁err	-10903
▁soy	-10904
▁Бра	-10905
▁Ром	-10906
▁Юсу	-10907
▁пла	-10908
▁сое	-10909
▁уда	-10910
50000	-10911
atown	-10912
dnung	-10913
Алуна	-10914
Откры	-10915
Такад	-10916
▁Enda	-10917
▁Hook	-10918
▁Publ	-10919
▁Silv	-10920
▁Slay	-10921
▁сооб	-10922
▁фрук	-10923
▁хлеб	-10924
aminer	-10925
ansing	-10926
itonit	-10927
журнал	-10928
руются	-10929
▁1995.	-10930
▁Amkar	-10931
▁Perth	-10932
▁Youth	-10933
▁bread	-10934
▁death	-10935
▁rupee	-10936
▁Ареша	-10937
▁Джано	-10938
▁стиле	-10939
capital	-10940
queezed	-10941
ublican	-10942
Батагор	-10943
печения	-10944
▁183309	-10945
▁352497	-10946
▁Almond	-10947
▁Carles	-10948
▁Fenves	-10949
▁Нептун	-10950
▁Сената	-10951
▁Турция	-10952
▁одного	-10953
Memorial	-10954
genommen	-10955
Такаддум	-10956
▁Buscema	-10957
▁Ordnung	-10958
▁главные	-10959
abgekürzt	-10960
▁16244700	-10961
▁Flugzeug	-10962
▁Veilchen	-10963
ausgegeben	-10964
▁Chinatown	-10965
▁Davutoğlu	-10966
▁Executive	-10967
▁Putrajaya	-10968
▁errichtet	-10969
▁peritonit	-10970
▁относятся	-10971
▁сливочное	-10972
▁Bestellung	-10973
▁Williamson	-10974
▁Этническая	-10975
▁происходит	-10976
▁Präsidenten	-10977
▁Копенгагене	-10978
▁конструктор	-10979
▁обеспечения	-10980
▁образованию	-10981
▁федеральный	-10982
▁352497000000	-10983
▁Publications	-10984
▁техническому	-10985
▁ингредиентами	-10986
▁postgraduierte	-10987
ić	-10988
na	-10989
Ле	-10990
Alc	-10991
dez	-10992
fol	-10993
sid	-10994
ual	-10995
Ста	-10996
рик	-10997
▁Ya	-10998
▁ur	-10999
▁эк	-11000
-242	-11001
ilst	-11002
imov	-11003
елос	-11004
инди	-11005
кого	-11006
стри	-11007
тным	-11008
▁Dal	-11009
▁Def	-11010
▁Gos	-11011
▁Peñ	-11012
▁Мон	-11013
▁Пан	-11014
▁Яку	-11015
▁эфи	-11016
ashid	-11017
ignif	-11018
pielt	-11019
sberg	-11020
stein	-11021
velop	-11022
ández	-11023
лейбл	-11024
▁1857	-11025
▁1958	-11026
▁Bako	-11027
▁Garn	-11028
▁Jaya	-11029
▁Rakh	-11030
▁Stil	-11031
▁That	-11032
▁bhaj	-11033
▁nort	-11034
▁Раши	-11035
▁рейс	-11036
▁смер	-11037
▁смет	-11038
sprüng	-11039
Ашхаба	-11040
путале	-11041
тонита	-11042
▁17023	-11043
▁Bhaji	-11044
▁Billy	-11045
▁Demak	-11046
▁Helic	-11047
▁Jalan	-11048
▁Банде	-11049
▁Иколо	-11050
▁Паиса	-11051
▁Строи	-11052
▁Тайба	-11053
▁Фаллу	-11054
▁полуо	-11055
Ашхабад	-11056
▁APGPAC	-11057
▁Admira	-11058
▁Goslar	-11059
▁Rashid	-11060
▁Virtus	-11061
▁muffin	-11062
▁signif	-11063
▁status	-11064
▁subsid	-11065
▁Бурбан	-11066
▁Даниил	-11067
▁Капито	-11068
▁Кристи	-11069
▁Сергей	-11070
▁Стюарт	-11071
▁Ципрас	-11072
▁начала	-11073
▁началь	-11074
morcilla	-11075
▁Entella	-11076
▁Führers	-11077
▁Lansing	-11078
▁Penarol	-11079
▁Rosinen	-11080
▁avocado	-11081
▁granola	-11082
▁Альфонс	-11083
▁Атланте	-11084
▁Всеинди	-11085
▁Ледокол	-11086
▁Церковь	-11087
▁подписа	-11088
чательный	-11089
▁Asunción	-11090
▁Italians	-11091
▁Rakhimov	-11092
▁gespielt	-11093
▁nickname	-11094
▁ursprüng	-11095
▁стадионе	-11096
▁торговли	-11097
▁Gebackene	-11098
▁Hernández	-11099
▁Psychedel	-11100
▁connected	-11101
▁northeast	-11102
▁связанные	-11103
▁созданный	-11104
▁Aleksander	-11105
▁Babelsberg	-11106
▁influenced	-11107
▁significan	-11108
▁перитонита	-11109
▁собирается	-11110
▁peritonitis	-11111
▁Ольдендорфе	-11112
▁французский	-11113
▁скончавшийся	-11114
-0-15-204770-2	-11115
▁насчитывается	-11116
▁муниципалитете	-11117
▁четырехтактный	-11118
Ch	-11119
Ка	-11120
СР	-11121
0.0	-11122
484	-11123
729	-11124
77.	-11125
Ind	-11126
RAA	-11127
Reg	-11128
ehl	-11129
imp	-11130
pur	-11131
teo	-11132
ССР	-11133
акэ	-11134
едь	-11135
йцо	-11136
май	-11137
▁Em	-11138
▁Фу	-11139
▁ци	-11140
9142	-11141
Teil	-11142
amie	-11143
arbo	-11144
eder	-11145
enzi	-11146
iben	-11147
kuas	-11148
ldon	-11149
вшей	-11150
енат	-11151
соль	-11152
ьера	-11153
▁111	-11154
▁31,	-11155
▁Bib	-11156
▁Dun	-11157
▁Rad	-11158
▁Süß	-11159
▁Tic	-11160
▁Weg	-11161
▁dir	-11162
▁жен	-11163
-11-2	-11164
itary	-11165
tenaw	-11166
жноаф	-11167
▁1533	-11168
▁1700	-11169
▁Clay	-11170
▁Hays	-11171
▁Line	-11172
▁ORAA	-11173
▁Sons	-11174
▁bede	-11175
▁gehe	-11176
▁Пред	-11177
▁СССР	-11178
▁Юсуф	-11179
▁очер	-11180
Ататюр	-11181
▁1963,	-11182
▁1979.	-11183
▁Gramm	-11184
▁Larry	-11185
▁Renzi	-11186
▁Swiss	-11187
▁arros	-11188
▁belly	-11189
▁bevor	-11190
▁coach	-11191
▁falls	-11192
▁Бадои	-11193
▁Марии	-11194
▁Никос	-11195
▁приня	-11196
▁тенни	-11197
spieler	-11198
постави	-11199
рейской	-11200
▁279142	-11201
▁Lumpur	-11202
▁Matteo	-11203
▁Melaka	-11204
▁Samuda	-11205
▁Ticino	-11206
▁sanger	-11207
▁weißem	-11208
▁Карлос	-11209
▁кревет	-11210
▁курицу	-11211
▁переда	-11212
▁прозви	-11213
▁южноаф	-11214
Denkmals	-11215
енцерков	-11216
▁Sheldon	-11217
▁Алексей	-11218
▁Альбани	-11219
▁Конгрес	-11220
▁очередь	-11221
▁соевого	-11222
▁электро	-11223
▁60040714	-11224
▁69862200	-11225
▁lengkuas	-11226
▁religion	-11227
▁Франклин	-11228
▁группами	-11229
▁министра	-11230
▁управлял	-11231
6000000.0.	-11232
блиотекари	-11233
▁Argentine	-11234
▁Washtenaw	-11235
▁конфликта	-11236
▁памятника	-11237
▁Agrimiação	-11238
▁Grafschaft	-11239
▁комический	-11240
▁отправился	-11241
▁legislature	-11242
▁malaiischen	-11243
▁significant	-11244
▁южноафрикан	-11245
▁organization	-11246
▁Константинос	-11247
▁библиотекари	-11248
▁идентификатор	-11249
▁0-670-03380-4.	-11250
▁kolumbianischen	-11251
Kh	-11252
nt	-11253
Во	-11254
эш	-11255
cam	-11256
ely	-11257
ijm	-11258
zio	-11259
äse	-11260
ürt	-11261
гой	-11262
юро	-11263
▁Ra	-11264
570.	-11265
Khor	-11266
adzh	-11267
afay	-11268
club	-11269
gans	-11270
leas	-11271
mals	-11272
rata	-11273
wick	-11274
yria	-11275
дене	-11276
едет	-11277
елом	-11278
еста	-11279
нима	-11280
редо	-11281
▁476	-11282
▁Ana	-11283
▁Arp	-11284
▁Dig	-11285
▁che	-11286
▁cyl	-11287
▁may	-11288
▁val	-11289
▁Миш	-11290
actic	-11291
ators	-11292
crust	-11293
fence	-11294
where	-11295
дении	-11296
▁1982	-11297
▁2744	-11298
▁Chap	-11299
▁Linn	-11300
▁Nijm	-11301
▁Zent	-11302
▁hard	-11303
▁pers	-11304
▁time	-11305
▁turn	-11306
▁Алва	-11307
▁Ауре	-11308
▁бюро	-11309
▁дире	-11310
lächen	-11311
mashed	-11312
Айресе	-11313
▁2013.	-11314
▁2016.	-11315
▁Gadzh	-11316
▁Kuala	-11317
▁Lafay	-11318
▁Light	-11319
▁Pleas	-11320
▁Sojas	-11321
▁Steel	-11322
▁reign	-11323
▁volle	-11324
▁weigh	-11325
▁Гаджи	-11326
▁ведет	-11327
▁овоща	-11328
▁семьи	-11329
gericht	-11330
▁Errata	-11331
▁Sendic	-11332
▁cheese	-11333
▁cylind	-11334
▁organs	-11335
▁shrimp	-11336
▁whilst	-11337
▁Гвиана	-11338
▁Москва	-11339
▁России	-11340
▁Тейлор	-11341
Alcatraz	-11342
▁Defence	-11343
▁Digweed	-11344
▁Moldoff	-11345
▁Бернсом	-11346
▁Лондона	-11347
▁ведении	-11348
▁включая	-11349
▁собрана	-11350
▁черного	-11351
▁Africans	-11352
▁Galactic	-11353
▁Goslarer	-11354
▁Nijmegen	-11355
▁Pleasant	-11356
▁Альберто	-11357
▁Ашхабада	-11358
▁Бурбанке	-11359
▁Колумбии	-11360
▁Основная	-11361
▁Фаллуджа	-11362
▁выполнен	-11363
▁475426000	-11364
▁Lafayette	-11365
▁Sojasauce	-11366
▁Бананаман	-11367
▁Бирмингем	-11368
▁Техасской	-11369
▁254989570.	-11370
▁Helicopter	-11371
▁Südafrikan	-11372
▁arrabbiata	-11373
▁Инженерный	-11374
▁вариатором	-11375
открывателем	-11376
▁Alternative	-11377
▁headquarter	-11378
▁региональном	-11379
9,	-11380
OL	-11381
-7.	-11382
11.	-11383
569	-11384
744	-11385
kub	-11386
uad	-11387
âne	-11388
КАО	-11389
▁94	-11390
▁By	-11391
▁Хо	-11392
-263	-11393
-301	-11394
0068	-11395
8024	-11396
acos	-11397
arts	-11398
dsch	-11399
АЗАЛ	-11400
Дина	-11401
енди	-11402
йцар	-11403
лори	-11404
олес	-11405
▁360	-11406
▁488	-11407
▁746	-11408
▁Gel	-11409
▁Mul	-11410
▁frü	-11411
▁lok	-11412
▁Сти	-11413
▁сил	-11414
▁ули	-11415
56947	-11416
72943	-11417
ailan	-11418
atins	-11419
etown	-11420
orben	-11421
Битве	-11422
менно	-11423
умбер	-11424
ющего	-11425
▁0965	-11426
▁Bern	-11427
▁Book	-11428
▁Fuad	-11429
▁Head	-11430
▁Korn	-11431
▁Pick	-11432
▁Viet	-11433
▁Крас	-11434
▁помо	-11435
▁торт	-11436
670000	-11437
88-263	-11438
camore	-11439
Блэкпу	-11440
Динамо	-11441
▁Afara	-11442
▁Berry	-11443
▁Irish	-11444
▁Radbo	-11445
▁zuvor	-11446
▁Афара	-11447
▁Лаура	-11448
▁Сенди	-11449
▁весит	-11450
▁значи	-11451
0000003	-11452
atinsky	-11453
nerhalb	-11454
Ататюрк	-11455
канской	-11456
роженое	-11457
▁0567-7	-11458
▁111484	-11459
▁772943	-11460
▁Crafts	-11461
▁Hearst	-11462
▁Kirche	-11463
▁Partei	-11464
▁Sergey	-11465
▁valenc	-11466
▁weighs	-11467
▁играли	-11468
▁партию	-11469
▁роскош	-11470
▁этикет	-11471
неразмер	-11472
сокращен	-11473
▁1980-04	-11474
▁Chilton	-11475
▁Pickard	-11476
▁classed	-11477
▁stammen	-11478
▁subsidi	-11479
▁Халиско	-11480
▁ассоциа	-11481
▁имеющий	-11482
▁колбаса	-11483
▁регионе	-11484
▁соревну	-11485
56947-301	-11486
▁Examiner	-11487
▁Taqaddum	-11488
▁erstmals	-11489
▁Горбахов	-11490
▁Сингапур	-11491
▁картошка	-11492
▁Craftsman	-11493
▁buildings	-11494
▁southwest	-11495
▁найденный	-11496
▁сопостави	-11497
▁считается	-11498
▁Bolatinsky	-11499
▁Olympiacos	-11500
▁Republican	-11501
▁Джонатаном	-11502
Туркменистан	-11503
▁Amsterdamer	-11504
▁Variationen	-11505
▁aufgenommen	-11506
▁Управлением	-11507
▁официальным	-11508
6700000000003	-11509
▁Südafrikaner	-11510
▁национальную	-11511
▁Университетом	-11512
▁окончательный	-11513
▁расположенной	-11514
▁philippinische	-11515
br	-11516
ša	-11517
Бе	-11518
,94	-11519
7,1	-11520
937	-11521
ati	-11522
iah	-11523
lag	-11524
mar	-11525
obi	-11526
ora	-11527
row	-11528
zir	-11529
елл	-11530
наи	-11531
нец	-11532
рый	-11533
▁We	-11534
▁ll	-11535
▁Ай	-11536
▁Жи	-11537
1.83	-11538
8002	-11539
buch	-11540
onte	-11541
peal	-11542
ules	-11543
Боль	-11544
енты	-11545
пура	-11546
▁233	-11547
▁Von	-11548
▁Над	-11549
▁Юго	-11550
▁дос	-11551
▁род	-11552
▁сгу	-11553
-11",	-11554
dscha	-11555
ertrü	-11556
iniša	-11557
onnen	-11558
whose	-11559
Измир	-11560
делем	-11561
серва	-11562
▁Dick	-11563
▁Dona	-11564
▁Sago	-11565
▁Sell	-11566
▁Solo	-11567
▁verm	-11568
▁Азии	-11569
▁ИКАО	-11570
▁Кэме	-11571
▁Рама	-11572
1.8388	-11573
ceived	-11574
ologie	-11575
remium	-11576
Амманн	-11577
хность	-11578
▁2011.	-11579
▁Bezir	-11580
▁Ponte	-11581
▁Texan	-11582
▁aired	-11583
▁denen	-11584
▁local	-11585
▁Белых	-11586
▁Ирака	-11587
▁Пинха	-11588
▁дочер	-11589
▁земле	-11590
dichtet	-11591
ретарем	-11592
▁Appeal	-11593
▁Oliver	-11594
▁Siniša	-11595
▁Tomato	-11596
▁Verlag	-11597
▁bhajji	-11598
▁colour	-11599
▁peanut	-11600
▁Синиша	-11601
▁минуты	-11602
▁регион	-11603
▁умерла	-11604
▁фасоль	-11605
Luftwaff	-11606
lugzeuge	-11607
▁0001-83	-11608
▁63800,0	-11609
▁Kommand	-11610
▁Radboud	-11611
▁umfasst	-11612
▁Антиохи	-11613
▁Крупней	-11614
▁авиаком	-11615
▁беконом	-11616
▁летчика	-11617
▁передач	-11618
Фенцерков	-11619
демократи	-11620
хнический	-11621
▁87000823	-11622
▁Rosaceae	-11623
▁Sellerie	-11624
▁Sycamore	-11625
▁director	-11626
▁Апплетон	-11627
▁Менделем	-11628
▁Сараваке	-11629
▁военного	-11630
▁издатель	-11631
испытателя	-11632
ристианско	-11633
▁Italiener	-11634
▁Superliga	-11635
▁Falludscha	-11636
▁Mihajlović	-11637
▁kilometers	-11638
▁базируются	-11639
▁1-56947-301	-11640
▁Architektur	-11641
▁Tintenfisch	-11642
▁herausgegeben	-11643
▁академической	-11644
▁обслуживающий	-11645
▁valencianischen	-11646
,6	-11647
no	-11648
Ли	-11649
ип	-11650
тм	-11651
/21	-11652
613	-11653
80.	-11654
ARA	-11655
ije	-11656
imm	-11657
lyn	-11658
mut	-11659
лот	-11660
пет	-11661
▁CD	-11662
▁Nu	-11663
5100	-11664
deon	-11665
elen	-11666
noon	-11667
owda	-11668
quez	-11669
tron	-11670
utzt	-11671
Арро	-11672
Реал	-11673
амбо	-11674
арда	-11675
емая	-11676
лага	-11677
скес	-11678
урен	-11679
▁127	-11680
▁3,0	-11681
▁771	-11682
▁Bru	-11683
▁FAS	-11684
▁Gab	-11685
▁MBA	-11686
▁POL	-11687
▁med	-11688
▁АЕК	-11689
▁Пал	-11690
▁мэр	-11691
▁сло	-11692
areas	-11693
esame	-11694
iving	-11695
reten	-11696
stone	-11697
Велом	-11698
балом	-11699
салес	-11700
▁1909	-11701
▁1990	-11702
▁Huss	-11703
▁Roll	-11704
▁Ruth	-11705
▁Sadi	-11706
▁bund	-11707
▁roll	-11708
▁Билл	-11709
▁Брук	-11710
▁Дона	-11711
▁Кури	-11712
▁эфир	-11713
000.0,	-11714
ademie	-11715
erenzn	-11716
ierung	-11717
жности	-11718
▁15788	-11719
▁1930.	-11720
▁41613	-11721
▁Crewe	-11722
▁Gowda	-11723
▁Odeon	-11724
▁Rojas	-11725
▁Royal	-11726
▁Sweet	-11727
▁chute	-11728
▁indie	-11729
▁Рауль	-11730
▁мрамо	-11731
▁смени	-11732
eligion	-11733
Алессио	-11734
Альбина	-11735
которые	-11736
▁560937	-11737
▁Helmut	-11738
▁Leiter	-11739
▁People	-11740
▁Styria	-11741
▁Барков	-11742
▁Буурен	-11743
▁Васкес	-11744
▁Горбаш	-11745
▁Марком	-11746
▁Харбор	-11747
▁Япония	-11748
▁ракеты	-11749
▁черный	-11750
091.8388	-11751
dichtete	-11752
thelwald	-11753
Греймаши	-11754
Смертник	-11755
денепура	-11756
▁7715100	-11757
▁Hussain	-11758
▁Mamnoon	-11759
▁Paleobi	-11760
▁aktuell	-11761
▁bionico	-11762
▁овощами	-11763
▁опытным	-11764
▁сэндвич	-11765
▁Afrobeat	-11766
▁Airports	-11767
▁Brooklyn	-11768
▁Filipino	-11769
▁Garnelen	-11770
▁arbeitet	-11771
▁measures	-11772
▁military	-11773
▁Самбалом	-11774
▁Хапутале	-11775
▁арабский	-11776
▁средство	-11777
6000000,0.	-11778
orsitzende	-11779
▁Иллинойсе	-11780
▁найденное	-11781
▁сложности	-11782
▁твердости	-11783
erenznummer	-11784
▁Netherland	-11785
▁Ponteareas	-11786
▁bundesweit	-11787
▁offizielle	-11788
▁vermicelli	-11789
▁Кристианом	-11790
▁дисциплину	-11791
Фенцерковная	-11792
▁beeinflusst	-11793
▁американском	-11794
▁Среднеатланти	-11795
▁162164091.8388	-11796
▁254989570.60815	-11797
PS	-11798
UK	-11799
kg	-11800
wy	-11801
ér	-11802
-10	-11803
-55	-11804
017	-11805
2,8	-11806
269	-11807
irc	-11808
rix	-11809
wyn	-11810
тую	-11811
цеп	-11812
цио	-11813
ьей	-11814
▁49	-11815
▁84	-11816
▁Vi	-11817
▁Му	-11818
▁чи	-11819
6448	-11820
bell	-11821
head	-11822
igen	-11823
iste	-11824
rahm	-11825
ubic	-11826
ugin	-11827
urts	-11828
ämpf	-11829
érix	-11830
Абеб	-11831
баре	-11832
дели	-11833
линд	-11834
ющая	-11835
▁162	-11836
▁3.0	-11837
▁36.	-11838
▁Emp	-11839
▁Gér	-11840
▁HAL	-11841
▁Ihr	-11842
▁Key	-11843
▁Län	-11844
▁São	-11845
▁Ана	-11846
▁Спа	-11847
▁Тек	-11848
▁ана	-11849
▁оба	-11850
▁сме	-11851
-5571	-11852
58-28	-11853
80-63	-11854
elije	-11855
mmert	-11856
wheel	-11857
Бекон	-11858
довал	-11859
жевой	-11860
химов	-11861
▁1473	-11862
▁Code	-11863
▁Dean	-11864
▁Gonz	-11865
▁Iuso	-11866
▁Бако	-11867
▁Дема	-11868
▁Кири	-11869
▁верх	-11870
▁муки	-11871
▁тонн	-11872
269-93	-11873
800253	-11874
errahm	-11875
klasse	-11876
ранолы	-11877
станов	-11878
▁13017	-11879
▁1981.	-11880
▁1987.	-11881
▁Bache	-11882
▁Cyrus	-11883
▁Emile	-11884
▁Place	-11885
▁Pugin	-11886
▁Vance	-11887
▁genus	-11888
▁occup	-11889
▁short	-11890
▁Поакэ	-11891
▁Сатем	-11892
▁заказ	-11893
▁короб	-11894
▁парла	-11895
▁своем	-11896
gremium	-11897
pudding	-11898
▁456448	-11899
▁Disney	-11900
▁Gérard	-11901
▁Territ	-11902
▁centre	-11903
▁offset	-11904
▁shumai	-11905
▁Абилен	-11906
▁Патрик	-11907
▁Рамафо	-11908
▁Сендич	-11909
▁Сильви	-11910
▁Халима	-11911
▁статус	-11912
▁1080-63	-11913
▁1558-28	-11914
▁8800253	-11915
▁Develop	-11916
▁Greater	-11917
▁Physics	-11918
▁Studios	-11919
▁element	-11920
▁playing	-11921
▁station	-11922
▁Орегоне	-11923
▁Рахимов	-11924
▁Румыния	-11925
▁аналоги	-11926
▁карьера	-11927
▁найдена	-11928
▁столице	-11929
▁стороны	-11930
единенные	-11931
▁Augustus	-11932
▁Bachelor	-11933
▁Campbell	-11934
▁bakewell	-11935
▁historic	-11936
▁received	-11937
▁Парагвае	-11938
▁Сильвано	-11939
▁креветки	-11940
▁подается	-11941
▁сольного	-11942
ertrümmert	-11943
▁1473-5571	-11944
▁Deportiva	-11945
▁Kornelije	-11946
▁Nordosten	-11947
▁Sauerrahm	-11948
▁flämische	-11949
▁gestorben	-11950
▁итальянцы	-11951
▁flämischen	-11952
▁Международ	-11953
▁используют	-11954
▁Development	-11955
▁Indonesisch	-11956
▁Орбитальный	-11957
▁Conservative	-11958
▁malaysischen	-11959
▁колумбийской	-11960
▁региональный	-11961
▁национального	-11962
▁pakistanischen	-11963
▁Führungsgremium	-11964
На	-11965
кт	-11966
эт	-11967
-1.	-11968
2.8	-11969
80,	-11970
lal	-11971
loc	-11972
onk	-11973
uld	-11974
yss	-11975
нам	-11976
оло	-11977
чуп	-11978
▁75	-11979
▁BC	-11980
▁Ны	-11981
▁Ши	-11982
7888	-11983
ique	-11984
lage	-11985
limp	-11986
ogen	-11987
ross	-11988
wall	-11989
Пена	-11990
гуна	-11991
ерар	-11992
зель	-11993
кинг	-11994
ксон	-11995
фаль	-11996
чная	-11997
▁15,	-11998
▁445	-11999
▁Büt	-12000
▁Hüs	-12001
▁Ort	-12002
▁Pak	-12003
▁Sea	-12004
▁hot	-12005
▁Баа	-12006
▁Дэн	-12007
▁Рут	-12008
▁Эта	-12009
▁обо	-12010
5.324	-12011
führt	-12012
yster	-12013
вышен	-12014
дином	-12015
етчуп	-12016
онехо	-12017
▁4881	-12018
▁8370	-12019
▁Boer	-12020
▁Cohn	-12021
▁Fein	-12022
▁Gary	-12023
▁José	-12024
▁Mehl	-12025
▁Mish	-12026
▁Univ	-12027
▁Wyss	-12028
▁asam	-12029
▁prov	-12030
▁size	-12031
▁Мари	-12032
▁Плех	-12033
▁Стэн	-12034
▁Эрра	-12035
Region	-12036
marine	-12037
западе	-12038
мидоры	-12039
строва	-12040
▁1998.	-12041
▁87888	-12042
▁Cross	-12043
▁Elihu	-12044
▁Grund	-12045
▁Hambg	-12046
▁Homer	-12047
▁Maine	-12048
▁Masum	-12049
▁Olimp	-12050
▁Salem	-12051
▁bajji	-12052
▁citiz	-12053
▁Армин	-12054
▁Жерар	-12055
▁Котте	-12056
▁Рохас	-12057
▁Скотт	-12058
▁сража	-12059
▁ураль	-12060
angehör	-12061
isional	-12062
Олимпик	-12063
амбоанг	-12064
▁75.324	-12065
▁Roemer	-12066
▁Tomate	-12067
▁diesel	-12068
▁sponge	-12069
▁states	-12070
▁Конехо	-12071
▁Кумбер	-12072
▁Саммит	-12073
▁Тексты	-12074
▁Уилсон	-12075
▁дизель	-12076
▁мучени	-12077
▁служит	-12078
▁Bütüner	-12079
▁Classic	-12080
▁Geburts	-12081
▁Hüseyin	-12082
▁Mishkin	-12083
▁Philips	-12084
▁compete	-12085
▁Кэмерон	-12086
▁Стамбул	-12087
▁Olimpico	-12088
▁fullname	-12089
▁Астероид	-12090
▁Ауреолес	-12091
▁Гонсалес	-12092
▁конгресс	-12093
▁турецкая	-12094
▁Esteghlal	-12095
▁Feinstein	-12096
▁innerhalb	-12097
▁northwest	-12098
▁Nottingham	-12099
▁subsidiary	-12100
▁молодежном	-12101
▁молодежную	-12102
▁Provisional	-12103
▁Алькобендас	-12104
▁vollständige	-12105
▁музыкальными	-12106
▁международным	-12107
▁Referenznummer	-12108
▁Luftwaffenbasis	-12109
905	-12110
978	-12111
aac	-12112
con	-12113
tle	-12114
zil	-12115
АИД	-12116
Ван	-12117
зас	-12118
рез	-12119
тия	-12120
чем	-12121
чне	-12122
▁01	-12123
▁Gl	-12124
▁Ио	-12125
ians	-12126
icia	-12127
ircu	-12128
racy	-12129
spor	-12130
thur	-12131
äter	-12132
Болт	-12133
кови	-12134
лини	-12135
нией	-12136
орту	-12137
сихо	-12138
▁"19	-12139
▁265	-12140
▁Cov	-12141
▁Mac	-12142
▁Rap	-12143
▁VAM	-12144
▁Лан	-12145
▁ара	-12146
▁губ	-12147
▁нан	-12148
▁нее	-12149
2.339	-12150
ishes	-12151
milch	-12152
tures	-12153
Андра	-12154
Флори	-12155
леные	-12156
мести	-12157
стоне	-12158
хваты	-12159
▁Arts	-12160
▁Jahn	-12161
▁pick	-12162
▁spec	-12163
▁zwei	-12164
▁Рахм	-12165
▁Ритм	-12166
▁базы	-12167
▁игры	-12168
▁мысе	-12169
▁трен	-12170
esamöl	-12171
музыке	-12172
▁Baron	-12173
▁Isaac	-12174
▁after	-12175
▁hired	-12176
▁Нынеш	-12177
▁лимон	-12178
▁озеро	-12179
▁реест	-12180
2.33968	-12181
который	-12182
▁Accord	-12183
▁Allian	-12184
▁Arthur	-12185
▁Colwyn	-12186
▁Russia	-12187
▁coming	-12188
▁living	-12189
▁partly	-12190
▁короле	-12191
▁охваты	-12192
йцарский	-12193
▁Francis	-12194
▁Sesamöl	-12195
▁Zentral	-12196
▁Государ	-12197
▁Мадином	-12198
▁Роберта	-12199
▁аргенти	-12200
▁поджанр	-12201
▁спортив	-12202
▁Akademie	-12203
▁Асунсьон	-12204
▁Консерва	-12205
▁Парагвай	-12206
▁канцлера	-12207
▁arbeitete	-12208
▁condensed	-12209
▁Аргентина	-12210
▁демократи	-12211
▁известная	-12212
▁0002-9327.	-12213
▁Kokosmilch	-12214
▁variations	-12215
▁Кумберленд	-12216
▁чемпионами	-12217
▁государства	-12218
▁музыкальную	-12219
▁сопоставима	-12220
▁законодатель	-12221
▁максимальная	-12222
▁Amsterdamsche	-12223
▁headquartered	-12224
SV	-12225
oa	-12226
Бо	-12227
юй	-12228
-6.	-12229
332	-12230
pot	-12231
аце	-12232
ида	-12233
пио	-12234
стр	-12235
-15.	-12236
46-8	-12237
ecor	-12238
edan	-12239
oust	-12240
rade	-12241
riff	-12242
лема	-12243
нием	-12244
ссой	-12245
чной	-12246
▁1,8	-12247
▁167	-12248
▁368	-12249
▁Cel	-12250
▁Pir	-12251
▁bev	-12252
▁Пог	-12253
▁ним	-12254
Abadi	-12255
adion	-12256
cules	-12257
essin	-12258
etten	-12259
менте	-12260
тации	-12261
элект	-12262
▁"978	-12263
▁1732	-12264
▁32.2	-12265
▁Tart	-12266
▁Zwei	-12267
▁cold	-12268
▁coup	-12269
▁gram	-12270
▁then	-12271
▁Член	-12272
flogen	-12273
kuchen	-12274
oustic	-12275
Мастер	-12276
Медаль	-12277
урнала	-12278
▁1918"	-12279
▁47290	-12280
▁Circu	-12281
▁Diese	-12282
▁Güner	-12283
▁Kirby	-12284
▁Krieg	-12285
▁Lazio	-12286
▁Price	-12287
▁Queen	-12288
▁Reith	-12289
▁Rolls	-12290
▁beinh	-12291
▁makes	-12292
▁İzmir	-12293
▁Вариа	-12294
▁Понте	-12295
▁Роман	-12296
▁много	-12297
▁чтобы	-12298
ecorino	-12299
Пенарол	-12300
▁1046-8	-12301
▁Chiefs	-12302
▁Haider	-12303
▁Malatu	-12304
▁Motion	-12305
▁Tessin	-12306
▁latein	-12307
▁Баджжи	-12308
▁Джалан	-12309
▁Росток	-12310
▁Эррате	-12311
▁заказу	-12312
▁исполь	-12313
▁массой	-12314
▁полити	-12315
▁получа	-12316
▁похожа	-12317
▁религи	-12318
▁снялся	-12319
▁цилинд	-12320
ashville	-12321
венником	-12322
▁Arabian	-12323
▁Tapioca	-12324
▁asphalt	-12325
▁llocano	-12326
▁Джейкоб	-12327
▁Корнель	-12328
▁Мендель	-12329
▁Мендоса	-12330
▁объемом	-12331
▁регистр	-12332
▁студент	-12333
Себастьян	-12334
▁140000,0	-12335
▁1732-242	-12336
▁Francois	-12337
▁Hercules	-12338
▁electric	-12339
▁диаметре	-12340
▁домашней	-12341
▁колесная	-12342
▁началась	-12343
▁этикетке	-12344
Ванденберг	-12345
▁89646863.	-12346
▁Auszeichn	-12347
▁Christmas	-12348
▁Democracy	-12349
▁Rumäniens	-12350
▁countries	-12351
▁Конгресса	-12352
▁городской	-12353
▁построила	-12354
▁Infanterie	-12355
▁angeflogen	-12356
▁beinhaltet	-12357
▁Гвианского	-12358
▁государств	-12359
▁охватывает	-12360
Associazione	-12361
▁441092000.0	-12362
▁479343000.0	-12363
▁трансмиссия	-12364
▁космического	-12365
▁филиппинский	-12366
amerikanischer	-12367
▁0-439-17685-9.	-12368
▁спроектировала	-12369
▁Республиканской	-12370
'.	-12371
rl	-12372
Ах	-12373
МА	-12374
Add	-12375
HER	-12376
ilo	-12377
nai	-12378
ole	-12379
the	-12380
Бан	-12381
кто	-12382
пел	-12383
▁Do	-12384
▁зе	-12385
chst	-12386
egro	-12387
erst	-12388
iena	-12389
ацея	-12390
крип	-12391
лусе	-12392
▁307	-12393
▁597	-12394
▁Paz	-12395
▁Srl	-12396
▁Zah	-12397
▁con	-12398
▁him	-12399
▁pep	-12400
▁Бал	-12401
▁Ило	-12402
▁Фар	-12403
▁зву	-12404
Bacon	-12405
Dodge	-12406
Texas	-12407
alows	-12408
loilo	-12409
onkur	-12410
rewer	-12411
скому	-12412
▁1873	-12413
▁Gale	-12414
▁Olus	-12415
▁Quay	-12416
▁Vant	-12417
▁kalt	-12418
▁past	-12419
▁Обас	-12420
▁горя	-12421
▁грун	-12422
▁игро	-12423
-09-01	-12424
asanjo	-12425
illing	-12426
risten	-12427
ürtige	-12428
западу	-12429
ментом	-12430
▁1.524	-12431
▁3360.	-12432
▁ASHER	-12433
▁Siena	-12434
▁ersch	-12435
▁forms	-12436
▁games	-12437
▁weiße	-12438
▁Олусе	-12439
▁Опера	-12440
▁Федер	-12441
▁конку	-12442
▁немцы	-12443
▁холод	-12444
Mission	-12445
водится	-12446
▁Brewer	-12447
▁Dianne	-12448
▁Dillin	-12449
▁Pirate	-12450
▁having	-12451
▁Валюта	-12452
▁Дербыш	-12453
▁Понтез	-12454
▁Табаре	-12455
▁асфаль	-12456
▁грамма	-12457
▁других	-12458
▁совета	-12459
Dänemark	-12460
astadion	-12461
icharron	-12462
ungalows	-12463
ждествен	-12464
квартиру	-12465
хождение	-12466
циальный	-12467
▁Galicia	-12468
▁Indiens	-12469
▁Opelika	-12470
▁Phillip	-12471
▁Vantage	-12472
▁Армином	-12473
▁авокадо	-12474
▁журнала	-12475
▁ротации	-12476
▁столицы	-12477
▁установ	-12478
Nurturing	-12479
Анджелесе	-12480
▁Gazetten	-12481
▁Obasanjo	-12482
▁Olusegun	-12483
▁Каролины	-12484
▁Музыкант	-12485
▁влиянием	-12486
▁лидерами	-12487
▁aktuellen	-12488
▁gebratene	-12489
▁kolumbian	-12490
▁Аргентине	-12491
▁Обасанджо	-12492
▁Филиппины	-12493
▁студентом	-12494
варденепура	-12495
министратив	-12496
▁1969-09-01	-12497
▁englischen	-12498
▁sandwiches	-12499
▁изначально	-12500
▁родившаяся	-12501
▁440756000,0	-12502
▁440756000.0	-12503
▁441092000,0	-12504
▁479343000,0	-12505
▁Indonesiens	-12506
▁Европейский	-12507
▁авиакомпани	-12508
▁температура	-12509
▁транспортом	-12510
▁ursprünglich	-12511
▁Коннектикута	-12512
▁Национальном	-12513
▁музыкального	-12514
▁среднеразмер	-12515
▁академическую	-12516
▁Olympiastadion	-12517
/0	-12518
EC	-12519
ps	-12520
zo	-12521
АР	-12522
зз	-12523
▁Æ	-12524
/32	-12525
15.	-12526
895	-12527
anz	-12528
ata	-12529
нал	-12530
ого	-12531
рот	-12532
▁("	-12533
▁8,	-12534
▁HA	-12535
▁SN	-12536
▁up	-12537
0112	-12538
anta	-12539
awaz	-12540
ilow	-12541
isku	-12542
mine	-12543
uzzi	-12544
wood	-12545
ензи	-12546
лись	-12547
нкан	-12548
оран	-12549
рито	-12550
сейн	-12551
▁Abu	-12552
▁egg	-12553
▁nun	-12554
▁ЮАР	-12555
▁дюй	-12556
▁рас	-12557
▁сан	-12558
▁той	-12559
achts	-12560
itake	-12561
itoba	-12562
ravis	-12563
анито	-12564
дерей	-12565
зднее	-12566
льным	-12567
▁1249	-12568
▁AIRA	-12569
▁Atal	-12570
▁Auft	-12571
▁Dino	-12572
▁Jill	-12573
▁army	-12574
▁drum	-12575
▁east	-12576
▁fish	-12577
▁lira	-12578
▁nach	-12579
▁prod	-12580
▁День	-12581
▁Йенс	-12582
▁Кейп	-12583
achini	-12584
iskuit	-12585
Старый	-12586
▁1989,	-12587
▁28332	-12588
▁Druck	-12589
▁Genoa	-12590
▁Marry	-12591
▁Nawaz	-12592
▁Perón	-12593
▁Round	-12594
▁Ujang	-12595
▁Weihn	-12596
▁Zahar	-12597
▁einst	-12598
▁neigh	-12599
▁sowie	-12600
▁steht	-12601
▁Адама	-12602
▁Арави	-12603
▁Баэйд	-12604
▁Дугла	-12605
▁Мадин	-12606
▁Милан	-12607
▁Монро	-12608
▁мэром	-12609
▁самми	-12610
assador	-12611
eration	-12612
setzung	-12613
▁445895	-12614
▁Chines	-12615
▁Garage	-12616
▁Kolumb	-12617
▁Shorta	-12618
▁inches	-12619
▁rupiah	-12620
▁Бхаджи	-12621
▁Дункан	-12622
▁Манито	-12623
▁Поацея	-12624
▁Самара	-12625
▁австри	-12626
▁гитаре	-12627
▁палате	-12628
▁смерти	-12629
82.33968	-12630
▁Banilow	-12631
▁Carmine	-12632
▁Circuit	-12633
▁Ländern	-12634
▁Manuzzi	-12635
▁geheime	-12636
▁Мексики	-12637
▁Сольный	-12638
▁жареное	-12639
▁политик	-12640
▁Atalanta	-12641
▁Manitoba	-12642
▁Movement	-12643
▁Property	-12644
▁Quarting	-12645
▁Shilling	-12646
▁Vorwarts	-12647
▁christen	-12648
▁finished	-12649
▁аргентин	-12650
▁частично	-12651
ungsdichte	-12652
▁124950000	-12653
▁Bungalows	-12654
▁Kolumbien	-12655
▁Sanderson	-12656
▁Æthelwald	-12657
▁проживают	-12658
angehöriger	-12659
ступенчатую	-12660
▁AIRAstella	-12661
▁Ambassador	-12662
▁Weihnachts	-12663
▁Вирджинией	-12664
▁Мендельсон	-12665
▁космодрома	-12666
▁математика	-12667
iskuitkuchen	-12668
▁2015-06-27.	-12669
▁Fortsetzung	-12670
▁445895000000	-12671
▁Лейбористской	-12672
▁принадлежащая	-12673
▁производитель	-12674
▁0-7156-3648-0.	-12675
▁523951582.33968	-12676
54	-12677
Па	-12678
▁ä	-12679
▁л	-12680
250	-12681
3-0	-12682
7.1	-12683
765	-12684
emp	-12685
kov	-12686
ñol	-12687
еха	-12688
кор	-12689
кре	-12690
мию	-12691
ске	-12692
▁04	-12693
▁Ев	-12694
0155	-12695
2445	-12696
abbr	-12697
elod	-12698
enre	-12699
este	-12700
etre	-12701
olgt	-12702
rome	-12703
äten	-12704
белл	-12705
вица	-12706
вует	-12707
дала	-12708
здан	-12709
кеем	-12710
пере	-12711
ьето	-12712
▁16,	-12713
▁194	-12714
▁23,	-12715
▁Cat	-12716
▁Hui	-12717
▁Max	-12718
▁ans	-12719
▁ben	-12720
▁big	-12721
▁gle	-12722
▁Ген	-12723
▁Гус	-12724
▁Мол	-12725
▁Чен	-12726
2.846	-12727
3,722	-12728
3.722	-12729
60-04	-12730
Akeem	-12731
Arian	-12732
berts	-12733
ekton	-12734
inced	-12735
istry	-12736
бурга	-12737
лисии	-12738
товым	-12739
▁737.	-12740
▁Amts	-12741
▁Chen	-12742
▁Hack	-12743
▁Käse	-12744
▁Prin	-12745
▁Runc	-12746
▁Wart	-12747
▁owns	-12748
▁Абра	-12749
▁Ахме	-12750
▁Якуб	-12751
▁типа	-12752
3-0633	-12753
demont	-12754
illari	-12755
sische	-12756
вочный	-12757
▁0-765	-12758
▁27250	-12759
▁Javen	-12760
▁Piste	-12761
▁Tamil	-12762
▁Velod	-12763
▁names	-12764
▁schuf	-12765
▁Билли	-12766
▁Ньето	-12767
▁Ранее	-12768
▁годов	-12769
▁землю	-12770
▁индий	-12771
▁площа	-12772
▁таких	-12773
located	-12774
wischen	-12775
матриче	-12776
эмпбелл	-12777
▁167,94	-12778
▁Bruins	-12779
▁Iloilo	-12780
▁common	-12781
▁gebaut	-12782
▁minced	-12783
▁Гарвар	-12784
▁Жители	-12785
▁Канзас	-12786
▁здание	-12787
▁фильме	-12788
Вашингто	-12789
▁3202445	-12790
▁Castrov	-12791
▁Catania	-12792
▁Defense	-12793
▁Iachini	-12794
▁Runcorn	-12795
▁Seattle	-12796
▁gefolgt	-12797
▁Анахайм	-12798
▁Галисии	-12799
▁Робертс	-12800
▁саммита	-12801
Addiction	-12802
▁1513,722	-12803
▁1588-263	-12804
▁Castilla	-12805
▁Huiberts	-12806
▁Kapstadt	-12807
▁Keystone	-12808
▁Pictures	-12809
▁toekomst	-12810
▁основным	-12811
▁подавать	-12812
▁полнопри	-12813
Agrimiação	-12814
▁Schlüssel	-12815
▁Velodrome	-12816
▁Wissensch	-12817
▁angeführt	-12818
▁categoriz	-12819
▁paperback	-12820
▁временным	-12821
▁выводится	-12822
▁человеком	-12823
▁Puigdemont	-12824
▁Бундеслиге	-12825
▁арендаторы	-12826
▁командиров	-12827
▁0-374-26131	-12828
▁0-7653-0633	-12829
▁Hackfleisch	-12830
▁architekton	-12831
▁нигерийских	-12832
▁279142000000	-12833
▁Bodenfleisch	-12834
▁транспортный	-12835
▁Biskuitkuchen	-12836
▁Bürgermeister	-12837
▁Castrovillari	-12838
▁0-439-17684-0.	-12839
▁Wissenschaften	-12840
▁классифицирован	-12841
-5	-12842
ET	-12843
nc	-12844
of	-12845
Аб	-12846
Ор	-12847
.".	-12848
Its	-12849
Mon	-12850
die	-12851
int	-12852
ipo	-12853
ius	-12854
Аен	-12855
Сан	-12856
ахи	-12857
вии	-12858
лец	-12859
риж	-12860
шла	-12861
▁CE	-12862
▁Gm	-12863
▁MD	-12864
▁Ow	-12865
▁ac	-12866
▁cm	-12867
▁Ок	-12868
▁аг	-12869
7701	-12870
ISET	-12871
agon	-12872
apta	-12873
edah	-12874
eine	-12875
ency	-12876
erte	-12877
ould	-12878
phen	-12879
Альф	-12880
Анти	-12881
Сити	-12882
виси	-12883
жным	-12884
квел	-12885
ниса	-12886
хель	-12887
чард	-12888
▁03.	-12889
▁4,8	-12890
▁945	-12891
▁Are	-12892
▁Dez	-12893
▁Erd	-12894
▁Pot	-12895
▁Vfl	-12896
▁not	-12897
▁Иса	-12898
▁Кос	-12899
▁теп	-12900
afsch	-12901
angip	-12902
egodi	-12903
eries	-12904
innah	-12905
ncrom	-12906
Аррос	-12907
берто	-12908
емого	-12909
кусти	-12910
ссекс	-12911
ссимо	-12912
ффало	-12913
ьетро	-12914
▁2989	-12915
▁3,04	-12916
▁Aviv	-12917
▁Dept	-12918
▁Garr	-12919
▁Süßk	-12920
▁Viol	-12921
▁Бани	-12922
▁Гран	-12923
▁Грац	-12924
▁Руле	-12925
▁коды	-12926
attung	-12927
inegro	-12928
region	-12929
висимо	-12930
телями	-12931
щенное	-12932
ьетнам	-12933
▁1927.	-12934
▁1931.	-12935
▁37701	-12936
▁Group	-12937
▁Kedah	-12938
▁Автор	-12939
▁Аллан	-12940
▁Вопер	-12941
▁Джвай	-12942
▁Елена	-12943
▁агент	-12944
▁ветке	-12945
▁говяж	-12946
▁завое	-12947
▁рабоч	-12948
afschap	-12949
akewell	-12950
mandeln	-12951
onkurri	-12952
Большой	-12953
делению	-12954
▁Agency	-12955
▁Cookie	-12956
▁Dieser	-12957
▁Jinnah	-12958
▁Lankas	-12959
▁Travis	-12960
▁Warton	-12961
▁deputy	-12962
▁dieses	-12963
▁itself	-12964
▁public	-12965
▁später	-12966
▁Греция	-12967
▁Джакар	-12968
▁Пьетро	-12969
▁Ричард	-12970
▁Энрике	-12971
▁Эссекс	-12972
▁австра	-12973
▁назван	-12974
▁реестр	-12975
▁страну	-12976
esteapta	-12977
poration	-12978
▁1360-04	-12979
▁Chennai	-12980
▁Garrett	-12981
▁Peñarol	-12982
▁Stephen	-12983
▁verfügt	-12984
▁Абрадаб	-12985
▁Банилоу	-12986
▁Грозном	-12987
▁Ингреди	-12988
▁Массимо	-12989
▁большой	-12990
▁перипет	-12991
artoffeln	-12992
Анджелеса	-12993
▁1513.722	-12994
▁Dezember	-12995
▁Stockwer	-12996
▁konkurri	-12997
▁potatoes	-12998
▁spielten	-12999
▁изготови	-13000
▁ключевым	-13001
▁колледже	-13002
▁предоста	-13003
▁2005-11-2	-13004
▁Bentegodi	-13005
▁Infantino	-13006
▁Nashville	-13007
▁following	-13008
▁musicians	-13009
▁submarine	-13010
▁Амстердам	-13011
▁Капитолии	-13012
▁Корейской	-13013
▁измерение	-13014
▁китайский	-13015
▁Graafschap	-13016
▁commanders	-13017
▁Архитектор	-13018
▁Техасского	-13019
▁ассоциацию	-13020
▁373513000,0	-13021
▁373513000.0	-13022
▁государство	-13023
▁комического	-13024
▁соревнуется	-13025
▁Kampfpilotin	-13026
▁Williamsburg	-13027
▁департамента	-13028
▁председатель	-13029
▁pakistanische	-13030
▁университетов	-13031
)'	-13032
dr	-13033
sk	-13034
ád	-13035
ün	-13036
,43	-13037
-05	-13038
01.	-13039
196	-13040
213	-13041
bat	-13042
bol	-13043
eph	-13044
etr	-13045
pod	-13046
ütz	-13047
ами	-13048
исе	-13049
нав	-13050
▁3,	-13051
▁Ме	-13052
▁Ум	-13053
▁Фа	-13054
-11"	-13055
3.0.	-13056
ench	-13057
erto	-13058
inds	-13059
oria	-13060
ádio	-13061
Юлия	-13062
гаме	-13063
дион	-13064
емля	-13065
ному	-13066
▁1,2	-13067
▁25,	-13068
▁3,8	-13069
▁7.5	-13070
▁Abh	-13071
▁Auf	-13072
▁Bor	-13073
▁eth	-13074
▁Арп	-13075
▁Ред	-13076
▁Тим	-13077
▁дей	-13078
▁кам	-13079
-14".	-13080
2,846	-13081
Mater	-13082
Sauce	-13083
ehmen	-13084
hames	-13085
uelle	-13086
агона	-13087
алтон	-13088
ахини	-13089
дание	-13090
донне	-13091
▁3.04	-13092
▁Arrt	-13093
▁Odin	-13094
▁dark	-13095
▁some	-13096
▁spez	-13097
▁Перм	-13098
▁Тама	-13099
▁Хайн	-13100
▁лира	-13101
▁мясо	-13102
▁окку	-13103
▁степ	-13104
Ariane	-13105
alopod	-13106
ariant	-13107
iitake	-13108
namese	-13109
square	-13110
разиль	-13111
▁"1928	-13112
▁523,9	-13113
▁Arabs	-13114
▁Batum	-13115
▁Dunne	-13116
▁Faver	-13117
▁Horch	-13118
▁Inter	-13119
▁Laird	-13120
▁carri	-13121
▁cubic	-13122
▁hatte	-13123
▁latin	-13124
▁sport	-13125
▁Бенго	-13126
▁Вален	-13127
▁Гвиан	-13128
▁Драго	-13129
▁Марри	-13130
▁Салем	-13131
▁Самый	-13132
▁Тосун	-13133
▁Филип	-13134
▁бывши	-13135
▁печат	-13136
sbridge	-13137
Альбани	-13138
стронав	-13139
▁16.000	-13140
▁Araber	-13141
▁Moench	-13142
▁Muffin	-13143
▁Peoria	-13144
▁Picchi	-13145
▁Thames	-13146
▁edited	-13147
▁series	-13148
▁tonnes	-13149
▁trance	-13150
▁Ахмета	-13151
▁Иахини	-13152
▁Парана	-13153
▁Польши	-13154
▁Сабина	-13155
▁Ченнаи	-13156
▁белого	-13157
▁гварде	-13158
▁дюймов	-13159
▁жанров	-13160
▁овощей	-13161
▁получи	-13162
АИДАлуна	-13163
Кливленд	-13164
▁Estádio	-13165
▁Fiction	-13166
▁Odinson	-13167
▁builder	-13168
▁debuted	-13169
▁Вальтер	-13170
▁Главная	-13171
▁Стадион	-13172
▁Умберто	-13173
▁бразиль	-13174
▁декабре	-13175
▁замести	-13176
▁систему	-13177
adcasting	-13178
ephalopod	-13179
правочный	-13180
▁80002709	-13181
▁Coritiba	-13182
▁Gebraten	-13183
▁Italiens	-13184
▁Religion	-13185
▁Richland	-13186
▁Schüssel	-13187
▁specific	-13188
▁Макдонне	-13189
▁канадцем	-13190
▁собствен	-13191
сокращенно	-13192
▁60040714.	-13193
▁Astronaut	-13194
▁Deutschen	-13195
▁explosion	-13196
▁Каталонии	-13197
▁Уильямсон	-13198
▁австралий	-13199
▁завершено	-13200
▁институте	-13201
▁сделанная	-13202
▁состоялся	-13203
▁Chinesisch	-13204
▁production	-13205
▁Манхэттене	-13206
▁Республике	-13207
▁владельцем	-13208
▁докторской	-13209
▁последовал	-13210
▁categorized	-13211
▁verdichtete	-13212
▁Broadcasting	-13213
▁historischen	-13214
▁американских	-13215
▁гражданского	-13216
▁Süßkartoffeln	-13217
▁1-56947-301-3.	-13218
▁афроамериканка	-13219
PT	-13220
pp	-13221
йя	-13222
558	-13223
com	-13224
pad	-13225
sea	-13226
sky	-13227
Кол	-13228
Куб	-13229
дия	-13230
жем	-13231
про	-13232
пут	-13233
тие	-13234
тул	-13235
цер	-13236
эйн	-13237
▁Сы	-13238
▁см	-13239
000.	-13240
7531	-13241
Char	-13242
Math	-13243
anku	-13244
enst	-13245
inny	-13246
kpot	-13247
olin	-13248
prim	-13249
punk	-13250
Арем	-13251
арем	-13252
вора	-13253
вота	-13254
груп	-13255
мезз	-13256
онах	-13257
фель	-13258
щими	-13259
▁17,	-13260
▁24.	-13261
▁3,9	-13262
▁Aet	-13263
▁Din	-13264
▁Imm	-13265
▁Len	-13266
▁McK	-13267
▁Pap	-13268
▁Бут	-13269
▁Гва	-13270
▁Деп	-13271
▁Еще	-13272
▁Оли	-13273
▁анг	-13274
▁тер	-13275
▁фин	-13276
Stand	-13277
adipo	-13278
arrón	-13279
ectra	-13280
elkab	-13281
mando	-13282
ociac	-13283
onnel	-13284
onson	-13285
opped	-13286
вание	-13287
зация	-13288
моном	-13289
риант	-13290
ричне	-13291
уанку	-13292
форма	-13293
▁3310	-13294
▁Auto	-13295
▁CEPT	-13296
▁Chel	-13297
▁Gosc	-13298
▁Liby	-13299
▁Tran	-13300
▁Warn	-13301
▁Wein	-13302
▁cars	-13303
▁Ганг	-13304
▁Гера	-13305
▁Шест	-13306
▁арти	-13307
▁купе	-13308
▁общи	-13309
▁отде	-13310
887531	-13311
former	-13312
market	-13313
ursema	-13314
uziert	-13315
▁1974.	-13316
▁Anand	-13317
▁Kolin	-13318
▁Patel	-13319
▁Spell	-13320
▁Weiße	-13321
▁autom	-13322
▁baked	-13323
▁degre	-13324
▁wagon	-13325
▁Владе	-13326
▁Демак	-13327
▁Локке	-13328
▁Редди	-13329
▁Рулеу	-13330
▁корот	-13331
▁людей	-13332
▁нанят	-13333
▁флота	-13334
▁языка	-13335
enstütz	-13336
pressed	-13337
Диагона	-13338
гигиена	-13339
гигиены	-13340
▁16,000	-13341
▁Batumi	-13342
▁Denzil	-13343
▁Inkpot	-13344
▁Newark	-13345
▁Tuanku	-13346
▁Vectra	-13347
▁Violet	-13348
▁romane	-13349
▁voraus	-13350
▁Барные	-13351
▁Луанда	-13352
▁Оливер	-13353
▁Роймер	-13354
▁Туанку	-13355
▁банано	-13356
▁живота	-13357
▁измель	-13358
▁премию	-13359
▁следую	-13360
Standort	-13361
angipane	-13362
icharrón	-13363
westlich	-13364
Альфредо	-13365
Кэмпбелл	-13366
ландский	-13367
морского	-13368
▁0269-93	-13369
▁Armando	-13370
▁Chelsea	-13371
▁Immobil	-13372
▁Oladipo	-13373
▁Rinderb	-13374
▁Teilung	-13375
▁Атланта	-13376
▁Гвадала	-13377
▁Корнели	-13378
▁Митсота	-13379
▁автором	-13380
▁гранолы	-13381
▁дискоте	-13382
▁предыду	-13383
▁програм	-13384
▁религия	-13385
▁тенниса	-13386
Wisconsin	-13387
▁1202.846	-13388
▁Counties	-13389
▁Duursema	-13390
▁Faverham	-13391
▁Goscinny	-13392
▁Philippe	-13393
▁Simonson	-13394
▁belonged	-13395
▁postcode	-13396
▁regional	-13397
▁Кембридж	-13398
▁Мартинес	-13399
▁Федераль	-13400
▁Эртегуна	-13401
▁авиабазу	-13402
▁астронав	-13403
▁использо	-13404
▁красного	-13405
Геттисбург	-13406
▁Anandiben	-13407
▁Australia	-13408
▁Newmarket	-13409
▁personnel	-13410
▁Последний	-13411
▁картофель	-13412
▁население	-13413
enstützpunk	-13414
▁Aethelwald	-13415
▁Erdmandeln	-13416
▁Vietnamese	-13417
▁Александры	-13418
▁Corporation	-13419
▁Fußballclub	-13420
▁Grundfläche	-13421
▁Legislature	-13422
▁Мичиганском	-13423
Административ	-13424
▁indonesische	-13425
▁Университете	-13426
▁авиакомпании	-13427
▁traditionelle	-13428
▁эксплуатирова	-13429
▁Великобритания	-13430
▁спроектирована	-13431
ea	-13432
Де	-13433
-1,	-13434
.0,	-13435
999	-13436
AAJ	-13437
Ger	-13438
USA	-13439
ded	-13440
olk	-13441
ßen	-13442
äss	-13443
жий	-13444
йме	-13445
оре	-13446
риф	-13447
усо	-13448
хан	-13449
▁CA	-13450
▁NJ	-13451
▁Ке	-13452
▁жа	-13453
HAAJ	-13454
Hung	-13455
ided	-13456
irus	-13457
post	-13458
quid	-13459
ular	-13460
Кори	-13461
верс	-13462
мира	-13463
мках	-13464
туми	-13465
▁3.9	-13466
▁Dar	-13467
▁Fir	-13468
▁Kup	-13469
▁Vig	-13470
▁emp	-13471
▁opp	-13472
▁she	-13473
▁Хяр	-13474
▁Яве	-13475
▁выи	-13476
▁оке	-13477
▁тем	-13478
▁тру	-13479
▁чьи	-13480
2.213	-13481
akrah	-13482
arbox	-13483
edded	-13484
enzie	-13485
falls	-13486
hymne	-13487
imber	-13488
leitz	-13489
panol	-13490
Арена	-13491
ейном	-13492
ландо	-13493
питал	-13494
▁164"	-13495
▁1908	-13496
▁2702	-13497
▁Diya	-13498
▁Hull	-13499
▁Kiss	-13500
▁doll	-13501
▁gula	-13502
▁open	-13503
▁vari	-13504
▁Ахма	-13505
▁Буре	-13506
▁Иусо	-13507
▁Рима	-13508
▁Фрей	-13509
▁яйцо	-13510
alillo	-13511
useppe	-13512
ämpfer	-13513
Кубань	-13514
вающий	-13515
водная	-13516
▁1928.	-13517
▁1933.	-13518
▁1956.	-13519
▁1958.	-13520
▁347,1	-13521
▁50000	-13522
▁Annie	-13523
▁Clubs	-13524
▁coupe	-13525
▁darin	-13526
▁Алана	-13527
▁Китае	-13528
▁Нотти	-13529
▁Темзе	-13530
▁долла	-13531
▁исход	-13532
▁продо	-13533
▁психо	-13534
▁школа	-13535
perberg	-13536
Барабан	-13537
андиром	-13538
вшегося	-13539
▁107,43	-13540
▁2777,0	-13541
▁AMHAAJ	-13542
▁Baltic	-13543
▁Futbol	-13544
▁Kokosn	-13545
▁Mandel	-13546
▁Puerto	-13547
▁ansäss	-13548
▁neighb	-13549
▁tender	-13550
▁voller	-13551
▁Батуми	-13552
▁Паллес	-13553
▁народа	-13554
▁рамках	-13555
▁сиквел	-13556
ниверсал	-13557
▁Another	-13558
▁Auftrag	-13559
▁Cookies	-13560
▁Geering	-13561
▁Sandage	-13562
▁Verband	-13563
▁battled	-13564
▁gearbox	-13565
▁ketchup	-13566
▁serving	-13567
▁Апофеоз	-13568
▁Система	-13569
▁Хяртель	-13570
▁верхнюю	-13571
▁граждан	-13572
▁жареная	-13573
▁корабль	-13574
▁коричне	-13575
▁повышен	-13576
▁странах	-13577
Charakter	-13578
▁83646315	-13579
▁Giuseppe	-13580
▁McKenzie	-13581
▁aktuelle	-13582
▁Виргинии	-13583
▁Гонконга	-13584
▁Ноттинге	-13585
▁Рамафоса	-13586
▁летчиком	-13587
▁57392246.	-13588
▁Höhenlage	-13589
▁Territory	-13590
▁condiment	-13591
▁executive	-13592
▁political	-13593
▁Гуджарате	-13594
▁Основными	-13595
▁построены	-13596
▁1080-6377.	-13597
▁1907-07-11	-13598
▁Bernalillo	-13599
▁Gebratenes	-13600
▁Kommandant	-13601
▁Kupperberg	-13602
▁produziert	-13603
▁Командиром	-13604
▁Крупнейший	-13605
▁Митсотакис	-13606
▁директором	-13607
▁префектура	-13608
▁произведен	-13609
▁разделению	-13610
enstützpunkt	-13611
▁437170000,0	-13612
▁437170000.0	-13613
▁475426000,0	-13614
▁475426000.0	-13615
▁Макдоннелем	-13616
▁автомобилем	-13617
▁архитектора	-13618
▁электрогита	-13619
▁Efxeinoupoli	-13620
▁Griechenlands	-13621
▁руководителем	-13622
▁0-7653-0633-6.	-13623
▁Fredericksburg	-13624
▁местоположение	-13625
OK	-13626
äm	-13627
62.	-13628
919	-13629
ela	-13630
nen	-13631
oma	-13632
rus	-13633
Афи	-13634
аве	-13635
зай	-13636
кие	-13637
под	-13638
руз	-13639
ряд	-13640
суа	-13641
▁5"	-13642
▁HE	-13643
▁Pf	-13644
42,3	-13645
Mary	-13646
ario	-13647
iral	-13648
грии	-13649
жной	-13650
умай	-13651
чино	-13652
▁140	-13653
▁2.0	-13654
▁HOK	-13655
▁Nor	-13656
▁Sin	-13657
▁ska	-13658
▁Бол	-13659
▁Как	-13660
▁Нэш	-13661
▁Офи	-13662
▁апо	-13663
▁два	-13664
▁пес	-13665
▁шве	-13666
-12-3	-13667
-2140	-13668
Agrem	-13669
achos	-13670
aille	-13671
ajaya	-13672
alist	-13673
askat	-13674
asket	-13675
bergt	-13676
icher	-13677
Аенир	-13678
дабад	-13679
митра	-13680
тарио	-13681
▁1914	-13682
▁1953	-13683
▁1964	-13684
▁21.2	-13685
▁32,2	-13686
▁Ayaz	-13687
▁Both	-13688
▁Chef	-13689
▁Disc	-13690
▁Finn	-13691
▁Much	-13692
▁hinz	-13693
▁more	-13694
▁pres	-13695
▁prop	-13696
▁taro	-13697
▁Джер	-13698
▁Зума	-13699
▁Кочи	-13700
▁Мала	-13701
▁Одди	-13702
▁Тейш	-13703
▁маги	-13704
▁саго	-13705
▁сосе	-13706
chewan	-13707
ntario	-13708
parate	-13709
person	-13710
Керала	-13711
Харбор	-13712
ладипо	-13713
скачев	-13714
▁1862.	-13715
▁1923.	-13716
▁1989.	-13717
▁497,0	-13718
▁53502	-13719
▁66391	-13720
▁Brown	-13721
▁Sadiq	-13722
▁Turin	-13723
▁advis	-13724
▁beher	-13725
▁brown	-13726
▁parts	-13727
▁Маран	-13728
▁Неаве	-13729
▁Нийме	-13730
▁Пермь	-13731
▁Тихом	-13732
▁арабы	-13733
▁банан	-13734
▁затем	-13735
▁источ	-13736
▁париж	-13737
▁центр	-13738
меззане	-13739
▁Cesana	-13740
▁Latium	-13741
▁Sardar	-13742
▁Saskat	-13743
▁Transl	-13744
▁attack	-13745
▁sounds	-13746
▁Польше	-13747
▁Тичино	-13748
▁Шиверс	-13749
▁кетчуп	-13750
▁океане	-13751
▁принял	-13752
▁тренер	-13753
Bakewell	-13754
Атлантой	-13755
▁Asajaya	-13756
▁Espanol	-13757
▁Landesv	-13758
▁operate	-13759
▁severed	-13760
▁variant	-13761
▁Адольфо	-13762
▁Бурером	-13763
▁Воперез	-13764
▁Каталон	-13765
▁Онтарио	-13766
▁Пинхаис	-13767
▁Франсуа	-13768
▁Хайнлей	-13769
▁Эфиопия	-13770
▁конкури	-13771
▁найдены	-13772
▁средней	-13773
▁футболе	-13774
▁1202,846	-13775
▁Ministry	-13776
▁carriers	-13777
▁separate	-13778
▁shredded	-13779
▁Кейптаун	-13780
▁арабском	-13781
▁компенси	-13782
▁магистра	-13783
▁обладает	-13784
▁прозвище	-13785
▁совершен	-13786
Agremiação	-13787
Себастьяне	-13788
▁0965-2140	-13789
▁2006-12-3	-13790
▁46451790.	-13791
▁Kokosnuss	-13792
▁Muchachos	-13793
▁commanded	-13794
▁cubanelle	-13795
▁gebürtige	-13796
▁launchpad	-13797
▁neighbour	-13798
▁провинция	-13799
millimetres	-13800
▁Chicharrón	-13801
▁Veröffentl	-13802
▁beherbergt	-13803
▁containing	-13804
▁Бирмингема	-13805
▁командовал	-13806
▁представля	-13807
▁Bevölkerung	-13808
▁полуострова	-13809
▁последовала	-13810
▁Saskatchewan	-13811
▁используемый	-13812
зербайджанской	-13813
▁Nationalhymne	-13814
▁Строительство	-13815
-0-15-204770-2.	-13816
▁Массачусетский	-13817
39	-13818
TH	-13819
Ко	-13820
кк	-13821
70,	-13822
nod	-13823
xle	-13824
мей	-13825
пци	-13826
▁",	-13827
▁44	-13828
▁65	-13829
▁Ча	-13830
▁Эд	-13831
8055	-13832
AIDS	-13833
PSTH	-13834
ajor	-13835
atur	-13836
ebre	-13837
gang	-13838
iles	-13839
ully	-13840
utet	-13841
Грин	-13842
анин	-13843
дете	-13844
еппе	-13845
ллен	-13846
мена	-13847
плен	-13848
пциг	-13849
смен	-13850
спол	-13851
ёкке	-13852
▁"10	-13853
▁1.2	-13854
▁129	-13855
▁657	-13856
▁7,5	-13857
▁Arb	-13858
▁Mod	-13859
▁Run	-13860
▁Top	-13861
▁def	-13862
▁kön	-13863
▁pen	-13864
▁tub	-13865
▁Буш	-13866
▁Вал	-13867
▁Дия	-13868
▁Тес	-13869
▁Три	-13870
▁Шко	-13871
▁ави	-13872
▁ммс	-13873
▁мощ	-13874
19691	-13875
Monoc	-13876
ittle	-13877
nodar	-13878
ourou	-13879
rakov	-13880
Аллан	-13881
горот	-13882
джанг	-13883
лодеж	-13884
стина	-13885
чного	-13886
ществ	-13887
▁107.	-13888
▁1878	-13889
▁1961	-13890
▁1972	-13891
▁4100	-13892
▁Espa	-13893
▁Ethn	-13894
▁Kras	-13895
▁Lalb	-13896
▁axle	-13897
▁Ашер	-13898
▁Буту	-13899
▁Джаз	-13900
▁Джуз	-13901
▁Куру	-13902
▁Марг	-13903
▁Турк	-13904
▁втор	-13905
▁гриб	-13906
arania	-13907
chisch	-13908
etonil	-13909
olitan	-13910
redder	-13911
silent	-13912
Андерс	-13913
Черный	-13914
дабаде	-13915
▁1,524	-13916
▁1905.	-13917
▁1908.	-13918
▁1959.	-13919
▁1983.	-13920
▁Fisch	-13921
▁Kuban	-13922
▁Mobil	-13923
▁Rapid	-13924
▁Roque	-13925
▁bevel	-13926
▁fully	-13927
▁kämpf	-13928
▁lever	-13929
▁plate	-13930
▁shaft	-13931
▁Браси	-13932
▁Колле	-13933
▁Лацио	-13934
▁Одной	-13935
▁Петра	-13936
▁Позже	-13937
▁выход	-13938
▁латин	-13939
▁парка	-13940
▁санти	-13941
▁стала	-13942
▁улице	-13943
herwell	-13944
syncrom	-13945
Туркмен	-13946
электри	-13947
▁1142,3	-13948
▁498055	-13949
▁519691	-13950
▁Combat	-13951
▁Kimber	-13952
▁Kourou	-13953
▁Mather	-13954
▁Mulatu	-13955
▁Roland	-13956
▁centim	-13957
▁change	-13958
▁clutch	-13959
▁geback	-13960
▁gewann	-13961
▁joints	-13962
▁können	-13963
▁lautet	-13964
▁spiral	-13965
▁Андрея	-13966
▁Африке	-13967
▁Грассо	-13968
▁Тесдом	-13969
▁здания	-13970
▁приеха	-13971
leitzahl	-13972
ragenden	-13973
▁Alfonso	-13974
▁Helsing	-13975
▁Kissing	-13976
▁Lalbhai	-13977
▁Modling	-13978
▁citizen	-13979
▁komprim	-13980
▁tubular	-13981
▁Департа	-13982
▁Джексон	-13983
▁Итальян	-13984
▁Молодеж	-13985
▁Стеллен	-13986
▁дальний	-13987
▁найдете	-13988
▁степень	-13989
Konferenz	-13990
ropolitan	-13991
чительный	-13992
▁1622.213	-13993
▁2014-15.	-13994
▁31887531	-13995
▁Gerichts	-13996
▁Petrakov	-13997
▁ansässig	-13998
▁commonly	-13999
▁floating	-14000
▁gleichen	-14001
▁particip	-14002
▁schwarze	-14003
▁tomatoes	-14004
▁Вермонта	-14005
▁Германия	-14006
▁Джакарта	-14007
▁Джузеппе	-14008
▁Мемориал	-14009
▁Олусегун	-14010
▁Паллесен	-14011
▁Саскачев	-14012
▁возникли	-14013
▁наземные	-14014
▁попадает	-14015
▁построил	-14016
ganisation	-14017
syncromesh	-14018
▁83646315.	-14019
▁Besatzung	-14020
▁Immobilie	-14021
▁Krasnodar	-14022
▁cylinders	-14023
▁Бутунером	-14024
▁банановой	-14025
▁средством	-14026
▁Geburtsort	-14027
▁Motherwell	-14028
▁Palaetonil	-14029
▁Solanaceae	-14030
▁compressed	-14031
▁Ноттингеме	-14032
▁Понтезонах	-14033
▁молодежной	-14034
▁рождествен	-14035
▁Amtssprache	-14036
▁geschredder	-14037
▁malaysische	-14038
▁Гарвардский	-14039
▁завершилась	-14040
▁музыкантами	-14041
▁Translations	-14042
▁akademisches	-14043
▁gesprochenen	-14044
▁Архитектором	-14045
▁департаменте	-14046
▁малайзийские	-14047
▁национальном	-14048
▁изготовленный	-14049
BI	-14050
Jo	-14051
bh	-14052
bü	-14053
kt	-14054
ад	-14055
кв	-14056
тч	-14057
▁Ü	-14058
/27	-14059
236	-14060
683	-14061
72.	-14062
894	-14063
904	-14064
AHE	-14065
Ord	-14066
Sta	-14067
gel	-14068
tti	-14069
ște	-14070
гне	-14071
ефа	-14072
жал	-14073
жке	-14074
слу	-14075
эла	-14076
▁5-	-14077
▁Di	-14078
▁GA	-14079
▁RQ	-14080
▁Ты	-14081
▁ир	-14082
▁ме	-14083
-529	-14084
ance	-14085
aptă	-14086
aris	-14087
getr	-14088
imes	-14089
ning	-14090
oder	-14091
rüch	-14092
Хоре	-14093
баго	-14094
жный	-14095
кеан	-14096
ории	-14097
пила	-14098
пкин	-14099
сент	-14100
спек	-14101
ству	-14102
терн	-14103
цифи	-14104
шого	-14105
▁189	-14106
▁3.8	-14107
▁bra	-14108
▁rut	-14109
▁Даг	-14110
▁Дом	-14111
▁Кай	-14112
▁Кен	-14113
▁Пла	-14114
▁При	-14115
▁Хек	-14116
▁кру	-14117
▁нес	-14118
▁поч	-14119
▁руб	-14120
▁сжа	-14121
▁югу	-14122
-130,	-14123
AIDBI	-14124
andid	-14125
attro	-14126
ebago	-14127
ehack	-14128
ennis	-14129
etrov	-14130
ienst	-14131
ordon	-14132
riela	-14133
riest	-14134
riffs	-14135
Айрес	-14136
дитер	-14137
лоязы	-14138
онато	-14139
также	-14140
щение	-14141
▁1121	-14142
▁18,5	-14143
▁18.5	-14144
▁2368	-14145
▁Aids	-14146
▁Gmbh	-14147
▁Heck	-14148
▁Rosa	-14149
▁Stra	-14150
▁base	-14151
▁beit	-14152
▁cost	-14153
▁eben	-14154
▁line	-14155
▁Über	-14156
▁Диас	-14157
▁Штаб	-14158
▁Эрни	-14159
▁выхо	-14160
▁гара	-14161
▁длин	-14162
▁доби	-14163
▁куби	-14164
▁силы	-14165
Unique	-14166
ellors	-14167
prache	-14168
Бостон	-14169
единен	-14170
маркет	-14171
налльо	-14172
пкинса	-14173
▁1.905	-14174
▁18.29	-14175
▁1976.	-14176
▁Dește	-14177
▁EPSTH	-14178
▁Giles	-14179
▁Krist	-14180
▁drive	-14181
▁medal	-14182
▁Габри	-14183
▁Грена	-14184
▁Декан	-14185
▁Кампе	-14186
▁Лёкке	-14187
▁Номер	-14188
▁Рашид	-14189
▁Шеста	-14190
▁заклю	-14191
▁клубы	-14192
236-529	-14193
erschen	-14194
getrenn	-14195
ugefügt	-14196
Ассоциа	-14197
зийский	-14198
тийская	-14199
▁107.43	-14200
▁331683	-14201
▁878885	-14202
▁Arbeit	-14203
▁Bodley	-14204
▁Calero	-14205
▁Chapin	-14206
▁Dieter	-14207
▁Former	-14208
▁Gordon	-14209
▁Joseph	-14210
▁Klasse	-14211
▁Status	-14212
▁Valery	-14213
▁deploy	-14214
▁garage	-14215
▁genres	-14216
▁tennis	-14217
▁Ампара	-14218
▁Джонса	-14219
▁Дуглас	-14220
▁Москве	-14221
▁Пеньет	-14222
▁Пеории	-14223
▁Уорден	-14224
▁авиано	-14225
▁бронзы	-14226
▁звезды	-14227
▁земель	-14228
▁класса	-14229
▁продол	-14230
enkandid	-14231
enreiter	-14232
football	-14233
innebago	-14234
▁3800,0.	-14235
▁Español	-14236
▁Hecking	-14237
▁Marsden	-14238
▁Mexican	-14239
▁Texaner	-14240
▁singing	-14241
▁Гунером	-14242
▁Роландо	-14243
▁Суматры	-14244
▁игроком	-14245
▁обороны	-14246
▁рабочей	-14247
▁свинина	-14248
▁специфи	-14249
▁террито	-14250
▁являлся	-14251
Восточной	-14252
воздушные	-14253
футболист	-14254
▁252000,0	-14255
▁252000.0	-14256
▁Gabriela	-14257
▁Kristina	-14258
▁Michetti	-14259
▁gebacken	-14260
▁invasion	-14261
▁rutaceae	-14262
▁Хопкинса	-14263
▁вариации	-14264
▁окружным	-14265
▁регистре	-14266
▁специаль	-14267
Греймашина	-14268
▁Deșteaptă	-14269
▁Dänemarks	-14270
▁Hauptgang	-14271
▁Topklasse	-14272
▁propellor	-14273
▁publishes	-14274
▁Ахмедабад	-14275
▁Берналльо	-14276
▁издателем	-14277
▁кокосовые	-14278
▁коллектив	-14279
▁скоростью	-14280
▁универсал	-14281
▁цилиндров	-14282
ellorsville	-14283
ступенчатая	-14284
▁1980-04-23	-14285
▁Government	-14286
▁Vereinigte	-14287
▁department	-14288
▁Ахмадабаде	-14289
▁Бананамане	-14290
▁Кампеонато	-14291
▁бутерброда	-14292
▁называются	-14293
▁парламента	-14294
▁hinzugefügt	-14295
▁Каталонской	-14296
▁Стеллендаме	-14297
▁истребитель	-14298
▁фламандским	-14299
▁аббревиатура	-14300
▁аббревиатуру	-14301
▁Spitzenkandid	-14302
▁Spitzenreiter	-14303
▁Universitäten	-14304
▁Всеиндийского	-14305
▁строительство	-14306
▁эксплуатируют	-14307
Nationalspieler	-14308
▁Schlüsselperson	-14309
-9	-14310
An	-14311
wa	-14312
Аа	-14313
Ви	-14314
шу	-14315
,57	-14316
-8.	-14317
25-	-14318
3.8	-14319
Eng	-14320
ahn	-14321
amo	-14322
azu	-14323
lef	-14324
tis	-14325
trä	-14326
Зве	-14327
Ман	-14328
але	-14329
гас	-14330
зры	-14331
йсс	-14332
мес	-14333
пдо	-14334
сиф	-14335
сия	-14336
ули	-14337
этл	-14338
▁Of	-14339
▁RB	-14340
▁VA	-14341
▁VD	-14342
▁WB	-14343
▁lo	-14344
▁Ат	-14345
▁лу	-14346
alez	-14347
aupt	-14348
eniz	-14349
gium	-14350
hard	-14351
heim	-14352
kürz	-14353
owle	-14354
rosi	-14355
üler	-14356
Рома	-14357
вами	-14358
день	-14359
жная	-14360
нады	-14361
цузы	-14362
чный	-14363
▁268	-14364
▁500	-14365
▁ATA	-14366
▁Mun	-14367
▁Tob	-14368
▁ink	-14369
▁mex	-14370
▁pos	-14371
▁Най	-14372
▁Нии	-14373
▁Обь	-14374
▁поя	-14375
hesda	-14376
inist	-14377
ionen	-14378
riots	-14379
waren	-14380
Луиса	-14381
Океан	-14382
лейро	-14383
лодка	-14384
ложке	-14385
полни	-14386
тавли	-14387
шение	-14388
щения	-14389
▁1941	-14390
▁1952	-14391
▁21,2	-14392
▁3048	-14393
▁3362	-14394
▁5,57	-14395
▁5.57	-14396
▁Ball	-14397
▁Fenc	-14398
▁Folk	-14399
▁Four	-14400
▁Okeh	-14401
▁Verb	-14402
▁fill	-14403
▁like	-14404
▁vert	-14405
▁Пана	-14406
▁Пери	-14407
▁Тури	-14408
▁воды	-14409
▁прям	-14410
▁элем	-14411
Wakrah	-14412
ection	-14413
ereich	-14414
lefish	-14415
though	-14416
Сампдо	-14417
ареная	-14418
конода	-14419
ющийся	-14420
▁2000,	-14421
▁2005,	-14422
▁347.1	-14423
▁523.9	-14424
▁Acehn	-14425
▁Dutch	-14426
▁Evang	-14427
▁Fluss	-14428
▁Fowle	-14429
▁Kolle	-14430
▁Sauli	-14431
▁Sumac	-14432
▁Tomsk	-14433
▁Trade	-14434
▁Veniz	-14435
▁event	-14436
▁ihrer	-14437
▁years	-14438
▁Арена	-14439
▁Вайсс	-14440
▁Гетти	-14441
▁Дагга	-14442
▁Земля	-14443
▁Иосиф	-14444
▁Саули	-14445
▁Сенат	-14446
▁борту	-14447
▁звуки	-14448
▁орден	-14449
▁ремес	-14450
▁сдела	-14451
▁черни	-14452
verwalt	-14453
▁Curtis	-14454
▁Dalpat	-14455
▁Dinamo	-14456
▁Little	-14457
▁Philip	-14458
▁Runway	-14459
▁Samuel	-14460
▁Tobago	-14461
▁become	-14462
▁celery	-14463
▁litres	-14464
▁române	-14465
▁sesame	-14466
▁Здание	-14467
▁Кирилл	-14468
▁Олланд	-14469
▁Создан	-14470
▁Стивен	-14471
▁Тобаго	-14472
▁многие	-14473
▁модель	-14474
▁общины	-14475
▁прикре	-14476
▁пришед	-14477
▁фрукты	-14478
inwohner	-14479
▁Clayton	-14480
▁Gattung	-14481
▁Munster	-14482
▁Niinist	-14483
▁Ontario	-14484
▁Quattro	-14485
▁advisor	-14486
▁biggest	-14487
▁drafted	-14488
▁verkürz	-14489
▁Альдрин	-14490
▁Гренады	-14491
▁Фрэнком	-14492
▁валютой	-14493
▁обложке	-14494
▁сладкая	-14495
Luftwaffe	-14496
flugzeuge	-14497
uttlefish	-14498
Арлингтон	-14499
Сампдория	-14500
▁Amateurs	-14501
▁Bethesda	-14502
▁Cornwall	-14503
▁Deptford	-14504
▁Gonzalez	-14505
▁Guarania	-14506
▁Hardwick	-14507
▁Jacobean	-14508
▁Patriots	-14509
▁Pecorino	-14510
▁assembly	-14511
▁fillings	-14512
▁Альфонсо	-14513
▁Гусейном	-14514
▁Джвайдан	-14515
▁Замбоанг	-14516
▁Куритиба	-14517
▁астероид	-14518
▁блюзовый	-14519
▁королева	-14520
▁написано	-14521
▁предлага	-14522
footballer	-14523
verwaltung	-14524
Ассоциация	-14525
▁0567-7920	-14526
▁76798317.	-14527
▁Chicharon	-14528
▁Evangelos	-14529
▁Kollegium	-14530
▁Paperback	-14531
▁Südwesten	-14532
▁Venizelos	-14533
▁abgetrenn	-14534
▁automatic	-14535
▁chicharon	-14536
▁ebenfalls	-14537
▁guanciale	-14538
▁Абубакара	-14539
▁кокосовое	-14540
▁Chicharron	-14541
▁Federation	-14542
▁Nordwesten	-14543
▁Oberfläche	-14544
▁автомобили	-14545
▁азиатскими	-14546
▁опубликова	-14547
Диагональная	-14548
▁Соединенное	-14549
▁аналогичные	-14550
▁космическом	-14551
▁миллиметров	-14552
▁принадлежал	-14553
▁руководящим	-14554
▁швейцарский	-14555
конодательный	-14556
▁6603633000,0	-14557
▁6603633000.0	-14558
▁construction	-14559
▁metropolitan	-14560
▁Fahrbahnnamen	-14561
▁Knightsbridge	-14562
▁Индианаполиса	-14563
▁южноафриканцы	-14564
▁kolumbianische	-14565
▁Альтернативный	-14566
▁Куттиккаттооре	-14567
▁заключительный	-14568
▁правительством	-14569
▁Spitzenkandidat	-14570
QU	-14571
fr	-14572
Га	-14573
мм	-14574
мя	-14575
сс	-14576
.),	-14577
348	-14578
48.	-14579
LCN	-14580
QUE	-14581
ück	-14582
Ари	-14583
Вен	-14584
Том	-14585
пру	-14586
цах	-14587
▁99	-14588
▁SS	-14589
▁ob	-14590
▁Ве	-14591
▁ту	-14592
,88.	-14593
-8",	-14594
1951	-14595
1961	-14596
5591	-14597
Amin	-14598
Duch	-14599
acan	-14600
ader	-14601
alin	-14602
also	-14603
avon	-14604
bhai	-14605
ince	-14606
omet	-14607
orse	-14608
rake	-14609
sitz	-14610
tarb	-14611
üßer	-14612
алли	-14613
зики	-14614
инхэ	-14615
йсом	-14616
коба	-14617
оном	-14618
риен	-14619
салм	-14620
ычно	-14621
▁-8.	-14622
▁1,9	-14623
▁2,0	-14624
▁21,	-14625
▁3,5	-14626
▁490	-14627
▁5.4	-14628
▁6,7	-14629
▁6.7	-14630
▁733	-14631
▁99.	-14632
▁Ald	-14633
▁Eug	-14634
▁Hok	-14635
▁Tas	-14636
▁Zar	-14637
▁sen	-14638
▁Доу	-14639
▁Сою	-14640
▁бод	-14641
▁мер	-14642
843.8	-14643
adium	-14644
agoza	-14645
auten	-14646
court	-14647
estro	-14648
eters	-14649
ianza	-14650
iegte	-14651
itung	-14652
ropol	-14653
sbury	-14654
Аллен	-14655
Афины	-14656
денан	-14657
мануэ	-14658
товые	-14659
▁1896	-14660
▁3990	-14661
▁490.	-14662
▁Asch	-14663
▁LLCN	-14664
▁Lage	-14665
▁Well	-14666
▁alum	-14667
▁door	-14668
▁mill	-14669
▁rank	-14670
▁real	-14671
▁Брит	-14672
▁Прей	-14673
▁Пэйн	-14674
▁Ридж	-14675
▁Служ	-14676
▁виды	-14677
▁сель	-14678
92,88.	-14679
erties	-14680
indsor	-14681
ishers	-14682
ivener	-14683
Нептун	-14684
цеплен	-14685
▁1516.	-14686
▁Chili	-14687
▁Chris	-14688
▁Order	-14689
▁Spata	-14690
▁squid	-14691
▁types	-14692
▁Битва	-14693
▁Крест	-14694
▁Кушик	-14695
▁Питер	-14696
▁Созда	-14697
▁Тинхэ	-14698
▁Эмиль	-14699
▁бинта	-14700
▁игрок	-14701
Gericht	-14702
Блэкпул	-14703
Винсент	-14704
Индиана	-14705
ществен	-14706
▁611961	-14707
▁615591	-14708
▁Artill	-14709
▁Dollar	-14710
▁Sinisa	-14711
▁Stalin	-14712
▁cookie	-14713
▁design	-14714
▁oyster	-14715
▁siegte	-14716
▁Аденан	-14717
▁Певица	-14718
▁Руково	-14719
▁Синиса	-14720
▁Стадио	-14721
▁Шестан	-14722
▁Эмануэ	-14723
▁бывшая	-14724
▁менедж	-14725
▁органы	-14726
▁прежде	-14727
▁свиные	-14728
▁физики	-14729
chenbuch	-14730
ometimes	-14731
▁1857-03	-14732
▁1930-01	-14733
▁Alianza	-14734
▁Daggash	-14735
▁Pflanze	-14736
▁Rosales	-14737
▁Windsor	-14738
▁kämpfte	-14739
▁million	-14740
▁stadium	-14741
▁typical	-14742
▁Коваком	-14743
▁Колледж	-14744
▁Лейпциг	-14745
▁Стэнфор	-14746
▁авианос	-14747
▁барабан	-14748
▁голланд	-14749
▁гранита	-14750
▁грантов	-14751
▁добился	-14752
▁измельч	-14753
▁площади	-14754
▁позднее	-14755
▁прежнее	-14756
acanestro	-14757
▁100305,0	-14758
▁125800,0	-14759
▁125800.0	-14760
▁57392246	-14761
▁76798317	-14762
▁Metropol	-14763
▁Zaragoza	-14764
▁gewonnen	-14765
▁verstarb	-14766
▁Ашертоне	-14767
▁Борманом	-14768
▁Вольфман	-14769
▁Габриэла	-14770
▁Мичигана	-14771
▁Скорость	-14772
▁монархом	-14773
▁немецкий	-14774
▁протяжен	-14775
▁сантимет	-14776
▁сотрудни	-14777
▁французы	-14778
▁холодным	-14779
Альбукерки	-14780
Великобрит	-14781
▁Aschgabat	-14782
▁Greenland	-14783
▁Millionen	-14784
▁Spitzname	-14785
▁Universal	-14786
▁guitarist	-14787
▁Испанской	-14788
▁менеджера	-14789
▁мороженое	-14790
▁сгущенное	-14791
▁уральской	-14792
тавливается	-14793
▁1588-2632.	-14794
▁7729430000	-14795
▁Australian	-14796
▁Bloomsbury	-14797
▁Shortcrust	-14798
▁Spitznamen	-14799
▁Stockwerke	-14800
▁Брасилейро	-14801
▁демократия	-14802
▁используем	-14803
▁520906000,0	-14804
▁520906000.0	-14805
▁Bestandteil	-14806
▁Taschenbuch	-14807
▁öffentliche	-14808
▁итальянской	-14809
▁полнопривод	-14810
▁присоединен	-14811
▁участвовали	-14812
▁этническими	-14813
▁öffentlichen	-14814
▁Законодатель	-14815
▁традиционный	-14816
-1-4165-4253-7	-14817
▁Pallacanestro	-14818
▁geschredderte	-14819
▁происхождения	-14820
▁специальности	-14821
▁Metropolregion	-14822
▁Джаяварденепура	-14823
gr	-14824
ül	-14825
МС	-14826
Мо	-14827
уи	-14828
,39	-14829
-8-	-14830
6,0	-14831
amt	-14832
key	-14833
lus	-14834
Бен	-14835
Тей	-14836
ваз	-14837
гут	-14838
жай	-14839
кур	-14840
лый	-14841
мас	-14842
▁62	-14843
▁Mö	-14844
Buzz	-14845
Page	-14846
aint	-14847
angu	-14848
auer	-14849
hydr	-14850
idad	-14851
länd	-14852
mill	-14853
nete	-14854
serv	-14855
wohl	-14856
Дель	-14857
Тама	-14858
вича	-14859
енци	-14860
ирли	-14861
нида	-14862
порт	-14863
прия	-14864
спан	-14865
ступ	-14866
суса	-14867
ттео	-14868
юмас	-14869
▁Dok	-14870
▁Hon	-14871
▁ged	-14872
▁hel	-14873
▁hub	-14874
▁mat	-14875
▁ähn	-14876
▁Маэ	-14877
▁Пес	-14878
▁Под	-14879
▁кух	-14880
▁пуд	-14881
,3968	-14882
,8388	-14883
0025-	-14884
Bauch	-14885
antry	-14886
ealla	-14887
ehöhe	-14888
inese	-14889
owski	-14890
Аарон	-14891
Милан	-14892
джано	-14893
дольф	-14894
йцами	-14895
логии	-14896
мерик	-14897
ногда	-14898
нодар	-14899
рабль	-14900
слуги	-14901
стоку	-14902
▁100.	-14903
▁1929	-14904
▁5,75	-14905
▁5.75	-14906
▁Jama	-14907
▁Oros	-14908
▁Prop	-14909
▁Seat	-14910
▁Tait	-14911
▁Tamp	-14912
▁grie	-14913
▁loin	-14914
▁prog	-14915
▁währ	-14916
▁сена	-14917
▁чиха	-14918
Athens	-14919
esburg	-14920
ierten	-14921
Дельта	-14922
▁Bones	-14923
▁Horse	-14924
▁Mathe	-14925
▁Pilot	-14926
▁Rican	-14927
▁davon	-14928
▁grant	-14929
▁mayor	-14930
▁using	-14931
▁Альбе	-14932
▁Ареше	-14933
▁Белые	-14934
▁Вениз	-14935
▁Косми	-14936
▁Ренци	-14937
▁Санда	-14938
▁Солен	-14939
▁Фавер	-14940
▁Якоба	-14941
▁мекси	-14942
▁могут	-14943
▁стать	-14944
0025-58	-14945
91,8388	-14946
Hungary	-14947
ehackte	-14948
rinidad	-14949
schluss	-14950
smashed	-14951
östlich	-14952
роженец	-14953
тирован	-14954
ческими	-14955
▁2776,0	-14956
▁Carrie	-14957
▁Dieses	-14958
▁DuPage	-14959
▁Eugene	-14960
▁Rosids	-14961
▁chilli	-14962
▁degree	-14963
▁früher	-14964
▁manual	-14965
▁Австра	-14966
▁Анголе	-14967
▁Восточ	-14968
▁Кампус	-14969
▁Маттео	-14970
▁Сталин	-14971
▁мастер	-14972
▁ракови	-14973
▁родной	-14974
▁северу	-14975
▁спорта	-14976
eallaigh	-14977
rimiacao	-14978
Атлантик	-14979
Гринвилл	-14980
▁30843.8	-14981
▁Chorizo	-14982
▁Leitung	-14983
▁Seehöhe	-14984
▁Tampere	-14985
▁another	-14986
▁chopped	-14987
▁tapioca	-14988
▁verstor	-14989
▁während	-14990
▁Австрия	-14991
▁Алабаме	-14992
▁Доусона	-14993
▁Миндаль	-14994
▁Тампере	-14995
▁Тринида	-14996
▁востоку	-14997
▁выходцы	-14998
▁главных	-14999
▁жареную	-15000
▁мрамора	-15001
▁найдено	-15002
▁проспек	-15003
▁сцеплен	-15004
▁чернила	-15005
6000000.0	-15006
ectionery	-15007
▁Acehnese	-15008
▁Brasilia	-15009
▁Kimberly	-15010
▁Soldiers	-15011
▁Springer	-15012
▁creators	-15013
▁darunter	-15014
▁graduate	-15015
▁Антиохии	-15016
▁Ататюрка	-15017
▁Большого	-15018
▁Магдален	-15019
▁Эмануэле	-15020
▁активным	-15021
▁бобслеем	-15022
бревиатура	-15023
▁49805501.	-15024
▁Artillery	-15025
▁Ballistic	-15026
▁Canadians	-15027
▁Winnebago	-15028
▁almaMater	-15029
▁sometimes	-15030
▁Ачарского	-15031
▁Индонезия	-15032
▁Краснодар	-15033
▁говорящим	-15034
▁земельных	-15035
▁латинское	-15036
▁совершила	-15037
онахождение	-15038
▁0001-8392.	-15039
▁Archittura	-15040
▁Footballer	-15041
▁Mihajlovic	-15042
▁Properties	-15043
▁Альбукерки	-15044
▁Балтийская	-15045
▁сокращенно	-15046
▁являющийся	-15047
▁Aktieselkab	-15048
▁Greenlandic	-15049
▁chinesische	-15050
▁категоричен	-15051
▁музыкальной	-15052
▁поверхность	-15053
▁трансмиссию	-15054
▁Nationalpark	-15055
▁Technologies	-15056
▁beitragenden	-15057
▁руководитель	-15058
Великобритания	-15059
▁0-374-26131-8.	-15060
▁Атлантического	-15061
▁протяженностью	-15062
▁азербайджанской	-15063
▁государственная	-15064
▁эксплуатируемый	-15065
-6	-15066
Ge	-15067
ID	-15068
fu	-15069
go	-15070
ll	-15071
rs	-15072
ua	-15073
Zaw	-15074
cht	-15075
ckt	-15076
hri	-15077
ibe	-15078
uem	-15079
who	-15080
атю	-15081
бов	-15082
буд	-15083
виз	-15084
гле	-15085
хой	-15086
▁48	-15087
▁90	-15088
▁IV	-15089
▁Km	-15090
▁NZ	-15091
▁Ау	-15092
▁Гю	-15093
▁Эф	-15094
▁са	-15095
▁уч	-15096
0.0.	-15097
188.	-15098
823.	-15099
Buch	-15100
iker	-15101
itut	-15102
ival	-15103
keit	-15104
mere	-15105
rock	-15106
елли	-15107
жима	-15108
леон	-15109
синг	-15110
ссек	-15111
терз	-15112
▁1.8	-15113
▁20,	-15114
▁45.	-15115
▁621	-15116
▁94.	-15117
▁Bas	-15118
▁Dep	-15119
▁Hav	-15120
▁Kur	-15121
▁Mus	-15122
▁Raf	-15123
▁Sip	-15124
▁use	-15125
▁Имя	-15126
▁Хар	-15127
▁спи	-15128
▁удо	-15129
▁чье	-15130
Zawra	-15131
asiat	-15132
iseum	-15133
iskey	-15134
ively	-15135
алдор	-15136
делах	-15137
йскую	-15138
стров	-15139
успел	-15140
▁0.21	-15141
▁2194	-15142
▁250.	-15143
▁Ahri	-15144
▁Fair	-15145
▁Juha	-15146
▁Rona	-15147
▁Ster	-15148
▁Udin	-15149
▁blue	-15150
▁held	-15151
▁side	-15152
▁teil	-15153
▁Жано	-15154
▁Сума	-15155
▁батю	-15156
▁дней	-15157
▁запи	-15158
▁план	-15159
Amster	-15160
amergh	-15161
elaide	-15162
ension	-15163
liment	-15164
renton	-15165
rüchte	-15166
utende	-15167
ämonym	-15168
Барные	-15169
деньем	-15170
леонто	-15171
сменом	-15172
сполни	-15173
▁18,29	-15174
▁1982.	-15175
▁490,9	-15176
▁490.9	-15177
▁Donal	-15178
▁Finns	-15179
▁Latin	-15180
▁Plast	-15181
▁Silva	-15182
▁Stück	-15183
▁chili	-15184
▁texas	-15185
▁Армия	-15186
▁Баада	-15187
▁Исаак	-15188
▁Тайус	-15189
▁Хорри	-15190
▁Ширли	-15191
▁арахи	-15192
▁дизай	-15193
▁запис	-15194
▁пуско	-15195
▁сокра	-15196
▁сразу	-15197
▁суста	-15198
▁тапио	-15199
82,3968	-15200
Fußball	-15201
arnival	-15202
kämpfer	-15203
Атланты	-15204
ющегося	-15205
▁Columb	-15206
▁Lankan	-15207
▁Musuem	-15208
▁Number	-15209
▁Patten	-15210
▁Warnem	-15211
▁fruits	-15212
▁instit	-15213
▁spouse	-15214
▁südost	-15215
▁Погсон	-15216
▁Страну	-15217
▁Турине	-15218
▁Эндрюс	-15219
▁Языком	-15220
▁выигра	-15221
▁госсек	-15222
▁иногда	-15223
▁обычно	-15224
▁певицы	-15225
▁удосто	-15226
▁федера	-15227
091,8388	-15228
anischen	-15229
ternsoße	-15230
Коритиба	-15231
Тирструп	-15232
▁Hungary	-15233
▁Javaner	-15234
▁Schüler	-15235
▁Udinese	-15236
▁dollars	-15237
▁Корабль	-15238
▁Лимерик	-15239
▁Пантерз	-15240
▁Райхель	-15241
▁бионико	-15242
▁коробка	-15243
▁наполни	-15244
▁приехал	-15245
▁сборная	-15246
▁социали	-15247
▁чихарон	-15248
ellamergh	-15249
оранжевой	-15250
▁Adelaide	-15251
▁Coliseum	-15252
▁Havering	-15253
[...]
